।	-3.26059
,	-3.40604
▁এবং	-4.64889
ের	-4.66195
-	-4.75842
র	-4.91435
.	-4.9219
▁ও	-4.93317
▁করে	-4.94527
:	-4.96968
▁(	-5.02598
▁করা	-5.07053
)	-5.07619
▁এই	-5.19249
▁না	-5.24047
▁যে	-5.2675
▁জন্য	-5.27597
▁হয়	-5.38824
▁"	-5.39909
ে	-5.41633
?	-5.44254
▁থেকে	-5.47679
▁তিনি	-5.54012
কে	-5.5525
▁তার	-5.59807
▁করতে	-5.6738
▁একটি	-5.70962
▁আমি	-5.78585
▁আর	-5.81235
"	-5.84094
ই	-5.84383
▁করেন	-5.86803
▁-	-5.8844
▁তাদের	-5.89512
▁করার	-5.89658
▁আমাদের	-5.90167
▁এর	-5.9276
▁এক	-5.97091
▁আমরা	-5.98923
▁ছিল	-6.01264
ও	-6.02258
▁বা	-6.0489
▁হবে	-6.15193
▁তা	-6.16561
▁মধ্যে	-6.16967
▁সালে	-6.17203
▁তারা	-6.19784
▁এ	-6.19826
▁কিন্তু	-6.20005
▁কি	-6.23198
▁কোন	-6.23332
▁আমার	-6.24245
;	-6.3001
▁একজন	-6.31154
▁যা	-6.32131
▁হয়েছে	-6.36175
▁হয়ে	-6.37766
▁সেই	-6.38295
▁তাঁর	-6.40045
▁সাথে	-6.40179
!	-6.42649
▁কিছু	-6.42798
'	-6.42932
▁সঙ্গে	-6.43106
▁সে	-6.4511
▁একটা	-6.47119
▁নিয়ে	-6.47732
টি	-6.4899
▁পারে	-6.50824
▁সময়	-6.51145
▁হিসেবে	-6.54068
তে	-6.54715
▁এটা	-6.54931
▁কাজ	-6.59137
▁যায়	-6.59285
▁'	-6.62342
ন	-6.64846
▁।	-6.66254
▁বলে	-6.66967
▁আছে	-6.68109
▁আপনি	-6.68119
▁যখন	-6.68238
▁	-6.68475
▁রয়েছে	-6.68906
▁কথা	-6.71997
▁সালের	-6.7241
দের	-6.73177
▁১	-6.73566
▁অনেক	-6.73958
▁প্রতি	-6.75219
▁মনে	-6.75454
য়	-6.78185
▁হয়েছিল	-6.78203
▁পর	-6.80239
স	-6.80277
▁যদি	-6.80388
▁করেছিলেন	-6.82548
▁২	-6.8318
▁প্রথম	-6.84831
▁হতে	-6.84892
▁কাছে	-6.84968
রা	-6.85099
▁হল	-6.87088
▁তুমি	-6.8752
▁নয়	-6.87628
▁এটি	-6.88647
▁শুরু	-6.88687
১	-6.89411
।"	-6.89466
▁দিয়ে	-6.90164
▁দ্বারা	-6.91517
▁ব্যবহার	-6.91728
▁থাকে	-6.92017
▁ছিলেন	-6.92475
...	-6.92759
▁বছর	-6.93486
▁করেছে	-6.93939
▁ঈশ্বরের	-6.94798
▁হচ্ছে	-6.95894
ক	-6.96343
▁আপনার	-6.96384
▁যিহোবার	-6.97451
▁কী	-6.97552
▁তখন	-7.01215
টা	-7.01235
া	-7.01321
▁করুন	-7.01611
▁এমন	-7.05421
▁তাকে	-7.06084
ি	-7.07118
▁মাধ্যমে	-7.08934
▁৩	-7.1015
▁কোনো	-7.10251
▁তাই	-7.12132
▁সাহায্য	-7.13391
▁করেছেন	-7.14022
▁বেশি	-7.14185
▁করি	-7.14573
▁পর্যন্ত	-7.14801
▁নতুন	-7.15184
▁অথবা	-7.15849
▁[	-7.16535
▁বিভিন্ন	-7.17392
▁কারণ	-7.17671
▁তোমার	-7.17825
]	-7.1844
▁আরও	-7.19933
▁দেওয়া	-7.20163
▁সম্বন্ধে	-7.20324
▁উপর	-7.20857
ী	-7.21525
▁বিষয়ে	-7.21977
▁যারা	-7.23104
এর	-7.24816
▁এখন	-7.25688
▁কেন	-7.26786
▁৪	-7.2729
▁দেখা	-7.29293
▁জন	-7.29643
▁আমাকে	-7.30424
▁যিহোবা	-7.31613
▁নাম	-7.32181
▁বাইবেল	-7.3341
▁৫	-7.3359
▁করেছিল	-7.34248
▁নেই	-7.34419
গুলো	-7.35052
▁পারি	-7.35444
▁করবে	-7.35613
▁তবে	-7.35937
▁হন	-7.36128
▁অন্যান্য	-7.36233
▁দিকে	-7.36521
▁প্রায়	-7.37129
▁দেয়	-7.37864
▁মতো	-7.37907
তা	-7.38595
▁লাভ	-7.38737
▁প্রধান	-7.39002
▁৬	-7.39602
▁শেষ	-7.39866
▁সব	-7.41422
২	-7.41944
▁ক্ষেত্রে	-7.42228
▁শিক্ষা	-7.42229
▁তৈরি	-7.43135
ভাবে	-7.43721
▁অংশ	-7.44373
▁হলে	-7.45201
▁আগে	-7.46131
▁উত্তর	-7.46316
▁ঠিক	-7.46711
এ	-7.46795
▁পরে	-7.47075
▁বলা	-7.48164
▁কীভাবে	-7.49345
▁অন্য	-7.4983
▁এখানে	-7.50063
▁প্রদান	-7.50147
▁পারেন	-7.50527
▁১০	-7.51496
▁বিষয়	-7.5167
▁তাহলে	-7.51805
ল	-7.5307
▁প্রকাশ	-7.5315
▁ওপর	-7.53239
▁ব্যক্তি	-7.53446
/	-7.537
▁দিন	-7.54249
না	-7.54596
▁কারণে	-7.54689
▁বড়	-7.55512
▁হওয়ার	-7.5581
▁খুব	-7.56185
▁দিতে	-7.56928
▁করছে	-7.56964
▁ধরে	-7.57076
ম	-7.57155
▁যেমন	-7.57335
▁সময়ে	-7.57342
▁...	-7.58796
▁জীবন	-7.59332
),	-7.59428
▁বিশেষ	-7.59868
▁ধরনের	-7.59906
▁বিশ্বাস	-7.59954
▁সমস্ত	-7.59964
▁ঈশ্বর	-7.60693
▁যার	-7.60882
▁যেতে	-7.6103
▁ফলে	-7.61818
▁১৫	-7.62146
▁হিসাবে	-7.62996
▁জাতীয়	-7.63143
▁কেউ	-7.63517
গুলি	-7.63619
▁যেখানে	-7.63996
%	-7.6431
▁সরকার	-7.64328
▁পাওয়া	-7.6461
▁গ্রহণ	-7.65053
▁নামে	-7.65217
৩	-7.65777
▁বাংলাদেশ	-7.66401
▁সকল	-7.66565
▁১২	-7.69196
৫	-7.69433
▁উচিত	-7.70709
▁৭	-7.7333
▁সেখানে	-7.73986
▁যেন	-7.74049
▁চেষ্টা	-7.74128
▁মত	-7.74201
▁একই	-7.7614
▁হয়তো	-7.76197
▁অর্থ	-7.76322
▁ব্যবস্থা	-7.76818
▁বিরুদ্ধে	-7.76862
▁কে	-7.77734
▁ভারতের	-7.78394
▁প্রয়োজন	-7.78505
▁অ	-7.78617
▁হওয়া	-7.78739
▁সবচেয়ে	-7.79608
▁আইন	-7.80224
▁গুরুত্বপূর্ণ	-7.80356
▁কর	-7.80678
▁মানুষ	-7.8118
▁যিনি	-7.81469
৪	-7.82049
▁১৭	-7.82074
▁তথ্য	-7.82425
▁ছবি	-7.83297
▁৮	-7.8351
▁বলেন	-7.84014
▁লোক	-7.85015
▁বলতে	-7.85092
ত	-7.85231
▁তো	-7.85272
▁১১	-7.86703
▁সেটা	-7.87045
▁কম	-7.87293
ো	-7.87337
জ	-7.88082
▁মা	-7.8864
▁বলেছিলেন	-7.8893
▁চলে	-7.89175
▁যদিও	-7.89812
ার	-7.89968
▁দেন	-7.90552
▁২০	-7.90906
▁১৩	-7.91074
ব	-7.91676
▁সম্পর্কে	-7.91869
▁যাবে	-7.92181
নি	-7.92277
▁৯	-7.9305
▁দুই	-7.93071
▁সদস্য	-7.93254
▁১৪	-7.93373
▁বিশ্ববিদ্যালয়	-7.93394
▁বেশ	-7.93446
▁দেখতে	-7.9396
▁দল	-7.94041
▁১৮	-7.94168
▁করবেন	-7.94227
▁নিজের	-7.94365
▁১৬	-7.94615
▁সুযোগ	-7.94726
▁প্রচার	-7.95041
▁সাধারণ	-7.95205
▁দ্বিতীয়	-7.95475
▁ভাল	-7.9558
▁অবস্থিত	-7.95585
▁ছাড়া	-7.96094
বি	-7.96259
▁আল	-7.96573
▁মানুষের	-7.97001
▁গেছে	-7.97204
▁পূর্ব	-7.97729
▁পালন	-7.98026
▁দক্ষিণ	-7.98034
িত	-7.98065
ঃ	-7.98204
▁দেশের	-7.98244
▁চেয়ে	-7.99343
▁সেবা	-8.00059
▁যিশু	-8.00603
▁চিন্তা	-8.00705
▁পরিচিত	-8.01218
▁চলচ্চিত্র	-8.01509
▁বাংলাদেশের	-8.01521
▁পড়ে	-8.01561
▁আবার	-8.01683
৬	-8.01778
▁শুধু	-8.01865
▁দেওয়ার	-8.01979
৮	-8.02148
▁লোকেদের	-8.02682
▁থাকা	-8.02714
▁পরিবর্তন	-8.02864
▁আন্তর্জাতিক	-8.02945
▁ভাষায়	-8.03012
৯	-8.03127
▁দায়িত্ব	-8.03481
▁নি	-8.0379
▁উল্লেখ	-8.04655
▁হার	-8.04869
▁প্রকাশিত	-8.04975
▁বন্ধ	-8.0509
▁সত্য	-8.05593
শ	-8.05732
১৫	-8.0574
▁যাতে	-8.06522
▁বি	-8.06565
▁তুলে	-8.06899
৭	-8.073
▁কাজে	-8.07471
▁ফিরে	-8.07518
কা	-8.07803
▁তোমাকে	-8.07965
▁হলো	-8.07983
▁ছোট	-8.08124
▁যোগ	-8.08181
▁গড়ে	-8.08962
▁মে	-8.09643
▁ভালো	-8.09738
▁ই	-8.10019
▁বাবা	-8.10191
▁সাল	-8.10432
▁ভারতীয়	-8.10499
ীয়	-8.11107
▁অব	-8.1135
▁কর্তৃক	-8.11767
▁কাছ	-8.118
কারী	-8.11963
▁স্থানীয়	-8.1234
▁পুরস্কার	-8.12983
▁বছরের	-8.1365
▁সংখ্যা	-8.13657
গুলোর	-8.13885
▁সৃষ্টি	-8.15398
▁আলোচনা	-8.15819
১০	-8.16307
▁রাজনৈতিক	-8.16494
▁রাখা	-8.16648
▁আশা	-8.16688
▁বুঝতে	-8.16717
▁এমনকি	-8.16891
সহ	-8.17565
▁অনুযায়ী	-8.17612
▁আরো	-8.17715
▁নিজেদের	-8.17849
▁দলের	-8.17929
▁আপনাকে	-8.1827
▁বাক্য	-8.1867
▁হতো	-8.18779
▁রাজ্যের	-8.19212
▁বর্তমানে	-8.19346
▁মারা	-8.19409
্	-8.1954
▁আসে	-8.1955
▁থাকতে	-8.19691
▁উদাহরণ	-8.19747
▁ব্যাপারে	-8.19964
▁ভাই	-8.20049
▁বের	-8.20263
▁যাচ্ছে	-8.20561
ট	-8.20611
▁তালিকা	-8.20879
▁জেলা	-8.21046
▁ঘোষণা	-8.213
▁গান	-8.21317
▁টি	-8.21799
▁ভাষা	-8.22237
▁চাই	-8.22335
সি	-8.22894
▁সরকারের	-8.22911
▁স্থান	-8.23083
▁রাজা	-8.23177
▁মাঝে	-8.23435
▁বাংলা	-8.23615
▁ক্ষমতা	-8.23623
▁দিয়েছিলেন	-8.23688
▁কেবল	-8.23868
▁উচ্চ	-8.24364
▁প্রার্থনা	-8.24367
▁হাজার	-8.24426
▁ঢাকা	-8.24475
০০০	-8.2457
গুলির	-8.24658
▁পায়	-8.24689
▁পরিবারের	-8.24926
▁নারী	-8.24998
▁নিতে	-8.25016
▁সিদ্ধান্ত	-8.25282
▁শহর	-8.25303
১৭	-8.25434
খ	-8.25473
▁খুবই	-8.25498
▁অধ্যয়ন	-8.25724
▁যুদ্ধ	-8.2575
▁যান	-8.25815
▁শহরের	-8.25843
মা	-8.2603
▁মূল	-8.26077
▁করো	-8.26097
▁লক্ষ	-8.26376
▁বৃদ্ধি	-8.26858
▁তাদেরকে	-8.26888
১৪	-8.27349
▁দেখে	-8.2764
▁প্রদর্শন	-8.27709
▁২৪	-8.28382
▁অফ	-8.28448
প	-8.28505
▁নিশ্চিত	-8.28762
▁মার্কিন	-8.2895
▁সম্ভব	-8.29165
▁বিবেচনা	-8.2934
▁এরপর	-8.29635
▁পারবে	-8.29782
▁বাইবেলের	-8.29903
▁জেলার	-8.29951
▁জন্ম	-8.30012
▁অধিকার	-8.30162
▁চান	-8.30248
১২	-8.30538
▁১৯	-8.3055
▁অর্জন	-8.30609
▁কলেজ	-8.30746
টির	-8.3075
▁সমস্যা	-8.30885
১৬	-8.31125
১৮	-8.31188
১১	-8.31505
▁লেখা	-8.31643
▁মাসে	-8.31688
▁তিন	-8.31774
▁পরীক্ষা	-8.31933
▁পুরুষ	-8.32108
▁তাঁকে	-8.3214
▁যীশু	-8.32321
▁মহিলা	-8.32533
১৩	-8.32674
▁ঘটনা	-8.33232
▁প্রেরিত	-8.33347
▁অন্তর্ভুক্ত	-8.33434
ং	-8.33473
▁পরিবার	-8.33654
▁দেশে	-8.33762
▁দু	-8.33807
▁যাওয়ার	-8.33821
▁অনুসারে	-8.3405
▁কেন্দ্র	-8.34087
▁গিয়ে	-8.34175
▁জীবনের	-8.34474
▁অবস্থান	-8.34905
গ	-8.34928
▁কাজের	-8.35057
লি	-8.35079
▁দেয়া	-8.35144
▁কয়েক	-8.35784
▁প্রাচীন	-8.35991
িং	-8.36595
▁নির্বাচিত	-8.36634
▁লোকেরা	-8.36845
▁বার	-8.37029
▁শক্তি	-8.37063
▁ব্যাখ্যা	-8.37105
▁দুটি	-8.37128
▁খান	-8.37129
▁পথ	-8.37405
▁জন্যে	-8.37563
▁কখনও	-8.37759
▁পরিচালিত	-8.38327
▁সারা	-8.38438
▁ধর্মীয়	-8.38938
▁উদ্দেশ্য	-8.38951
তার	-8.39
▁ভুল	-8.39014
▁প্রতিষ্ঠান	-8.39299
▁দেখুন	-8.39393
▁টাকা	-8.39433
ড	-8.39442
▁দরকার	-8.39561
▁থাকবে	-8.39654
▁চিত্র	-8.39809
▁থাকার	-8.3987
লা	-8.39947
▁করত	-8.40195
্য	-8.40234
▁সামাজিক	-8.40243
▁রাজ্য	-8.40252
▁পরবর্তী	-8.40285
▁পক্ষে	-8.4029
▁যাওয়া	-8.40341
%,	-8.40857
▁বাস	-8.41106
▁২১	-8.41122
▁সম্পর্ক	-8.41261
▁হয়নি	-8.41324
▁মাত্র	-8.41392
▁পৌল	-8.41481
▁খুঁজে	-8.41576
▁নির্মাণ	-8.41681
▁করছেন	-8.41765
জি	-8.42075
▁২২	-8.42096
▁ভাবে	-8.42219
▁বিদ্যালয়	-8.4233
।"-	-8.42423
▁মৃত্যু	-8.42472
▁দেশ	-8.42488
▁অবশ্যই	-8.42851
▁বার্তা	-8.43118
▁রক্ষা	-8.43278
▁২৫	-8.43382
▁সরকারি	-8.43519
▁সামনে	-8.43601
পুর	-8.43694
▁অনুষ্ঠিত	-8.43733
▁জানি	-8.43813
▁হ্যাঁ	-8.44465
▁মার্চ	-8.44725
▁ভারত	-8.4491
▁প্রভাব	-8.45102
▁?	-8.45123
▁পদ	-8.45123
▁ইতিহাস	-8.45347
▁সি	-8.45417
▁পৃষ্ঠার	-8.45513
▁সময়ের	-8.45546
▁৩০	-8.45773
িয়া	-8.45856
▁সহ	-8.45914
▁পরিচালনা	-8.45919
▁তোমাদের	-8.45982
বা	-8.46072
▁লক্ষ্য	-8.46263
▁উল্লেখযোগ্য	-8.4629
▁মধ্য	-8.46356
▁সমর্থন	-8.46554
▁প্রেম	-8.46913
▁আসলে	-8.46961
▁এতে	-8.47151
▁বর্ণনা	-8.4741
▁করতেন	-8.47672
▁শিল্প	-8.48154
▁শব্দ	-8.48355
▁কখনো	-8.48378
আমি	-8.48514
▁আধ্যাত্মিক	-8.48572
▁বর্তমান	-8.49025
▁অন্যদের	-8.49674
▁কঠিন	-8.4977
▁ভয়	-8.49903
▁স্থাপন	-8.50179
▁বই	-8.50374
▁তোমরা	-8.50446
▁নির্বাচন	-8.50651
▁ঐ	-8.50682
▁কিভাবে	-8.50851
▁ব্যবহৃত	-8.50856
▁ক্রিকেট	-8.50919
▁স্কুল	-8.51
▁উপ	-8.51204
বার	-8.51429
▁নামক	-8.51546
▁ব্যক্তিগত	-8.51914
▁ডি	-8.51946
▁পরামর্শ	-8.51967
▁গঠিত	-8.5201
▁থাকেন	-8.52026
িক	-8.52047
▁সা	-8.52096
▁পান	-8.52224
▁হাতে	-8.52322
▁মিনিট	-8.52347
▁ব্যক্তিদের	-8.52537
▁২৩	-8.52549
▁নেওয়া	-8.52615
▁অভিনয়	-8.52923
▁নিজেকে	-8.52992
▁পুলিশ	-8.53093
▁ব্যক্তির	-8.53211
১৯	-8.53504
▁ছেড়ে	-8.53648
▁দিয়েছে	-8.53689
▁প্রশ্ন	-8.53695
▁রাখতে	-8.53888
▁আজ	-8.54167
▁হাত	-8.54218
ফ	-8.54527
▁প্রাথমিক	-8.54529
▁ঘটে	-8.55015
▁ভিডিও	-8.55037
▁পবিত্র	-8.55057
▁আমাদেরকে	-8.55057
▁ধারণা	-8.55338
▁জানতে	-8.55443
▁ভাগ	-8.55789
▁প্রমাণ	-8.55795
▁এলাকায়	-8.55864
▁ডিসেম্বর	-8.55877
▁ব্রিটিশ	-8.55991
▁ধর্ম	-8.56072
▁পরিণত	-8.56114
▁সঠিক	-8.56422
▁দিক	-8.5646
▁ভূমিকা	-8.56522
▁করছি	-8.56863
সা	-8.57214
হ	-8.57355
▁সাধারণত	-8.57386
▁সেগুলো	-8.57437
▁বিভাগ	-8.57533
▁সম্ভবত	-8.57639
▁তারপর	-8.57684
▁যোহন	-8.57768
▁মান	-8.5785
বে	-8.57933
▁ফল	-8.57963
▁এসব	-8.58068
▁মুসলিম	-8.5816
▁দ্য	-8.58415
▁পরিকল্পনা	-8.58637
▁ব্যর্থ	-8.58997
▁এসে	-8.59116
▁কোথায়	-8.59362
▁সু	-8.59364
দ	-8.59729
▁পূর্বে	-8.59764
▁এত	-8.59859
▁#	-8.60229
▁যাদের	-8.60562
▁উপজেলা	-8.60686
রি	-8.60808
▁অবস্থা	-8.60969
▁এপ্রিল	-8.60973
▁উত্তম	-8.61166
▁সংবাদ	-8.61228
▁জানা	-8.61271
▁সবাই	-8.61296
▁উক্ত	-8.61415
▁এলাকা	-8.61466
▁মি	-8.61569
▁দ্রুত	-8.61733
▁গত	-8.61843
▁বাইরে	-8.61922
▁অন্যতম	-8.61959
▁বরং	-8.62075
ু	-8.62088
▁সংক্রান্ত	-8.62365
▁চালু	-8.62526
▁যোগাযোগ	-8.63146
▁২০১১	-8.6337
▁উপস্থিত	-8.63633
ভ	-8.63774
▁এখনও	-8.63944
▁জুন	-8.63975
▁উপরে	-8.64177
ডি	-8.64278
▁যিশুর	-8.64359
▁ভিত্তি	-8.64417
▁পাকিস্তান	-8.64424
▁.	-8.64529
▁সত্ত্বেও	-8.6456
কার	-8.64759
▁উন্নয়ন	-8.6482
▁জনসংখ্যা	-8.64842
▁খারাপ	-8.64865
▁একটু	-8.64873
▁আনন্দ	-8.64988
▁শুধুমাত্র	-8.65192
▁বিচার	-8.65227
▁মাস	-8.65279
▁নির্দিষ্ট	-8.65531
▁তারিখে	-8.65921
২০	-8.6593
▁সামরিক	-8.65965
▁জ্ঞান	-8.66078
▁পূর্ণ	-8.66352
ছে	-8.66778
▁অধীনে	-8.66996
▁মৃত্যুর	-8.67123
▁যুক্ত	-8.67123
▁পেতে	-8.67213
▁যেহেতু	-8.67283
▁রেখে	-8.6739
▁দাবি	-8.6741
▁কয়েকটি	-8.67455
▁বিশ্ব	-8.67484
▁স্ত্রী	-8.67554
▁ফাইল	-8.67597
▁হয়েছিলেন	-8.67769
▁অপেক্ষা	-8.67912
▁শহরে	-8.67932
▁আ	-8.67956
সমূহ	-8.68091
▁@	-8.68104
▁ওই	-8.68222
দা	-8.6846
▁প্রবেশ	-8.6858
কি	-8.68625
▁দান	-8.68739
▁একমাত্র	-8.68761
▁পানি	-8.68789
▁গবেষণা	-8.6901
▁আসা	-8.69035
▁নদী	-8.69227
▁করেছি	-8.69487
▁আইনের	-8.69569
▁পুনরায়	-8.69581
▁কিমি	-8.69642
▁গঠন	-8.69693
▁করলে	-8.69867
▁জুলাই	-8.70156
▁করব	-8.70217
▁পিতর	-8.70427
▁উৎস	-8.70536
▁জীবনে	-8.7061
▁মন্তব্য	-8.70613
▁পরিমাণ	-8.70619
▁এছাড়াও	-8.70646
▁পা	-8.70722
▁বিষয়টা	-8.71036
▁প্রতিষ্ঠিত	-8.71184
▁পৃথিবীর	-8.71399
▁এসেছে	-8.71782
▁চায়	-8.71838
▁মোট	-8.71912
▁বন্ধু	-8.72005
▁ধ্বংস	-8.72075
▁বিশ্বের	-8.72218
▁অক্টোবর	-8.72609
এস	-8.72623
▁মনোযোগ	-8.72735
▁কিংবা	-8.73092
মি	-8.73251
চ	-8.73319
▁রাখার	-8.73399
পি	-8.73508
▁পদে	-8.7365
▁হত্যা	-8.73733
▁হত্তয়া	-8.73816
▁পি	-8.73822
▁গিয়েছিল	-8.7386
▁নিউ	-8.74177
▁স	-8.7447
▁সম্পূর্ণ	-8.74711
মথি	-8.74875
▁মানে	-8.74998
▁ইত্যাদি	-8.75069
▁হলেন	-8.7516
▁বিবরণ	-8.753
▁জল	-8.75408
▁রিপোর্ট	-8.75637
▁মথি	-8.75796
▁দিনের	-8.75987
▁শাসন	-8.76023
▁কৃষি	-8.76085
▁ধন্যবাদ	-8.76489
▁বাধ্য	-8.76494
▁শিক্ষার	-8.76501
▁২৮	-8.76521
▁স্যার	-8.76625
▁স্বাধীনতা	-8.76788
▁২০০১	-8.76815
লে	-8.77186
▁শক্তিশালী	-8.7731
য়া	-8.77434
▁নেয়	-8.7755
▁বাংলাদেশে	-8.77766
▁কেমন	-8.77945
▁গ্রাম	-8.77957
▁ফেলে	-8.77971
▁এম	-8.7798
▁চার	-8.78117
▁পৃথিবীতে	-8.78171
▁নিয়ন্ত্রণ	-8.78225
▁ব্লগ	-8.78397
▁আগস্ট	-8.78536
▁ধরা	-8.78601
মূলক	-8.78737
▁খাদ্য	-8.78808
▁শিশু	-8.78864
▁বহু	-8.78957
▁ভিন্ন	-8.78969
আ	-8.79211
কৃত	-8.79253
▁নির্দেশ	-8.79422
▁শান্তি	-8.79468
▁অত্যন্ত	-8.79636
▁নভেম্বর	-8.79826
▁কিছুই	-8.79945
▁ইচ্ছা	-8.80004
▁নেওয়ার	-8.80047
▁মণ্ডলীর	-8.80123
▁সংস্থা	-8.80161
▁সেপ্টেম্বর	-8.80162
▁!	-8.80214
২৪	-8.80245
▁হত	-8.8031
▁বিষয়টি	-8.80326
▁২০১৪	-8.80364
▁পরিচালক	-8.80441
▁আধুনিক	-8.8055
▁আই	-8.80649
▁অবস্থায়	-8.80656
২১	-8.80722
▁একে	-8.80765
সে	-8.80797
▁মন	-8.80805
২২	-8.80855
▁বিয়ে	-8.80873
▁খেলা	-8.80881
▁পুরো	-8.80962
▁হোক	-8.81011
▁থেকেই	-8.81059
▁মুক্ত	-8.81339
গণ	-8.81423
▁জনসংখ্যার	-8.81572
▁বজায়	-8.8164
▁এভাবে	-8.81776
▁জানুয়ারি	-8.81869
▁কিনা	-8.82117
▁সম্মান	-8.82264
▁পরিবর্তে	-8.82372
২৩	-8.8251
▁পদ্ধতি	-8.82617
▁সবসময়	-8.82743
▁আলাদা	-8.82836
মান	-8.829
▁উদ্দেশ্যে	-8.8303
▁অর্থনৈতিক	-8.83084
▁স্থানে	-8.83156
এম	-8.83221
▁জায়গায়	-8.83223
টার	-8.83253
▁নির্মিত	-8.83384
▁২০১২	-8.83404
উ	-8.83624
▁রাষ্ট্রপতি	-8.83867
▁পশ্চিম	-8.84121
▁হইতে	-8.84304
▁দিয়েছেন	-8.84361
▁বলেছেন	-8.84467
▁মূল্য	-8.84523
▁এল	-8.84608
▁২০১৩	-8.8476
▁পাওয়ার	-8.84883
▁দিয়েছিল	-8.84885
▁প্রস্তুত	-8.84967
্স	-8.85271
▁সক্রিয়	-8.855
স্	-8.8569
▁প্রশিক্ষণ	-8.85993
▁লেখক	-8.86028
▁স্বাস্থ্য	-8.86038
নো	-8.86161
▁নামের	-8.86259
▁জনপ্রিয়	-8.86277
▁:	-8.86366
▁পাঠ	-8.86464
▁অনুমতি	-8.86476
▁নিযুক্ত	-8.86476
▁পিতা	-8.86537
▁খাবার	-8.86543
▁নিকট	-8.86605
▁২৬	-8.86655
▁ঘরে	-8.86827
▁০	-8.86873
▁পাকিস্তানের	-8.86941
▁সংরক্ষণ	-8.87135
▁পছন্দ	-8.87172
▁আচরণ	-8.87576
▁যেটা	-8.87657
▁পারবেন	-8.8774
▁প্রথমে	-8.87939
▁তিনটি	-8.88052
▁ছাত্র	-8.88106
▁প্রায়ই	-8.88145
▁পাঁচ	-8.88155
অ	-8.88177
▁জড়িত	-8.882
▁ছেলে	-8.8836
▁আক্রমণ	-8.88398
▁জি	-8.88411
▁এগিয়ে	-8.88426
▁জিজ্ঞেস	-8.88522
▁মেনে	-8.88569
▁বাড়ি	-8.88662
▁প্রাপ্ত	-8.8867
▁পরিচর্যা	-8.88766
▁ইউনিয়ন	-8.89048
গুলোকে	-8.89125
▁অনুসরণ	-8.8915
ণ	-8.89188
▁মুক্তি	-8.89229
▁অঞ্চলে	-8.8926
▁আসতে	-8.8926
▁কত	-8.89347
▁উভয়	-8.89443
▁প্রচেষ্টা	-8.8947
▁পড়া	-8.89578
হীন	-8.89585
লো	-8.89781
▁অর্থাৎ	-8.89823
▁অভিযোগ	-8.89901
গুলোতে	-8.89926
▁২০১০	-8.89958
▁নিরাপত্তা	-8.90024
▁দিনে	-8.90047
▁সহজ	-8.90218
▁ক	-8.90242
▁উপায়	-8.90248
▁২৭	-8.90292
▁মনোভাব	-8.90336
▁সত্যিই	-8.90399
▁প্রতিষ্ঠা	-8.90487
য়ে	-8.90962
▁চিহ্নিত	-8.91239
▁প্রশংসা	-8.9125
▁ইন	-8.91424
▁মিথ্যা	-8.91574
▁ছড়িয়ে	-8.91579
▁প্রয়োজনীয়	-8.9163
▁তৃতীয়	-8.91757
জন	-8.9189
▁২৯	-8.91947
▁পার	-8.9219
▁নির্ভর	-8.92245
▁নীতি	-8.92352
▁বাংলার	-8.92356
▁ব্যাপক	-8.9238
জা	-8.92532
▁অঞ্চল	-8.92563
▁আদেশ	-8.92595
▁কার্যক্রম	-8.92667
▁ব্লগার	-8.92761
▁দাও	-8.9288
▁উপলব্ধি	-8.92884
▁সম্পন্ন	-8.92959
▁সর্বোচ্চ	-8.93062
▁করিন্থীয়	-8.931
▁যথেষ্ট	-8.9312
▁সেরা	-8.9315
▁প্রয়োগ	-8.93582
ঁ	-8.93685
▁জয়	-8.93793
পূর্ণ	-8.93888
▁যায়নি	-8.94137
▁ওঠে	-8.94175
াল	-8.94485
▁মানব	-8.9453
▁মসজিদ	-8.94704
▁বয়স	-8.94738
▁জায়গা	-8.94753
ভি	-8.94878
▁যাও	-8.94909
▁প্রকৃত	-8.9495
কো	-8.9495
▁অধীন	-8.95328
আর	-8.95408
২৮	-8.95422
▁নির্ধারণ	-8.95541
▁ব্যাংক	-8.95595
▁৫০	-8.95596
▁হিন্দু	-8.95665
▁গেল	-8.95882
▁পৃষ্ঠা	-8.96167
▁স্বীকার	-8.96392
▁নাগরিক	-8.96394
▁মাসের	-8.96407
▁বেশী	-8.96516
▁হয়ত	-8.96535
দ্য	-8.96627
▁পরিস্থিতি	-8.9675
▁প্রচুর	-8.96934
▁ফেব্রুয়ারি	-8.96973
▁ইসলাম	-8.96985
▁অ্যান্ড	-8.97025
▁মিটার	-8.97136
▁যেগুলো	-8.97374
▁সুন্দর	-8.97482
▁বেঁচে	-8.97601
▁যাই	-8.9762
▁লিখেছিলেন	-8.97646
▁প্র	-8.97709
▁নির্ধারিত	-8.97739
▁বিজ্ঞান	-8.97764
২৫	-8.97815
▁নেন	-8.97873
▁আছেন	-8.98002
▁সন্তান	-8.98064
▁মন্দির	-8.98077
▁মিলিয়ন	-8.98207
▁হই	-8.98228
▁সংগ্রহ	-8.9824
▁২০১৬	-8.98277
▁দীর্ঘ	-8.98395
▁আজকে	-8.98424
▁বলার	-8.98603
▁পদক্ষেপ	-8.98668
▁অংশগ্রহণ	-8.98683
▁হলেও	-8.98699
▁মূলত	-8.98953
তম	-8.9914
▁একবার	-8.9915
▁যিহোবাকে	-8.99288
▁পথে	-8.99288
▁৪০	-8.99309
▁পুত্র	-8.99475
▁২০১৫	-8.99559
▁অল্প	-8.99664
থ	-8.99723
▁উপযুক্ত	-8.99732
তি	-8.99749
▁দেখায়	-8.99775
▁আপনাদের	-8.99881
▁যৌন	-8.99901
▁প্রত্যেক	-8.99925
▁আসার	-9.00077
তো	-9.0017
▁অতিরিক্ত	-9.00332
▁অধিকাংশ	-9.00587
▁দূরে	-9.00768
▁আপন	-9.00789
▁তাতে	-9.00808
▁গাড়ি	-9.00924
▁শ্রেষ্ঠ	-9.01061
▁কর্মকর্তা	-9.0139
▁২০০৯	-9.01395
▁ধীরে	-9.01482
▁খ্রিস্টান	-9.01645
▁আরব	-9.01709
▁রাষ্ট্র	-9.01843
▁অঞ্চলের	-9.019
▁এগুলো	-9.02189
▁বিমান	-9.02478
▁এদের	-9.02541
▁তারিখ	-9.02958
▁রাখে	-9.03112
▁পরিচয়	-9.03131
▁মেয়ে	-9.0333
▁বিভাগের	-9.03362
▁গভীর	-9.03549
▁রাজধানী	-9.03586
▁অভিজ্ঞতা	-9.03756
▁এখনো	-9.03789
▁মুখ	-9.03804
পা	-9.03914
▁এলাকার	-9.04031
জন্ম	-9.04296
▁অনুবাদ	-9.04425
▁গল্প	-9.04641
▁বিখ্যাত	-9.04683
▁আঘাত	-9.04924
▁বিশাল	-9.0499
▁২০০৮	-9.05042
▁প্রতিক্রিয়া	-9.05211
▁অধিক	-9.05309
▁চুক্তি	-9.0545
▁এইরকম	-9.05507
৩০	-9.05522
▁পাপ	-9.0557
রূপে	-9.05588
▁বিশ্বস্ত	-9.05594
▁কেন্দ্রীয়	-9.05674
েরা	-9.05818
▁কাল	-9.05905
▁নদীর	-9.06065
▁অপরাধ	-9.06081
বো	-9.06093
▁কোটি	-9.0618
▁বিষয়গুলো	-9.06208
▁যীশুর	-9.06318
▁স্পষ্ট	-9.06454
▁কলকাতা	-9.06467
▁সাহিত্য	-9.0653
▁বসে	-9.0654
▁যত	-9.06564
ান	-9.06584
▁লা	-9.06618
০	-9.06618
▁পর্যায়ে	-9.06731
%।	-9.06852
▁বেছে	-9.06861
▁উপভোগ	-9.06919
▁যুক্তরাষ্ট্রের	-9.07118
▁শিক্ষক	-9.07148
▁করেছিলাম	-9.0718
▁দয়া	-9.07264
▁অনুমোদন	-9.07278
▁অনেকে	-9.07373
▁এস	-9.07518
▁সরাসরি	-9.07544
▁অবশ্য	-9.0761
▁ফোন	-9.07612
▁উঠে	-9.07643
▁নিজ	-9.07669
▁স্বাধীন	-9.07811
ছ	-9.07866
গত	-9.07894
▁আত্মা	-9.07928
▁বৈশিষ্ট্য	-9.07939
▁পাশাপাশি	-9.08125
▁তাঁদের	-9.08148
▁উ	-9.08149
▁নিচে	-9.0816
▁ইব্রীয়	-9.08161
▁দাস	-9.08161
▁প্রস্তাব	-9.08177
▁সেইসঙ্গে	-9.08178
▁দূর	-9.08222
▁হইবে	-9.08257
▁রক্ত	-9.08295
▁পরের	-9.08307
▁হবেন	-9.08362
▁২০১৭	-9.08432
▁পাই	-9.08451
ড়া	-9.08557
▁ক্ষমা	-9.0874
▁ছিলো	-9.08806
▁২০১৮	-9.0894
দি	-9.08947
▁প্রতিটি	-9.08951
▁বল	-9.09032
▁শাখা	-9.09038
▁পত্রিকা	-9.09121
▁হবার	-9.09173
▁নিজস্ব	-9.09255
▁গীতসংহিতা	-9.09356
▁বাহিনী	-9.09416
▁ভাষার	-9.09533
▁আসছে	-9.10039
▁প্রকল্প	-9.101
▁শিকার	-9.10124
▁খোলা	-9.10268
▁জোর	-9.10361
▁সুবিধা	-9.10436
,"	-9.10492
▁সুসমাচার	-9.10556
▁২০০৭	-9.10682
▁দুটো	-9.10928
▁বলি	-9.10931
▁মুখোমুখি	-9.11088
▁শতকের	-9.11144
গা	-9.11153
▁অতি	-9.11199
▁সক্ষম	-9.11331
▁সাংস্কৃতিক	-9.1136
▁প্রভাবিত	-9.11613
▁দি	-9.11862
▁জগতের	-9.11866
করণ	-9.11943
▁নেতা	-9.1203
▁আলী	-9.12067
▁যুদ্ধের	-9.12099
ছি	-9.12169
মে	-9.12186
▁খুশি	-9.12256
▁পরিষ্কার	-9.12265
▁পেয়ে	-9.1232
▁ফুটবল	-9.12407
▁দেবে	-9.12486
▁জাতি	-9.12527
▁বাধা	-9.12538
গুলিতে	-9.12555
▁সত্যি	-9.12632
▁সম্পর্কিত	-9.12963
▁যেভাবে	-9.13053
▁একেবারে	-9.13067
কর	-9.13074
২৬	-9.13087
▁পোস্ট	-9.1325
▁নিয়োগ	-9.13301
▁দেখানো	-9.13389
▁চাপ	-9.13505
▁তবুও	-9.1368
▁সহায়তা	-9.13776
▁সফল	-9.1396
▁নাকি	-9.14044
▁আসেন	-9.14137
▁ইংরেজি	-9.14151
▁গ্রামে	-9.1417
নের	-9.14337
▁বাজার	-9.14447
▁উৎপাদন	-9.14449
▁নাই	-9.14494
▁উদাহরণস্বরূপ	-9.14582
▁৩১	-9.14599
▁ফেলা	-9.14659
▁অনু	-9.1471
▁সংযুক্ত	-9.14818
▁স্বামী	-9.14896
▁বয়সে	-9.14949
▁ব্যবসা	-9.14961
▁কর্তৃপক্ষ	-9.15018
▁ঘটনার	-9.15195
▁আসবে	-9.15248
▁ইন্টারনেট	-9.15364
▁চালিয়ে	-9.15506
▁আন্দোলন	-9.15706
▁নিয়মিত	-9.15708
▁বোন	-9.15714
▁শাহ	-9.15731
▁মতে	-9.15744
▁ক্লাব	-9.15963
▁জন্মগ্রহণ	-9.15968
▁বিভাগে	-9.15991
▁সাক্ষিদের	-9.16107
▁ব্যক্তিকে	-9.16137
▁জে	-9.16172
য়ের	-9.16195
▁চিকিৎসা	-9.16344
▁কোম্পানি	-9.16426
▁রকম	-9.16533
▁জানে	-9.16804
যুক্ত	-9.17026
(	-9.17066
▁ধারা	-9.17117
▁কু	-9.17132
▁সরবরাহ	-9.17167
▁রচনা	-9.17221
▁আপনারা	-9.17255
?"	-9.17429
▁ভোট	-9.17482
▁শতাংশ	-9.17579
▁খেলার	-9.17604
▁ইউ	-9.17676
▁ব্যবহারের	-9.17784
▁ভবিষ্যদ্বাণী	-9.17818
▁আগের	-9.17837
▁জেনারেল	-9.1787
▁অনুরোধ	-9.17889
▁জানেন	-9.1808
▁হে	-9.18099
▁বস্তু	-9.18325
▁ফোল্ডার	-9.18331
▁দৃঢ়	-9.18405
▁নিয়ম	-9.18464
▁যেটি	-9.1854
▁সম্পদ	-9.18569
▁বিদ্যমান	-9.18766
▁সন্তানদের	-9.19131
গো	-9.19164
▁পরিবেশ	-9.19386
▁শত	-9.19488
▁বিপক্ষে	-9.19517
▁এটাই	-9.1957
▁পড়তে	-9.19579
▁আমেরিকা	-9.19637
হা	-9.19669
টিকে	-9.19711
ম্যান	-9.19717
▁সেটার	-9.19876
▁ভোগ	-9.19923
▁খবর	-9.2
▁বোধ	-9.20047
▁বাড়িতে	-9.2007
▁চমৎকার	-9.20267
▁কা	-9.20273
▁অনুষ্ঠান	-9.20275
কাল	-9.20359
▁তে	-9.20461
▁রায়	-9.20474
▁জুড়ে	-9.20565
▁চা	-9.20588
▁প্রেসিডেন্ট	-9.20656
▁মাথা	-9.20676
▁সমাজ	-9.20685
▁সঙ্গীত	-9.20796
▁১০০	-9.20807
▁মন্দ	-9.20828
▁কমিশন	-9.20886
▁বর্গ	-9.20928
▁দশ	-9.20932
▁পরাজিত	-9.20997
▁বাতিল	-9.2113
▁ডলার	-9.21132
▁তৈরী	-9.212
▁ঐতিহাসিক	-9.21304
▁স্মরণ	-9.21369
▁মূল্যবান	-9.21459
▁সন্দেহ	-9.21551
▁ত্যাগ	-9.21656
▁হ্যা	-9.21722
▁বছরে	-9.2187
▁ব্যবস্থার	-9.21948
▁বিরোধী	-9.22008
▁থাকি	-9.22012
▁রোমীয়	-9.22075
রো	-9.22108
▁ভি	-9.22396
▁আনা	-9.22418
▁সংগঠন	-9.22503
▁রে	-9.22531
▁আসুন	-9.22716
▁ভারতে	-9.22723
▁ক্ষুদ্র	-9.22744
▁কর্ম	-9.22834
▁ড	-9.22893
২৯	-9.22981
▁শতাব্দীর	-9.23014
▁করিয়ে	-9.23197
▁দেব	-9.23244
▁বিবাহ	-9.23317
▁কমিটি	-9.23341
▁ব্যাপার	-9.23376
▁চোখ	-9.235
▁শেষে	-9.23589
▁ছিলাম	-9.23598
▁মিল	-9.23685
ড়	-9.23779
▁কিলোমিটার	-9.23785
নে	-9.23913
▁লিখেছেন	-9.24088
▁রোগ	-9.24137
▁থাকলে	-9.24169
▁লীগ	-9.24177
▁*	-9.24211
▁বোঝা	-9.24225
শে	-9.24315
▁পরবর্তীতে	-9.24385
▁জানায়	-9.24428
▁চলচ্চিত্রে	-9.24512
▁প্রাকৃতিক	-9.24515
▁সংসদ	-9.24689
▁জিনিস	-9.24717
▁বিষয়ক	-9.24724
▁বিদ্যুৎ	-9.24726
▁পণ্য	-9.24732
▁তোলা	-9.24812
▁যুক্তি	-9.24993
▁টেলিভিশন	-9.25003
▁করিতে	-9.2508
▁কল	-9.25148
▁করিয়া	-9.25158
▁ভ্রমণ	-9.25182
▁দেত্তয়া	-9.25204
▁২০০৬	-9.25214
▁চলতে	-9.25265
▁যাত্রা	-9.25306
▁তীমথিয়	-9.2539
▁ব্যয়	-9.25408
▁স্কুলে	-9.25414
▁আশীর্বাদ	-9.25422
ির	-9.25432
▁আমন্ত্রণ	-9.25463
▁নির্বাচনে	-9.25477
▁গেলে	-9.2549
▁ভূমি	-9.25517
▁মুছে	-9.25522
▁সাক্ষরতা	-9.25627
জে	-9.25672
▁রেকর্ড	-9.25907
এই	-9.25912
▁নির্দেশনা	-9.25915
▁অধ্যাপক	-9.26011
▁প্রচলিত	-9.26067
২৭	-9.26084
▁অনুভব	-9.26206
▁উৎসাহিত	-9.26212
▁ব্যবহারকারী	-9.26257
▁শয়তান	-9.26337
▁পিছনে	-9.26429
▁সভা	-9.26445
ইংরেজি	-9.26838
▁প্রতিবেদন	-9.26941
▁যোগ্য	-9.26943
আমার	-9.27163
▁স্থায়ী	-9.27194
▁এছাড়া	-9.2722
▁হা	-9.27316
▁রি	-9.27346
▁গুরুত্ব	-9.27379
▁রহমান	-9.27585
▁সাংবাদিক	-9.27681
▁তুলনা	-9.27764
▁উন্নত	-9.27932
৩১	-9.27981
▁গিয়েছে	-9.28058
কু	-9.28185
▁গড়	-9.28562
▁অনুসন্ধান	-9.28568
▁পেয়েছে	-9.28597
▁আগ্রহ	-9.28607
দার	-9.28631
▁বিধান	-9.28689
▁লড়াই	-9.28732
▁হারিয়ে	-9.28757
▁অ্যা	-9.28764
▁শেখ	-9.28774
°	-9.29322
▁নিজে	-9.29537
▁কিছুটা	-9.29544
▁ফলাফল	-9.29578
▁জানান	-9.29768
▁ডিগ্রি	-9.29828
▁দেখি	-9.29837
▁আমেরিকান	-9.29884
মার	-9.29951
▁রূপ	-9.30066
▁সম্প্রতি	-9.30381
▁ক্ষতি	-9.30465
▁জাহাজ	-9.30475
▁সতর্ক	-9.3049
▁মুখে	-9.30514
▁নং	-9.30623
▁অনুগ্রহ	-9.30672
▁উন্নতি	-9.30736
▁সংযোগ	-9.3083
▁দখল	-9.3085
▁বেশিরভাগ	-9.30884
▁সংস্করণ	-9.30936
ভা	-9.31076
ুল	-9.31099
▁দেখান	-9.31128
▁বয়সী	-9.31153
▁খ্রিস্টীয়	-9.31344
▁বিভক্ত	-9.31387
▁লাল	-9.31414
▁প্রতীক	-9.31558
▁কথাগুলো	-9.3156
▁এশিয়া	-9.31721
▁সংশ্লিষ্ট	-9.31782
▁ভিত্তিতে	-9.31787
রে	-9.31877
▁বেড়ে	-9.31884
▁সমাধান	-9.32096
▁অনুপ্রাণিত	-9.32116
▁লূক	-9.32233
▁দশকে	-9.32289
▁ছাড়াও	-9.32315
ময়	-9.32342
ইন	-9.32496
প্র	-9.3255
▁যুদ্ধে	-9.32587
যোগ্য	-9.32597
▁কম্পিউটার	-9.32818
▁প্রধানমন্ত্রী	-9.33033
▁লি	-9.33115
▁বিশিষ্ট	-9.33226
▁গুলি	-9.33315
▁হয়েছেন	-9.33343
▁ন্যায়	-9.33371
▁উৎসাহ	-9.33421
▁আয়	-9.33436
▁অভিনেত্রী	-9.33453
▁হও	-9.33476
▁একক	-9.33508
▁কষ্ট	-9.33515
▁দেখার	-9.33555
▁মনোনীত	-9.33705
▁আগেই	-9.33718
▁সম্পাদক	-9.33763
▁লোকের	-9.33792
▁বাকি	-9.33801
▁বে	-9.33956
▁রাতে	-9.34
▁পাবে	-9.34
▁খেলোয়াড়	-9.34103
সন	-9.34167
ওয়া	-9.34223
▁প্রেরণ	-9.3423
▁যোগদান	-9.34234
▁বসবাস	-9.34294
▁এন	-9.34468
▁আছি	-9.34475
▁তাঁরা	-9.3453
▁কাউকে	-9.34633
▁পোশাক	-9.3468
▁কঠোর	-9.347
▁লক্ষ্যে	-9.34722
▁ঘর	-9.34942
▁চাকরি	-9.35151
▁নানা	-9.3518
▁পৃথক	-9.35191
▁দেবেন	-9.35214
▁অনুভূতি	-9.35333
▁প্রতিরোধ	-9.35358
▁রাজ	-9.3539
▁মানবাধিকার	-9.35471
▁ধারণ	-9.3597
▁দে	-9.36098
▁রাস্তা	-9.36147
▁উপায়ে	-9.36173
▁স্টেশন	-9.36322
▁সংস্কৃতি	-9.36369
▁বিক্রি	-9.36373
▁যত্ন	-9.36455
▁চট্টগ্রাম	-9.36518
▁বোর্ড	-9.36529
▁বিষয়ের	-9.3658
▁যিশাইয়	-9.36698
▁প্রযুক্তি	-9.36715
▁কার্যকর	-9.36737
▁ঈশ্বরকে	-9.36774
▁শাস্তি	-9.36845
▁উপাদান	-9.36858
▁দেখাতে	-9.36934
▁ত	-9.36936
▁সমালোচনা	-9.36966
▁ছয়	-9.37046
▁নারীদের	-9.37078
▁সমস্যার	-9.37163
▁খুলে	-9.37177
▁প্রতিবাদ	-9.37181
▁নষ্ট	-9.37304
▁পারব	-9.37645
▁শুনতে	-9.37678
▁তুই	-9.37729
টিতে	-9.37818
▁হাই	-9.37876
▁উপাত্ত	-9.37896
▁প্রহরীদুর্গ	-9.38021
▁পরিসংখ্যান	-9.38048
▁অভিষিক্ত	-9.38178
▁ম	-9.38257
▁সরিয়ে	-9.38276
▁৩২	-9.38353
▁আয়োজন	-9.38402
▁অভাব	-9.38407
বাদ	-9.38452
▁যেকোনো	-9.38478
▁পড়ার	-9.38562
▁মৌলিক	-9.38594
▁বদলে	-9.38604
▁টুইট	-9.38614
▁খেলায়	-9.38621
$	-9.38681
▁আবেদন	-9.38721
▁ওহ	-9.38734
▁হিতোপদেশ	-9.38784
▁মার	-9.38786
যে	-9.38798
▁বাহিনীর	-9.38798
▁সদস্যদের	-9.3886
সমূহের	-9.38901
▁সাম্প্রতিক	-9.38953
▁পৃথিবী	-9.39006
▁জনগণের	-9.3904
▁প্রতিজ্ঞা	-9.39056
▁সবার	-9.39153
▁থাক	-9.39216
▁কেননা	-9.39223
▁পারিবারিক	-9.39287
▁তুলতে	-9.39293
▁গ্রুপ	-9.39295
▁বন	-9.39313
▁অন্যদিকে	-9.39336
যোহন	-9.3935
▁সদর	-9.39366
ছিল	-9.39414
▁ব্যক্তিরা	-9.39433
▁সাত	-9.39553
▁সামান্য	-9.39562
▁এটাকে	-9.39566
▁৩৩	-9.39571
▁উপাসনা	-9.39589
▁আস্থা	-9.39735
▁কালো	-9.39775
▁ল্যাংডন	-9.39879
▁মানুষকে	-9.3991
▁তাঁহার	-9.39921
▁ইঙ্গিত	-9.39993
▁মহা	-9.40013
▁মো	-9.40123
য়ার	-9.40161
▁প্রক্রিয়া	-9.40221
▁প্রতিদিন	-9.40363
▁হৃদয়	-9.40543
▁আর্থিক	-9.40706
▁তাহা	-9.40765
▁চরিত্রে	-9.40805
▁বিল	-9.40843
সার	-9.40937
▁নিহত	-9.40939
▁সম্প্রদায়ের	-9.41026
▁গিয়েছিলেন	-9.41054
▁কার	-9.41056
▁বক্তৃতা	-9.41115
▁তোলার	-9.41125
▁নেয়া	-9.41136
▁অভিনেতা	-9.41168
▁জাতির	-9.41174
আই	-9.41341
▁১৯৭১	-9.41439
▁দৃষ্টি	-9.41558
▁অস্ত্র	-9.41711
▁উপকার	-9.41865
▁বলছে	-9.41877
▁প্রতিনিধিত্ব	-9.41884
▁গ	-9.41923
▁এসেছিল	-9.42026
▁চলচ্চিত্রের	-9.42091
▁কল্পনা	-9.42228
▁প	-9.42241
▁মিডিয়া	-9.42301
▁চোখে	-9.42311
▁আদালত	-9.42358
▁র	-9.42484
▁তেল	-9.42581
▁এরকম	-9.4269
▁নিষিদ্ধ	-9.42694
▁তুলনায়	-9.42758
▁পুরোপুরি	-9.42767
▁৩৫	-9.42767
▁পরিপূর্ণ	-9.42769
▁অধ্যায়	-9.42783
▁মার্ক	-9.42785
▁গ্লোবাল	-9.42902
▁মু	-9.42966
▁পরিচর্যায়	-9.43021
▁থানা	-9.43167
▁আহমেদ	-9.4319
▁আরেকটি	-9.4323
▁চিহ্ন	-9.43329
মো	-9.43438
▁পাশে	-9.43542
▁বিষয়বস্তু	-9.43935
▁বহন	-9.43947
▁খরচ	-9.4397
▁লাইন	-9.43992
▁টু	-9.43998
সের	-9.44026
▁ওয়েবসাইট	-9.44077
▁সৌদি	-9.44089
▁কাছাকাছি	-9.44222
▁জগতে	-9.44237
▁আদমশুমারি	-9.44255
▁বিস্তৃত	-9.44283
▁৬০	-9.44307
ভার	-9.44337
▁কারন	-9.4441
▁মোহাম্মদ	-9.44523
▁প্রিয়	-9.44528
▁মালিক	-9.44573
▁দৃষ্টিভঙ্গি	-9.44589
▁কর্মী	-9.4465
▁আদর্শ	-9.44656
▁সিস্টেম	-9.4467
▁সমান	-9.4474
।'	-9.44769
▁উদ্ধার	-9.44901
▁খ্রিস্টাব্দে	-9.44932
সু	-9.44935
▁বাদ	-9.45091
৩৪	-9.45112
▁কো	-9.4512
▁ভিতরে	-9.45198
▁সংখ্যক	-9.45219
▁সরকারী	-9.45241
▁বৌদ্ধ	-9.45262
▁এমনকী	-9.45342
▁আগ্রহী	-9.45353
▁করেনি	-9.45382
▁ভুলে	-9.45411
▁গুণ	-9.45607
▁গণ্য	-9.45659
▁কয়েকজন	-9.45737
▁উদ্যোগ	-9.45738
▁বলছি	-9.45913
▁সমাজের	-9.45943
▁স্বাভাবিক	-9.46027
▁যুক্তরাষ্ট্র	-9.46088
▁বলল	-9.46094
▁আয়তন	-9.46097
▁মাছ	-9.46157
৩৩	-9.46172
▁হিসাব	-9.4621
▁দ্যা	-9.4626
▁সপ্তাহ	-9.4634
৩২	-9.46441
▁ভবন	-9.4655
▁বাংলায়	-9.46639
▁কারো	-9.46695
ত্ব	-9.46764
▁অবদান	-9.46771
স্ট	-9.46804
▁দাঁড়িয়ে	-9.46863
▁বইয়ের	-9.46871
▁নকশা	-9.46901
▁বিশ্ববিদ্যালয়ে	-9.46986
▁সমগ্র	-9.47064
পূর্ব	-9.47123
▁রং	-9.47254
এন	-9.47342
▁সাক্ষ্য	-9.47576
▁যুবক	-9.4767
▁জগৎ	-9.47682
▁শীঘ্রই	-9.4771
▁২০০০	-9.47763
▁পার্থক্য	-9.47807
▁চৌধুরী	-9.47808
▁২০০৫	-9.47988
▁দুঃখিত	-9.48076
▁বাপ্তিস্ম	-9.48154
▁শ্রমিক	-9.48159
▁%	-9.48168
▁চূড়ান্ত	-9.48234
▁আমেরিকার	-9.48294
▁প্রাণ	-9.48326
করা	-9.4835
▁কোড	-9.48514
▁যাহা	-9.48671
▁ফর	-9.48685
▁অনুকরণ	-9.48758
▁পাতা	-9.48896
▁তাহার	-9.48936
স্থ	-9.48996
▁আফ্রিকা	-9.49002
▁তোলে	-9.49047
▁লে	-9.49104
▁পত্রিকার	-9.49121
▁হ্রাস	-9.49522
▁নগর	-9.49538
▁সকলের	-9.49596
টে	-9.49676
▁অস্বীকার	-9.497
▁অংশে	-9.4984
▁টুইটার	-9.4986
▁কবি	-9.49868
▁আরেকটা	-9.49984
▁সর্ব	-9.50004
▁টেস্ট	-9.50042
▁পাঠানো	-9.50057
▁জমি	-9.50099
▁ন	-9.50239
▁অনলাইন	-9.50255
▁প্রদেশের	-9.50322
ীর	-9.50372
▁বিজয়ী	-9.50382
▁প্রাণী	-9.50522
▁আরম্ভ	-9.50607
বিশেষ	-9.50738
▁প্রবন্ধ	-9.50764
▁ইনস্টিটিউট	-9.50777
৫০	-9.50799
▁লম্বা	-9.50812
▁লাইসেন্স	-9.50876
▁মাধ্যম	-9.50911
▁ল	-9.50912
▁আক্রান্ত	-9.50962
▁পড়ুন	-9.51058
▁পে	-9.51264
▁প্রকাশনা	-9.51361
▁হোসেন	-9.51389
▁প্রদানের	-9.5143
েই	-9.51489
▁অফিস	-9.51566
ঈশ্বরের	-9.51701
▁সাহায্যে	-9.51781
▁গ্রন্থ	-9.51816
▁সেগুলোর	-9.51866
▁চেয়ারম্যান	-9.51888
▁পক্ষ	-9.51908
▁ভবিষ্যৎ	-9.51956
▁প্রশাসনিক	-9.52031
কালে	-9.52112
▁বলেছে	-9.52141
▁ডে	-9.52164
▁ওয়েব	-9.52205
▁প্রাক্তন	-9.52356
৪০	-9.52525
▁পরিষদ	-9.52532
▁করতাম	-9.52606
▁স্বীকৃতি	-9.52684
▁আনন্দিত	-9.52733
▁স্ব	-9.52743
▁যাকে	-9.52804
▁গৃহ	-9.52906
▁জীবনযাপন	-9.52941
▁উৎসব	-9.52962
▁পিতার	-9.53059
▁আলো	-9.53073
▁কতই	-9.53154
▁মণ্ডলীতে	-9.53321
▁কংগ্রেসের	-9.53448
প্রেরিত	-9.53472
▁চাইতে	-9.5355
▁সীমানা	-9.53557
▁আত্মার	-9.53643
▁দুর্বল	-9.53807
▁উপজেলার	-9.53866
▁ফেলতে	-9.53897
▁মহান	-9.53903
▁উত্তরে	-9.54131
▁বিশেষভাবে	-9.54228
▁জার্মান	-9.54254
▁ঘৃণা	-9.54388
পে	-9.54462
▁দশকের	-9.54529
▁এবার	-9.5456
ুর	-9.54561
ভিত্তিক	-9.54606
▁রান	-9.54659
▁বাণিজ্যিক	-9.54722
লার	-9.54731
প্রতি	-9.54807
গীতসংহিতা	-9.5488
মু	-9.54929
▁শিখতে	-9.55039
▁সবকিছু	-9.5504
▁ধর্মের	-9.5508
▁এন্ড	-9.55144
▁করল	-9.55157
▁সম্পাদন	-9.55199
▁ঋণ	-9.5522
▁করবো	-9.5541
▁একাধিক	-9.55497
▁বাংলাদেশী	-9.55644
▁মন্ত্রী	-9.55658
যা	-9.55669
▁হ	-9.55723
▁মানসিক	-9.5576
▁চীনা	-9.55764
▁ইউরোপীয়	-9.55817
▁অবশেষে	-9.55831
▁চারটি	-9.55841
িয়ান	-9.55988
▁দলে	-9.55997
▁উপহার	-9.56149
▁ভূ	-9.56289
ফা	-9.56304
▁ব	-9.56316
▁একইভাবে	-9.56343
▁মাধ্যমিক	-9.56344
▁মাইল	-9.56395
▁প্রতিনিধি	-9.56436
▁ঠিকানা	-9.56566
▁গো	-9.56664
ষ	-9.56689
▁যেসব	-9.56758
▁লিখিত	-9.56758
▁কোম্পানির	-9.56776
চি	-9.56888
৩৫	-9.56926
▁আবিষ্কার	-9.56948
ধারা	-9.56952
▁যন্ত্র	-9.57015
▁রাস্তায়	-9.57067
▁ক্রমাগত	-9.57092
শি	-9.57094
▁পার্টি	-9.57095
▁সাবেক	-9.57126
▁চীনের	-9.5715
▁স্বর্গীয়	-9.57288
▁প্রত্যাখ্যান	-9.57424
▁সভাপতি	-9.57478
▁আকর্ষণ	-9.57505
▁ব্যবস্থাপনা	-9.57547
▁নিয়েছে	-9.576
▁বাণিজ্য	-9.57672
▁৩৭	-9.57682
৪৪	-9.57717
▁করেননি	-9.57727
▁রাখেন	-9.57827
▁স্বাধীনতার	-9.57862
▁আন্দোলনের	-9.57862
লেন	-9.57956
গঞ্জ	-9.57978
▁স্বাক্ষর	-9.58101
▁২০০৪	-9.58111
▁নিরাপদ	-9.58145
▁সার্ভিস	-9.58196
▁সহ্য	-9.58328
▁ডাক	-9.58341
▁খ্রীষ্টীয়	-9.5836
▁এড়িয়ে	-9.58413
▁নেতৃত্ব	-9.58467
▁নিয়েছিলেন	-9.58497
শন	-9.58548
▁মুক্তির	-9.58562
▁শুনে	-9.58601
▁পরিচিতি	-9.58628
লাম	-9.587
▁শিশুদের	-9.58712
▁রেল	-9.58716
▁ফুল	-9.5878
▁কাপ	-9.58783
▁পরিস্থিতির	-9.58786
▁রেলওয়ে	-9.58864
টো	-9.58978
▁রা	-9.58989
এক	-9.59235
▁আশ্রয়	-9.59237
▁চলছে	-9.59251
▁অর্থনীতি	-9.59253
▁আজকের	-9.59431
▁দেয়ার	-9.59494
▁সচেতন	-9.59557
▁নিকটবর্তী	-9.59593
▁করছিল	-9.59599
▁৩৪	-9.5963
▁সভায়	-9.59631
▁সপ্তাহের	-9.59644
▁জর্জ	-9.59721
:-	-9.59725
▁ঘন্টা	-9.59741
▁চাহিদা	-9.59808
▁নেটওয়ার্ক	-9.59835
▁গুরুতর	-9.59866
▁চীন	-9.59866
▁আফ্রিকার	-9.59895
▁জানানো	-9.59899
▁কৌশল	-9.59925
▁ত্রুটি	-9.60009
▁প্রদত্ত	-9.60028
▁অবাক	-9.60035
▁ভর্তি	-9.60065
▁সাড়া	-9.60094
▁নন	-9.60107
▁আসন	-9.60145
ঘ	-9.6016
▁আহ্বান	-9.60257
▁সুখী	-9.60257
▁সংক্ষিপ্ত	-9.60291
এল	-9.60318
▁প্রভৃতি	-9.60355
▁বলেছিল	-9.60359
▁সাদা	-9.60365
নার	-9.60377
ায়	-9.60518
▁কাহিনী	-9.60523
▁কারা	-9.60532
▁প্রতিযোগিতা	-9.60605
▁উৎসর্গ	-9.6064
▁দায়ূদ	-9.6066
▁ঢাকার	-9.60784
▁বয়স্ক	-9.60894
▁যাচ্ছি	-9.60933
▁গ্রেফতার	-9.61038
▁বিক্ষোভ	-9.61041
▁ওটা	-9.61059
▁ছবিটি	-9.61087
▁এক্স	-9.61234
▁মোকাবিলা	-9.61245
▁সম	-9.61254
▁দৃশ্য	-9.61261
▁টা	-9.61268
▁তরুণ	-9.61406
▁একদিন	-9.61415
▁নীল	-9.61423
▁বিরাট	-9.61447
▁লাগে	-9.61485
▁সুরক্ষা	-9.61555
▁সূত্র	-9.61567
▁সম্ভাবনা	-9.61654
৩৭	-9.61669
▁অন	-9.61737
▁ধরণের	-9.61737
▁দেশটির	-9.61776
▁খ	-9.61795
▁প্রতিষ্ঠানের	-9.61809
▁নমুনা	-9.61883
▁মুদ্রা	-9.62024
▁মামলা	-9.62075
▁উঠতে	-9.62083
▁প্রশাসন	-9.62347
৪৫	-9.6238
▁মোবাইল	-9.62489
▁চলা	-9.62525
বল	-9.62631
▁বলুন	-9.62656
▁নিন	-9.62699
▁পাল	-9.62758
▁জমা	-9.62884
▁যেত	-9.6293
পত্র	-9.6294
▁ভেতরে	-9.62974
▁কোনও	-9.63232
▁কমিটির	-9.6341
▁সিটি	-9.63413
▁সেটি	-9.63472
▁গাছ	-9.63528
▁পড়েছে	-9.63535
▁কখন	-9.63576
▁শা	-9.63604
▁ঘটেছে	-9.63627
▁ভেবে	-9.63775
▁যাকোব	-9.63786
▁প্রদেশ	-9.63825
ৎ	-9.63866
▁রাম	-9.63949
ছিলেন	-9.63988
▁অনেকেই	-9.64036
▁হক	-9.64062
▁তত্ত্ব	-9.64089
▁দেখিয়ে	-9.64123
▁চরম	-9.64223
▁ফরাসি	-9.64436
হে	-9.64489
▁মৃত	-9.64509
▁সপ্তাহে	-9.64641
▁জানার	-9.64668
আমরা	-9.64739
▁সম্প্রদায়	-9.64764
জার	-9.64918
▁ইন্ডিয়া	-9.65085
▁কেবলমাত্র	-9.65112
▁৪৫	-9.65202
▁ফেসবুক	-9.65257
▁শিষ্য	-9.65334
▁স্বপ্ন	-9.65388
▁ফুট	-9.65411
প্রাপ্ত	-9.65411
▁মিস	-9.6562
▁টিভি	-9.6563
▁দক্ষিণে	-9.65654
▁নামকরণ	-9.6575
▁চরিত্র	-9.65761
▁কখনোই	-9.65817
▁শর্ত	-9.65831
▁নাগরিকদের	-9.65849
িন	-9.65869
▁গণ	-9.65937
▁দেখানোর	-9.65945
▁মেরে	-9.6595
▁বিশ্বব্যাপী	-9.65969
▁ফিরিয়ে	-9.66012
▁ন্যাশনাল	-9.66014
▁বার্ষিক	-9.66019
▁আট	-9.6602
▁পরিবর্তিত	-9.6605
গুলিকে	-9.66061
▁মেইল	-9.6624
িয়ে	-9.66354
▁আসল	-9.66405
▁চিঠি	-9.66431
▁দিচ্ছে	-9.66452
▁সীমা	-9.66461
▁সোভিয়েত	-9.66469
ডা	-9.66471
▁শাসক	-9.66523
লূক	-9.66543
▁নিশ্চয়ই	-9.66572
▁অনুরূপ	-9.66581
▁করিবে	-9.66632
▁ক্ষেত্র	-9.6664
▁গ্রামের	-9.66669
▁ভেঙে	-9.66675
▁আবদুল	-9.6669
▁অতিক্রম	-9.66723
▁অন্তর্গত	-9.66803
▁সংরক্ষিত	-9.66805
▁মায়ের	-9.66921
▁তীব্র	-9.66925
▁গ্যাস	-9.66982
▁৫৯	-9.67008
▁৪৮	-9.67079
▁বোমা	-9.67081
▁সংস্থার	-9.67096
▁গীত	-9.67188
▁ফি	-9.67209
▁বিধি	-9.67223
▁উৎপন্ন	-9.67306
▁ইচ্ছুক	-9.67348
▁প্রচণ্ড	-9.67376
▁১৯৯০	-9.67384
▁৭০	-9.67399
ঙ	-9.67442
▁স্নাতক	-9.67686
▁অধ্যক্ষ	-9.67758
▁বিদেশী	-9.67843
▁বৃহত্তম	-9.67858
ন্ড	-9.68017
▁নে	-9.68107
▁মতামত	-9.68112
▁রেডিও	-9.68143
▁বিশ্বাসের	-9.68219
▁নির্বাচনের	-9.68243
রূপ	-9.6839
▁শারীরিক	-9.68437
▁বিরোধিতা	-9.68452
▁এটিকে	-9.68487
▁সুতরাং	-9.68497
▁ভাব	-9.68602
রু	-9.68728
▁এরা	-9.68734
▁চাও	-9.68757
▁সাক্ষি	-9.68783
▁মডেল	-9.68856
▁লেখার	-9.68857
▁মধ্যেই	-9.68899
▁ঐশিক	-9.6903
▁রাষ্ট্রের	-9.69041
▁সভার	-9.69097
শা	-9.69134
▁কয়েকটা	-9.69165
▁বাস্তব	-9.6919
▁সহযোগিতা	-9.69237
▁পেছনে	-9.69283
▁কতটা	-9.69358
▁৯০	-9.69464
▁বললেন	-9.69493
▁খ্রিস্টের	-9.69538
▁দায়ী	-9.69545
৩৬	-9.69579
▁সুলতান	-9.69662
▁বাইবেলে	-9.69679
▁জারি	-9.69735
দিন	-9.69752
▁শোনা	-9.6978
▁মন্ত্রণালয়	-9.69787
▁সম্মেলন	-9.6981
ক্স	-9.69873
রোমীয়	-9.6992
তুমি	-9.69921
▁গা	-9.70057
০০	-9.70149
▁তোর	-9.70209
▁পরি	-9.70217
▁পৌলের	-9.70293
▁রচিত	-9.70351
▁দুজন	-9.70395
▁অর্পণ	-9.70398
▁খ্রীষ্টের	-9.704
▁ঢাকায়	-9.70401
দান	-9.70442
▁পাস	-9.70519
নী	-9.70574
▁সাহস	-9.7067
▁নম্বর	-9.70672
আমাদের	-9.70705
▁উঠেছে	-9.70733
▁পাবলিক	-9.70748
▁সংস্কার	-9.70778
▁রাত	-9.70886
▁এতটা	-9.70928
▁পেয়েছিলেন	-9.71027
▁জিজ্ঞাসা	-9.71029
ইউ	-9.71038
▁সর্বাধিক	-9.71081
▁৩৮	-9.71091
▁সান্ত্বনা	-9.71111
টু	-9.7115
▁গোল	-9.71158
▁আঞ্চলিক	-9.71184
▁পালিয়ে	-9.71239
▁পারত	-9.71285
▁ছবির	-9.71397
▁শয়তানের	-9.71439
▁ম্যাক	-9.71453
▁শিরোনাম	-9.71603
▁অস্তিত্ব	-9.71613
▁তালিকায়	-9.71648
▁তেমন	-9.71741
▁দিই	-9.71803
▁জরুরি	-9.71885
▁বাবার	-9.71935
▁ভয়েসেস	-9.7196
িকা	-9.72
▁খ্রিস্টানদের	-9.72038
▁লু	-9.72111
▁বিচ্ছিন্ন	-9.72118
▁বাছাই	-9.72155
শীল	-9.72345
▁মনোনয়ন	-9.72461
▁জীবিত	-9.72487
▁৩৬	-9.72502
▁মুহাম্মদ	-9.72509
▁দুঃখ	-9.7259
▁উপস্থাপন	-9.726
▁১৯৯১	-9.72628
▁সবাইকে	-9.72658
▁১৯৯৬	-9.72678
▁চতুর্থ	-9.72718
▁শিল্পী	-9.72727
▁হঠাৎ	-9.7273
▁পানির	-9.72734
▁আদি	-9.7275
▁উন্মুক্ত	-9.72999
▁হামলা	-9.72999
▁অসাধারণ	-9.73008
▁লোকদের	-9.73042
▁দরজা	-9.73082
▁পাবেন	-9.73087
▁শতাব্দীতে	-9.73108
▁দর্শন	-9.73118
▁স্থির	-9.73149
▁ওকে	-9.73203
▁পারেনি	-9.73339
▁বড়ো	-9.73372
▁অর্থে	-9.73413
লু	-9.73424
▁সকলে	-9.73607
▁২০০৩	-9.73728
▁গ্রিক	-9.73748
▁বিধানসভা	-9.7376
▁ব্যস্ত	-9.73843
▁বিয়ের	-9.73844
▁শান্ত	-9.73851
ছেন	-9.73869
▁পরিষদের	-9.73921
▁নেমে	-9.73986
▁তাকিয়ে	-9.73999
▁প্রকার	-9.74029
▁পূরণ	-9.74091
▁হাসপাতাল	-9.74211
টাই	-9.74277
▁সম্মুখীন	-9.74346
▁শো	-9.74431
▁বৃহৎ	-9.74446
চা	-9.74497
ফি	-9.74585
▁দক্ষতা	-9.74618
▁শুরুতে	-9.74646
▁একা	-9.74655
▁সাম্রাজ্যের	-9.74675
▁উদ্দেশে	-9.74699
হি	-9.74769
▁বাক্যের	-9.74808
▁জানো	-9.74843
৩৯	-9.74921
▁পত্র	-9.74947
▁কোন্	-9.74957
▁জয়ী	-9.75006
▁নীচে	-9.75043
▁যুক্তরাষ্ট্রে	-9.75101
▁কোথাও	-9.75152
▁উপদেশ	-9.7516
▁নেতৃত্বে	-9.75232
▁ডান	-9.75282
▁ফা	-9.75285
▁স্থাপিত	-9.75306
▁গৃহীত	-9.75308
৩৮	-9.75345
▁মর্যাদা	-9.75359
▁খ্রীষ্ট	-9.75402
▁খুন	-9.75439
▁মানবজাতির	-9.75494
টন	-9.75563
▁উপস্থিতি	-9.75608
▁আদম	-9.7561
▁ছোট্ট	-9.75636
▁শাস্ত্র	-9.75654
▁বিজয়	-9.7569
▁সান	-9.75709
▁মেলা	-9.75714
▁বিস্তারিত	-9.75776
▁শহীদ	-9.75829
▁বিলুপ্ত	-9.7585
▁জানাতে	-9.75855
▁করছিলেন	-9.75927
▁মাথায়	-9.75961
বাদী	-9.7601
▁মুসলমান	-9.76029
ন্দ	-9.76031
▁পু	-9.7613
▁সমুদ্র	-9.76208
▁গোপন	-9.76225
▁হওয়ায়	-9.76296
▁বেসরকারি	-9.76318
▁নৈতিক	-9.76357
▁পরিবর্তনের	-9.76388
▁নিয়োজিত	-9.76453
▁শেয়ার	-9.76489
▁আহত	-9.76562
▁প্রযোজ্য	-9.7659
▁এইসব	-9.76609
▁প্রতিযোগিতায়	-9.76677
ইয়া	-9.76725
▁উঁচু	-9.76761
▁জীবনকে	-9.76796
▁আল্লাহ	-9.76855
▁ডিজিটাল	-9.76971
▁পরবর্তীকালে	-9.77013
▁দ্বীপ	-9.77102
▁স্বরূপ	-9.77188
▁কর্মজীবন	-9.77263
▁প্রশ্নের	-9.77306
▁প্রধানত	-9.77332
▁সম্ভাব্য	-9.77505
কালীন	-9.77532
▁সম্পত্তি	-9.77595
▁উল্লিখিত	-9.77615
টাকে	-9.77616
▁বাক্স	-9.77632
▁হাট	-9.77639
▁সেন্ট	-9.77653
▁অফিসার	-9.77674
▁সাক্ষাৎ	-9.77793
▁জটিল	-9.77822
▁২০০২	-9.77901
য়ান	-9.77931
▁সম্মেলনে	-9.77963
▁আকার	-9.78016
▁বাঙালি	-9.78021
▁বিমানবন্দর	-9.78061
▁কমিশনের	-9.78109
▁পদক	-9.78203
▁সাক্ষিরা	-9.78264
_	-9.78521
▁বাচ্চা	-9.7857
▁কন্যা	-9.78621
▁কাউন্সিল	-9.78659
▁অগ্রগামী	-9.78725
▁সোসাইটি	-9.78773
▁হু	-9.78886
▁সংঘটিত	-9.7903
▁হি	-9.79033
র্	-9.79149
দু	-9.79223
▁রবার্ট	-9.79321
▁অবসর	-9.79333
▁অন্তত	-9.79341
▁নিম্ন	-9.79349
▁অভিষেক	-9.79412
▁২০১৯	-9.79452
▁ব্লগে	-9.79555
▁সহজেই	-9.79569
▁গতি	-9.79604
▁ওরা	-9.79633
▁দোষ	-9.79709
▁জেলায়	-9.79726
▁উল্লেখিত	-9.79751
▁ধরন	-9.79779
▁স্তর	-9.79852
▁ধ্যান	-9.79891
▁ইতিহাসের	-9.79896
▁শ	-9.79978
▁চ্যানেল	-9.80002
▁প্রমাণিত	-9.80006
▁সার	-9.80009
▁হুমকি	-9.80019
▁তাড়াতাড়ি	-9.80033
▁ছবিতে	-9.80041
চে	-9.80092
▁যুগের	-9.80208
▁সুখ	-9.80276
▁অপর	-9.80277
েন	-9.8032
▁ব্যাপারটা	-9.80331
িয়ার	-9.80358
▁ইস্রায়েলের	-9.80409
▁গভর্নর	-9.80431
▁বন্দর	-9.80442
▁দা	-9.80487
▁অবস্থার	-9.80543
▁১৯৯৯	-9.80556
▁ক্যাথলিক	-9.80563
▁ভালবাসা	-9.8068
▁আওতায়	-9.80716
▁রাষ্ট্রীয়	-9.80728
▁সংশোধন	-9.8073
▁ফসল	-9.80739
▁গ্রহণের	-9.80842
▁উচ্চতা	-9.80857
▁গ্রেপ্তার	-9.8092
▁পাথর	-9.80945
▁অভিযান	-9.80991
ুন	-9.81006
▁অন্যেরা	-9.81023
জনক	-9.81046
▁তদন্ত	-9.81047
▁বিপরীতে	-9.81049
▁হোন	-9.81058
▁মিলিত	-9.81119
▁পশ্চিমে	-9.81131
▁মাল	-9.81201
▁সীমিত	-9.81237
▁জো	-9.81241
▁দেহ	-9.81243
▁দাম	-9.81283
▁দেখিয়েছিলেন	-9.81295
▁ধারাবাহিক	-9.81322
▁অঙ্গ	-9.81355
হার	-9.81424
▁জেনে	-9.81436
▁পেয়েছি	-9.81498
▁অভিহিত	-9.8153
▁নির্বাহী	-9.81559
!"	-9.81572
▁বৃদ্ধির	-9.81668
▁ইউরোপ	-9.81672
▁আন	-9.81742
▁পরিদর্শন	-9.81872
ঙ্গ	-9.81996
▁ভিত্তিক	-9.82018
▁প্রকল্পের	-9.82048
এফ	-9.82113
লিন	-9.82215
▁ধৈর্য	-9.82217
▁কর্তৃপক্ষের	-9.82224
▁লাখ	-9.82242
▁বিতরণ	-9.82248
▁লাগবে	-9.82264
▁আম	-9.82393
▁সর্বশেষ	-9.8242
▁খ্রিস্ট	-9.8244
▁করায়	-9.82495
▁ইউনিয়নের	-9.82513
▁পুলিশের	-9.82539
▁চেয়েও	-9.82542
▁কলেজে	-9.82549
▁ছাত্রদের	-9.8258
▁শব্দটি	-9.8263
▁দেখ	-9.82631
▁মৌসুমে	-9.82724
তেই	-9.82728
▁ইংরেজ	-9.82742
▁চেয়েছিলেন	-9.82748
▁দরিদ্র	-9.82812
▁ডাক্তার	-9.82823
▁ইরানের	-9.82835
▁ঘটেছিল	-9.82943
▁৮০	-9.83023
▁প্রতিষ্ঠাতা	-9.83106
▁রাজনীতিবিদ	-9.83107
ইব্রীয়	-9.83121
▁সম্রাট	-9.83139
▁নাও	-9.8316
▁দিবস	-9.83171
▁নাটক	-9.83222
▁একসঙ্গে	-9.83267
▁শাসনের	-9.83353
▁চন্দ্র	-9.83374
▁বিকল্প	-9.83392
▁ক্ষতিগ্রস্ত	-9.8345
▁প্রকৃতপক্ষে	-9.83595
বোধ	-9.83596
▁পড়ি	-9.83679
ঙ্ক	-9.83725
▁চলেছে	-9.83735
▁ছাড়াই	-9.83758
▁সাফল্য	-9.83797
স্ত	-9.83823
▁নিচের	-9.83867
▁শক্তির	-9.83966
াস	-9.84002
▁ধান	-9.84008
নগর	-9.8402
▁ইসলামী	-9.84028
▁দুষ্ট	-9.84072
▁অস্ট্রেলিয়া	-9.84074
কল	-9.84226
▁দাবী	-9.84276
▁পরীক্ষার	-9.84289
▁পশু	-9.84352
▁১৯৭০	-9.84387
"-	-9.84394
▁পদের	-9.8451
▁সংগীত	-9.84513
▁করলেন	-9.84539
▁গুপ্ত	-9.84666
▁বিন	-9.84694
▁কিন্ত	-9.84722
▁ক্রীড়া	-9.84752
ডো	-9.8477
▁জান	-9.84776
▁প্রেমের	-9.84788
▁প্রজাতির	-9.84811
▁আনন্দের	-9.84835
▁মণ্ডলী	-9.84852
▁পরিমাণে	-9.84853
▁চলচ্চিত্রটি	-9.84856
▁৪৭	-9.84863
▁কমে	-9.84883
ানো	-9.84896
পার	-9.84962
▁বিস্তার	-9.84986
▁আহমদ	-9.84996
▁ইতিহাসে	-9.85055
▁তহবিল	-9.85086
▁১৯৪৭	-9.85089
▁সিদ্ধ	-9.85147
▁এখান	-9.85258
ন্স	-9.85266
▁পুস্তক	-9.85269
▁কাটা	-9.85452
▁তৈরির	-9.85482
▁বু	-9.85526
▁ইয়র্ক	-9.85554
▁ভার	-9.856
▁প্রোগ্রাম	-9.85624
▁এসেছিলেন	-9.8564
▁সিং	-9.85739
▁জানিয়ে	-9.85744
▁একাডেমি	-9.85814
▁ওখানে	-9.85826
▁টম	-9.85855
▁আবারও	-9.85856
▁গোষ্ঠী	-9.85875
▁সাক্ষাৎকার	-9.85897
▁পারো	-9.85908
▁হো	-9.85909
▁মাদ্রাসা	-9.85977
▁পদ্ধতিতে	-9.85977
▁নই	-9.86017
▁অপারেশন	-9.86018
▁রপ্তানি	-9.86059
▁অসংখ্য	-9.86084
▁বেশির	-9.86106
▁স্কুলের	-9.8615
▁প্রদর্শিত	-9.86213
জু	-9.86274
▁ওয়ার্ড	-9.86304
▁বইটি	-9.86357
▁যুগ	-9.86369
▁১৯৭২	-9.86371
▁সহায়ক	-9.86471
▁সংগঠিত	-9.86472
▁গানের	-9.8649
▁১৯৮০	-9.86514
▁৪২	-9.86524
▁আদিপুস্তক	-9.86528
▁রো	-9.8661
▁কাপড়	-9.86645
▁আকারে	-9.86763
▁মূর্তি	-9.86795
▁বাড়ির	-9.86843
▁প্রভু	-9.86854
▁দেখেছি	-9.86871
▁অভিযুক্ত	-9.86885
▁অ্যাকাউন্ট	-9.86932
য	-9.86991
স্প্যানিশ	-9.8706
▁ক্রিকেটার	-9.87091
বু	-9.87099
▁অনুষ্ঠানে	-9.87152
▁ঘনত্ব	-9.87202
▁লীগের	-9.87272
▁চুরি	-9.8729
▁জু	-9.87298
▁নিন্দা	-9.87345
▁ওয়ার্ল্ড	-9.8735
▁নিজেই	-9.8741
▁আত্ম	-9.87427
▁১৯৯৮	-9.8749
▁একত্রিত	-9.87514
▁কবিতা	-9.87551
▁বোঝায়	-9.87657
▁শ্রম	-9.87695
▁পরিবারে	-9.87748
বান	-9.87767
▁এটার	-9.87787
▁দেখেন	-9.87816
▁তাহাদের	-9.87816
▁শেষের	-9.87884
▁বৈজ্ঞানিক	-9.87924
▁চলার	-9.88006
▁সমাজে	-9.88058
▁কারনে	-9.88072
▁নারীর	-9.88183
▁কাঠামো	-9.88191
▁সরে	-9.88329
▁থাকত	-9.88351
▁ঘুরে	-9.88434
▁মিলে	-9.88462
▁এইধরনের	-9.88492
▁সার্ভার	-9.88511
▁সং	-9.88595
▁পরিস্থিতিতে	-9.88633
▁খাওয়া	-9.88654
এইচ	-9.88657
▁বিশ্বকাপ	-9.88684
▁ব্যাপকভাবে	-9.88743
▁একসাথে	-9.88765
▁রুশ	-9.88769
▁চলো	-9.88796
মেন্ট	-9.88835
▁মাংস	-9.88841
▁কার্ড	-9.88846
▁সূচনা	-9.88961
গু	-9.88962
▁আওয়ামী	-9.89005
▁সংগঠনের	-9.89018
▁ঝুঁকি	-9.89035
▁বার্তার	-9.89164
▁ঐতিহ্য	-9.8921
▁অভ্যাস	-9.89263
▁রেখেছে	-9.89302
▁সিনেমা	-9.89306
জো	-9.89418
▁বলো	-9.89446
রাজ	-9.89475
▁ক্ষমতার	-9.89479
▁পুরনো	-9.89483
▁সড়ক	-9.89487
▁এইচ	-9.89563
▁ঘরের	-9.89622
▁আকাঙ্ক্ষা	-9.89631
▁করলাম	-9.89646
▁আমদানি	-9.89664
▁প্রতিষ্ঠার	-9.89683
ত্ত	-9.89726
▁পেরেছিলেন	-9.89806
▁কুমার	-9.89827
▁এনে	-9.89943
▁প্রবন্ধে	-9.90038
▁প্রকৌশল	-9.90064
▁মনের	-9.90085
▁হেই	-9.90096
▁কেটে	-9.90104
▁সেন্টার	-9.90154
▁অসুস্থ	-9.90235
▁কারখানা	-9.90241
▁ব্লক	-9.90298
চার	-9.90311
েস	-9.9038
স্টার	-9.90528
▁খ্রীষ্টান	-9.9059
▁অন্যায়	-9.90641
▁বিবেচিত	-9.90644
▁অনুচ্ছেদ	-9.90645
▁পশ্চিমবঙ্গ	-9.90687
▁বৈধ	-9.90709
▁সুস্থ	-9.90757
▁মহিলাদের	-9.9078
▁ক্ষেত্রের	-9.9079
▁বেরিয়ে	-9.90857
▁জাপানের	-9.90871
▁উদ্ভিদ	-9.91047
▁সাবধান	-9.91076
▁একমত	-9.91164
▁সোনা	-9.91182
▁দেখো	-9.91217
▁জানতেন	-9.91224
▁৩৯	-9.91238
▁প্রজ্ঞা	-9.91286
▁দিল	-9.91298
▁আবু	-9.91442
▁ধরতে	-9.91468
▁পার্ক	-9.91499
▁]	-9.91502
▁অনুমান	-9.91525
▁খেতে	-9.91537
▁ঘনিষ্ঠ	-9.91568
▁ভাববাদী	-9.9157
▁৫১	-9.91583
▁ইতিবাচক	-9.91611
▁ইন্টারন্যাশনাল	-9.91614
▁আচ্ছা	-9.91724
▁উইকেট	-9.91743
▁ঘন	-9.91809
▁প্রজাতি	-9.91836
▁অসম্ভব	-9.9188
▁দৈনিক	-9.91883
▁শিষ্যদের	-9.91883
ঈশ্বর	-9.91934
▁কপি	-9.91954
ধ	-9.92011
তোমরা	-9.92023
▁প্রেস	-9.92031
▁ব্যুরো	-9.9204
▁শ্রেণীর	-9.92052
▁যাবার	-9.92062
▁৫২	-9.92121
গণের	-9.92138
▁চ	-9.92179
▁পেয়েছিল	-9.92212
▁অতএব	-9.92223
কেও	-9.92323
▁পিটার	-9.92333
▁সকালে	-9.92334
াম	-9.92494
▁কলকাতার	-9.92519
▁রাজস্ব	-9.92574
▁বিদ্রোহ	-9.92577
▁পৌঁছে	-9.92625
▁খালি	-9.92646
▁অব্যাহত	-9.92766
বিদ্যা	-9.92786
▁সো	-9.92795
ষ্ট	-9.92872
▁পাখি	-9.92895
▁তখনই	-9.92951
▁সহকারে	-9.92982
▁লো	-9.93058
▁সাইট	-9.93119
▁পরিত্যাগ	-9.9313
▁সমর্থ	-9.93199
▁মেয়েদের	-9.93233
▁স্মৃতি	-9.93234
▁সন্তানের	-9.93267
▁মাই	-9.93301
▁রয়েছেন	-9.9335
▁প্রণয়ন	-9.93449
▁১৯৯৭	-9.93453
িস	-9.935
▁বিশ্লেষণ	-9.9351
▁কিছুদিন	-9.93536
▁মিশর	-9.9354
৬০	-9.9365
▁লিপিবদ্ধ	-9.93732
▁তখনও	-9.93779
▁বিনিয়োগ	-9.93815
▁প্রথা	-9.93851
▁আগুন	-9.93889
▁লোককে	-9.93921
▁স্বর্গে	-9.9395
▁উচিৎ	-9.94007
▁ভবিষ্যতে	-9.94015
▁সংস্কৃতির	-9.94047
▁কার্য	-9.94117
▁৪৯	-9.94373
▁শমূয়েল	-9.9439
▁রাখুন	-9.94395
৮০	-9.94428
▁চিৎকার	-9.94448
▁সহকারী	-9.94499
চিত্র	-9.945
▁পর্যবেক্ষণ	-9.94556
হিতোপদেশ	-9.94599
রী	-9.94646
▁কলা	-9.94651
▁অনুশীলন	-9.94686
▁শতাব্দী	-9.94694
▁সবুজ	-9.94697
▁জা	-9.94711
▁দক্ষ	-9.94749
▁বো	-9.94807
▁আলি	-9.94874
▁বলছেন	-9.94875
গার	-9.94918
▁ভাইদের	-9.94944
▁কিংডম	-9.94951
▁স্ত্রীর	-9.94987
▁ইস্ট	-9.94988
▁জনের	-9.94996
▁অলিম্পিক	-9.94999
▁মন্ত্রণালয়ের	-9.95065
▁জানিয়েছেন	-9.95072
▁৫৫	-9.95183
ডে	-9.95226
জাত	-9.9526
▁যাক	-9.95296
▁টুইটারে	-9.95301
▁নিয়েছিল	-9.95383
?'	-9.95403
▁জনগণ	-9.95462
▁সুপারিশ	-9.95498
▁পাট	-9.95582
▁জেলে	-9.9559
▁সমৃদ্ধ	-9.95594
▁বিপরীত	-9.95611
▁অনন্ত	-9.95632
▁বাইরের	-9.95664
▁পো	-9.95674
▁পাসওয়ার্ড	-9.95675
▁শুরুর	-9.95714
▁এশিয়ার	-9.9574
▁সমিতি	-9.95749
▁অধিকারী	-9.95754
▁ধনী	-9.95785
▁শক্ত	-9.95785
▁যেকোন	-9.95798
▁চি	-9.95813
▁দমন	-9.95871
▁সত্যের	-9.95877
▁অবৈধ	-9.95898
▁রাজার	-9.96005
▁যৌথ	-9.96011
৪৩	-9.96014
▁ব্যবহূত	-9.96067
▁প্রত্যাশা	-9.96075
▁প্রকৃতি	-9.96129
▁শ্রেণী	-9.96145
▁পদার্থ	-9.96153
▁পৌরসভা	-9.96181
▁ফ	-9.96184
▁ক্যাপ্টেন	-9.96243
ন্ত	-9.96339
▁রূপান্তর	-9.96378
▁ধরার	-9.96496
▁সেখান	-9.96592
▁নিকটে	-9.96736
▁হাসপাতালে	-9.96817
▁এগুলি	-9.96829
▁শ্রী	-9.96865
▁পড়েন	-9.96893
▁আনতে	-9.96906
▁পড়াশোনা	-9.96915
▁উইন্ডো	-9.96918
▁কাগজ	-9.96953
▁সৃষ্ট	-9.96976
▁রাশিয়ার	-9.97006
▁পার্টির	-9.97044
খা	-9.97053
▁প্রার্থী	-9.97082
▁আসলেই	-9.97086
▁৪৩	-9.97422
▁মৎস্য	-9.97427
▁কাটিয়ে	-9.97532
▁ইংল্যান্ড	-9.97562
▁উনি	-9.97647
▁বিপদ	-9.97667
▁পরিচালনার	-9.97675
▁যুগে	-9.97676
▁বাড়িয়ে	-9.97689
▁সেনা	-9.97702
▁পেশাদার	-9.97709
▁পেয়েছেন	-9.97756
▁নির্মাণের	-9.97768
▁ইতিমধ্যেই	-9.97847
▁এটির	-9.9789
▁অনুগত	-9.9804
▁অদ্ভুত	-9.9806
▁দশক	-9.9807
▁১৯৯৫	-9.98108
▁সৈন্য	-9.98167
৪২	-9.98191
্র	-9.98212
▁সাম্রাজ্য	-9.98215
▁রঙের	-9.98239
▁সংবাদপত্র	-9.98244
▁গরম	-9.98284
▁ডা	-9.98377
▁বাই	-9.98463
▁রোমান	-9.98563
▁জাপান	-9.98595
▁চাষ	-9.98647
▁করুক	-9.9878
▁বেতন	-9.98803
▁এসেছি	-9.98832
▁বীজ	-9.98905
▁শত্রু	-9.98931
▁শনাক্ত	-9.98971
▁শীর্ষ	-9.99063
▁প্রেমময়	-9.99085
▁ব্যতীত	-9.99096
▁অপ	-9.99126
▁স্পষ্টভাবে	-9.99132
▁বিচারক	-9.99155
▁সহিত	-9.99219
▁এয়ার	-9.99232
আদিপুস্তক	-9.99261
▁সাহায্যের	-9.99348
▁মনুষ্য	-9.99443
▁ভালোবাসা	-9.99477
▁লাভের	-9.99543
▁প্রকাশের	-9.99604
গান	-9.99607
▁যাব	-9.99621
▁শতকে	-9.99623
▁ইহা	-9.9967
বিশিষ্ট	-9.99694
▁কলেজের	-9.99702
▁উঠেছিল	-9.99711
সংক্রান্ত	-9.99727
▁পল	-9.99816
▁মেলামেশা	-9.99853
▁সাব	-9.99887
▁৪৬	-9.99913
▁কর্তৃত্ব	-9.99921
▁/	-9.99924
▁বন্দী	-9.99925
▁শস্য	-9.99968
▁সংগৃহীত	-9.9997
▁তৎকালীন	-10.0003
▁কল্যাণ	-10.0009
▁কিশোর	-10.001
▁সদাপ্রভু	-10.0011
▁কংগ্রেস	-10.0016
▁লন্ডন	-10.0022
▁প্রতিরক্ষা	-10.0022
ূ	-10.0032
কারীদের	-10.0033
▁যোগ্যতা	-10.004
▁হাসান	-10.0041
▁কৃতজ্ঞ	-10.0049
▁ফিফা	-10.0063
▁ঘটনায়	-10.0064
▁করিলেন	-10.0065
▁কথাবার্তা	-10.0066
▁আইনে	-10.0066
▁৪৪	-10.0067
▁আজ্ঞা	-10.0073
▁অভ্যন্তরীণ	-10.0074
▁করলো	-10.0075
▁উজ্জ্বল	-10.0078
▁ডেভিড	-10.008
▁খানের	-10.0082
▁মুগল	-10.0102
▁সৈয়দ	-10.0103
৪৭	-10.0105
দে	-10.0107
▁কেহ	-10.0108
▁ওয়েস্ট	-10.0108
▁স্পর্শ	-10.011
▁পূর্ববর্তী	-10.0116
▁পতাকা	-10.0119
▁অনুমোদিত	-10.0121
▁বংশ	-10.0126
▁সেন	-10.0126
▁৪১	-10.0137
ল্ড	-10.0137
▁মিশন	-10.014
%)	-10.014
ৈ	-10.0143
▁বিশেষজ্ঞ	-10.0144
▁পাঁচটি	-10.0146
▁ব্যক্তিত্ব	-10.0157
▁বিশেষত	-10.016
▁ভেঙ্গে	-10.0168
▁ইবনে	-10.0172
▁আলোচনার	-10.0177
▁আন্তরিক	-10.0181
▁উপন্যাস	-10.019
▁হইয়া	-10.0194
▁মিশরের	-10.0197
▁অথচ	-10.0204
▁জেমস	-10.0205
▁৬৫	-10.0206
▁উন্নয়নের	-10.0206
▁সেনাবাহিনীর	-10.0206
▁ধারার	-10.0206
স্বরূপ	-10.0216
পো	-10.0217
গ্রাম	-10.0218
▁সকাল	-10.0218
▁শ্রদ্ধা	-10.0223
▁সেখানকার	-10.023
পড়ুন	-10.0233
▁চালানো	-10.0236
দেশ	-10.0239
ঞ্জ	-10.0244
▁কলকাতায়	-10.0263
আপ	-10.0264
▁সেনাবাহিনী	-10.0272
▁কৃষক	-10.0278
▁তম	-10.0282
▁১৯৬০	-10.0292
▁পরিশ্রম	-10.0292
▁পুরুষদের	-10.0296
▁বাজারে	-10.0299
▁এদিকে	-10.03
ছিলাম	-10.0307
▁রাজি	-10.0313
িতে	-10.0314
▁১৯৫০	-10.0316
▁অধ্যয়নের	-10.0317
▁অনুষ্ঠানের	-10.0324
▁টন	-10.0332
তু	-10.0335
▁চুক্তির	-10.0343
▁রাজশাহী	-10.0344
▁মাঠ	-10.0345
▁ম্যান	-10.035
▁নিউজ	-10.0352
▁স্পষ্টতই	-10.0353
▁ভাড়া	-10.036
▁প্রচারণা	-10.0363
▁এফ	-10.0366
▁প্রাদেশিক	-10.0367
▁কার্যভার	-10.0374
▁বিতর্ক	-10.0377
▁সূর্য	-10.038
য়ো	-10.0381
▁দুইটি	-10.0385
▁জানিয়েছে	-10.0386
েল	-10.0396
▁সচিব	-10.04
▁পাশ	-10.0402
*	-10.0413
▁শিশুর	-10.0437
▁টাওয়ার	-10.0438
▁রঙ	-10.0444
▁অফিসে	-10.0445
▁বললে	-10.0445
▁জোরালো	-10.0446
▁সফটওয়্যার	-10.0446
▁লিখে	-10.0452
▁পরিচর্যার	-10.0453
▁অনেকটা	-10.0465
শো	-10.0466
৪৬	-10.047
▁বায়ু	-10.0477
বর্গ	-10.0478
▁আদালতে	-10.0481
▁গুরু	-10.0484
▁বেল	-10.0484
▁পারবো	-10.0489
▁বুদ্ধি	-10.0492
▁বন্দি	-10.0498
▁নথি	-10.0502
▁শুভ	-10.0512
▁আসো	-10.0512
▁গভীরভাবে	-10.0512
▁মাটি	-10.0514
▁এখনই	-10.0517
▁উপাসনার	-10.0519
▁ইস্রায়েল	-10.0523
▁রাজনীতি	-10.0533
েশন	-10.0533
৭০	-10.0536
▁বাঁধ	-10.0543
▁অতঃপর	-10.0544
গীত	-10.0546
▁সীমান্ত	-10.0548
▁ধন	-10.0548
▁খ্রীষ্টানদের	-10.0558
▁কাঠ	-10.0558
▁নিয়মিতভাবে	-10.0561
▁নব	-10.0566
▁বিবাহিত	-10.0569
▁বন্যা	-10.0571
▁অগ্রসর	-10.0576
▁৫৩	-10.0578
▁মন্দিরের	-10.0584
▁স্বল্প	-10.0589
▁নিষেধাজ্ঞা	-10.0589
▁ট্রেন	-10.0593
▁পরেই	-10.0596
▁ইউনিভার্সিটি	-10.0602
কেই	-10.0602
▁রোগের	-10.0603
লাল	-10.0607
গি	-10.061
রাম	-10.061
▁১৯৯২	-10.0611
▁খ্রিস্টানরা	-10.0618
▁আক্রমণের	-10.0619
▁প্রবণতা	-10.0621
▁আটক	-10.063
মুক্ত	-10.0634
▁সাধন	-10.0638
▁জাতিসংঘের	-10.0642
▁বর্ণিত	-10.0647
৪৮	-10.0648
▁শু	-10.0648
▁সংবিধান	-10.0655
▁অন্যের	-10.0657
▁যেমনটা	-10.0658
▁সিলেট	-10.0661
▁ভালভাবে	-10.0663
▁চোখের	-10.0668
▁ফাঁকা	-10.0671
▁দোকান	-10.0672
সম্পন্ন	-10.0673
▁গির্জা	-10.0679
েও	-10.068
▁জ	-10.0698
▁মুদ্রণ	-10.07
▁সংগ্রহের	-10.0708
▁পাহাড়	-10.071
▁সরল	-10.0712
▁শে	-10.0721
▁কন	-10.0721
▁টিকে	-10.0724
▁বক্তব্য	-10.0735
▁গাছের	-10.0736
সো	-10.074
▁কারও	-10.0744
▁ফেলার	-10.0748
▁জলবায়ু	-10.0751
▁প্রকাশক	-10.0752
▁রাগ	-10.0753
▁উপেক্ষা	-10.0757
▁মজা	-10.0761
▁ব্যক্তিগতভাবে	-10.0762
▁চিত্রিত	-10.0763
▁ক্ষতিকর	-10.0764
▁বোর্ডের	-10.0765
▁বুক	-10.0769
▁বিবৃতি	-10.0771
▁প্রস্তুতি	-10.0772
▁ওয়া	-10.0772
ন্ট	-10.0778
▁পরিষেবা	-10.0781
০৮	-10.0783
▁দেবার	-10.0783
▁জনসাধারণের	-10.0802
▁ঘুম	-10.0803
▁জড়িয়ে	-10.0804
▁পর্যায়ের	-10.0804
▁বিশ	-10.0806
▁নোট	-10.0807
▁বাঁধা	-10.0807
▁সমন্বয়	-10.0808
▁লর্ড	-10.0808
▁সদস্যরা	-10.0809
▁জিন	-10.0811
▁মানচিত্র	-10.0816
▁যিশুকে	-10.0818
▁২০০	-10.0822
▁সম্পর্কের	-10.083
িল	-10.0832
▁বিক্রয়	-10.0839
▁ছাপ	-10.0848
▁বর্ণ	-10.0864
▁ব্যবসায়ী	-10.0867
▁তাহারা	-10.0868
▁বলবে	-10.0871
▁দিলে	-10.0876
▁বাচ্চাদের	-10.0885
▁পারছি	-10.0887
▁ফিল্ম	-10.0888
▁অনলাইনে	-10.0889
▁ইয়া	-10.0893
▁পারতেন	-10.0895
▁শাস্ত্রীয়	-10.0895
▁সৃষ্টির	-10.0897
▁লিঙ্গ	-10.0899
▁চে	-10.09
স্ক	-10.0906
▁ইরান	-10.091
▁চুপ	-10.0913
▁হৃদয়ে	-10.0913
▁মতোই	-10.0915
▁জানানোর	-10.0916
ৌ	-10.0916
▁সাক্ষী	-10.0919
্ম	-10.092
▁আরোপ	-10.0922
▁চেক	-10.0927
▁জ্যাক	-10.0927
▁বিপুল	-10.093
▁প্রতিযোগিতার	-10.0932
▁পুরষ্কার	-10.0942
▁মিশরীয়	-10.0943
▁সুর	-10.0946
▁আদিবাসী	-10.0952
▁নর	-10.0955
সমস্ত	-10.0961
▁যতক্ষণ	-10.0962
▁অভিনয়ের	-10.0963
▁হব	-10.0969
▁বর	-10.0971
িয়	-10.0972
▁খেয়ে	-10.0974
▁থাকায়	-10.0975
▁স্টেট	-10.0976
▁সেটাকে	-10.098
কম	-10.0988
▁দাঁড়ায়	-10.0989
পাড়া	-10.099
▁দৃষ্টান্ত	-10.0995
▁নৌকা	-10.1005
▁কর্পোরেশন	-10.1009
▁পরিবহন	-10.101
▁মাত্রা	-10.1017
▁উপস্থাপনা	-10.1025
▁দায়ূদের	-10.1025
▁কাঠের	-10.1027
▁জনগোষ্ঠীর	-10.1029
▁১৯৯৩	-10.1031
▁পাকিস্তানে	-10.1032
▁রাখি	-10.1036
▁শোক	-10.1046
▁ক্রিকেটে	-10.1049
▁মানুষদের	-10.1052
মাত্র	-10.1053
▁লোড	-10.1059
▁মেডিকেল	-10.1065
▁সুপার	-10.1066
▁বৃদ্ধ	-10.1076
▁৫৪	-10.1077
▁আর্কাইভ	-10.108
▁বন্ধুত্ব	-10.1081
▁কথায়	-10.1092
▁প্রতিটা	-10.11
▁কোম্পানী	-10.1101
▁পর্যাপ্ত	-10.1104
▁লুকিয়ে	-10.1112
▁নজর	-10.1114
▁রাতের	-10.1116
▁জমিদার	-10.1122
▁ভালোভাবে	-10.1125
▁মুখ্য	-10.1127
নিয়া	-10.1136
▁জমির	-10.1142
▁উই	-10.1142
▁মুসলমানদের	-10.1149
▁উদযাপন	-10.115
▁স্বতন্ত্র	-10.1155
নাম	-10.1156
০৭	-10.1158
▁অপূর্ব	-10.1163
▁বিরত	-10.1165
▁তীম	-10.1166
▁পণ্ডিত	-10.1182
▁বিজ্ঞাপন	-10.1183
▁আয়ের	-10.1189
▁সার্টিফিকেট	-10.1189
▁প্রথমবারের	-10.1191
▁অজানা	-10.1197
▁টেনে	-10.1197
▁সম্পর্কযুক্ত	-10.1201
জাতীয়	-10.1207
▁উইলিয়াম	-10.1208
▁বোঝার	-10.1213
রত	-10.1214
▁স্বামীর	-10.1224
বিহীন	-10.1228
▁মুক্তিযুদ্ধের	-10.1228
▁ইয়োব	-10.1235
▁প্লিজ	-10.1235
▁১৯৮২	-10.124
▁হচ্ছেন	-10.1241
▁ফ্রি	-10.1241
▁শরীর	-10.1242
▁১৯৯৪	-10.1248
▁ভবিষ্যতের	-10.1248
▁বৃষ্টি	-10.125
▁সৎ	-10.126
▁বার্ন	-10.1272
▁দৃষ্টিতে	-10.1276
▁কাজগুলো	-10.128
মন	-10.1281
▁ম্যাচ	-10.1281
▁পরিণতি	-10.1284
▁দ্রব্য	-10.1288
▁আটকে	-10.1288
▁মৃত্তিকা	-10.1289
▁মিশনারি	-10.1293
৪১	-10.1298
▁জেগে	-10.1303
ড়ি	-10.1306
▁দিয়া	-10.1306
▁বিপ্লব	-10.1307
▁বেঙ্গল	-10.131
▁কান	-10.1312
▁যথাযথ	-10.1314
▁মাটির	-10.132
▁জানুয়ারী	-10.1322
▁ইতোমধ্যে	-10.1326
▁আকাশ	-10.1328
▁সেতু	-10.1338
লী	-10.1359
▁ধার্মিক	-10.136
▁অনুলিপি	-10.1362
▁কর্মচারী	-10.1367
▁বিশ্বে	-10.137
৯০	-10.137
ল্যান্ড	-10.1376
▁ইস্রায়েলীয়দের	-10.1377
▁প্রবাহিত	-10.1385
▁মাইকেল	-10.139
▁থাকবেন	-10.139
স্তা	-10.1393
▁পার্শ্ব	-10.1393
০৬	-10.1399
িনী	-10.1405
কান	-10.1417
▁ওদের	-10.1419
▁আরেক	-10.1421
নিক	-10.1421
▁অপরাধের	-10.1422
০৫	-10.1424
▁বিকাশ	-10.1438
▁মুহূর্তে	-10.1444
▁নির্যাতন	-10.1446
▁হচ্ছিল	-10.1447
▁ইন্ডিয়ান	-10.1448
▁চল	-10.1453
বেন	-10.1461
▁ওষুধ	-10.1464
▁হাসি	-10.1476
▁ভাবতে	-10.1477
▁লোকজন	-10.1482
▁পরিবারকে	-10.1486
বন	-10.1486
▁দেবী	-10.149
▁ঘণ্টা	-10.1497
▁চিরকাল	-10.1498
▁ঔষধ	-10.1506
▁পুরস্কারের	-10.1519
▁জরিপ	-10.1519
▁পাত্র	-10.153
▁তেমনি	-10.1531
▁অপসারণ	-10.1532
▁ব্যথা	-10.1535
▁রোড	-10.1537
▁শি	-10.1541
▁সদাপ্রভুর	-10.1543
▁কমান্ড	-10.1543
ারি	-10.1549
▁পেরে	-10.1549
▁অংশের	-10.1551
▁গৌরব	-10.1551
▁আইনজীবী	-10.1553
▁থাকো	-10.1556
▁এসো	-10.1556
▁কারণেই	-10.1557
▁নো	-10.1565
▁ডিগ্রী	-10.1573
▁আগ	-10.1575
▁রাস্তার	-10.1577
▁অস্ট্রেলিয়ার	-10.1577
▁তাছাড়া	-10.158
▁লিমিটেড	-10.1587
িস্ট	-10.1591
পশ্চিম	-10.1592
▁এমনভাবে	-10.1592
▁মারাত্মক	-10.1601
কোন	-10.1604
ণ্ড	-10.1604
▁বয়ে	-10.1612
▁প্রতিশ্রুতি	-10.1616
▁উপকৃত	-10.1618
▁শব্দের	-10.162
▁সাপ্তাহিক	-10.1621
ফার	-10.1625
গে	-10.1633
ল্লা	-10.1634
েড	-10.1639
▁১৯৭৭	-10.1639
▁দিকের	-10.164
▁আফগান	-10.1643
▁এইভাবে	-10.1645
▁শতক	-10.1646
▁পদ্ধতির	-10.165
▁আদালতের	-10.1652
▁গ্রামীণ	-10.1655
▁সংস্কৃত	-10.1655
▁একসময়	-10.1665
▁রীতি	-10.1665
▁করেই	-10.1668
▁খেলেন	-10.1669
▁আবশ্যক	-10.1669
▁ডিম	-10.1679
▁কোর্স	-10.1682
তিনি	-10.1682
▁ওঠা	-10.1691
▁কর্মীদের	-10.1694
▁সঠিকভাবে	-10.1698
▁১৯৮৯	-10.1701
▁তিনজন	-10.1703
▁হাল	-10.171
▁শতকরা	-10.1724
▁যাবেন	-10.1724
▁পাঠিয়ে	-10.1726
▁গণনা	-10.1727
▁১৯৭৫	-10.1729
▁আত্মিক	-10.1743
▁নিমিত্ত	-10.1751
▁বিলিয়ন	-10.1753
তোমার	-10.1764
▁স্টার	-10.1766
▁ব্যবস্থায়	-10.1766
▁বিশ্বযুদ্ধের	-10.1767
▁নিজেদেরকে	-10.1768
▁পড়েছিল	-10.1771
▁ফ্রান্স	-10.1779
▁দিবে	-10.178
▁রস	-10.178
যিশাইয়	-10.1782
হু	-10.1782
▁সিরিয়ার	-10.1784
রাস্তা	-10.1787
▁কর্মসূচি	-10.1788
▁সংসদের	-10.1788
▁সিরিজ	-10.1789
▁ইউরোপের	-10.1791
▁পরিচারক	-10.1792
▁একত্রে	-10.1793
▁করিও	-10.1795
▁আবদ্ধ	-10.1795
▁মোশির	-10.1796
▁বিশ্রাম	-10.1797
ড়ে	-10.1802
▁ছোটো	-10.1822
রাই	-10.1824
▁ইউনিট	-10.1827
▁প্রত্যক্ষ	-10.1833
পু	-10.1834
▁উপযোগী	-10.1839
▁আর্ট	-10.184
▁বরাবর	-10.1842
▁সহযোগী	-10.1843
ঙ্গা	-10.1844
▁পাকিস্তানি	-10.1847
০৯	-10.1849
▁স্থাপত্য	-10.1849
▁দানিয়েল	-10.1851
নাথ	-10.1855
▁গেছেন	-10.1862
▁আফগানিস্তানের	-10.1863
▁শিল্পের	-10.1873
▁জন্যই	-10.1877
৬৬	-10.1878
▁একদম	-10.1879
▁আব্দুল	-10.1883
▁লিখতে	-10.1885
▁স্থানান্তর	-10.1889
▁সন্তুষ্ট	-10.1892
ভুক্ত	-10.1893
▁অপরের	-10.1895
উপ	-10.1906
▁কৃষ্ণ	-10.1908
▁সঙ্গী	-10.1914
▁গু	-10.1914
▁চিনি	-10.1922
▁চু	-10.1925
লাইন	-10.1927
▁কাম	-10.1928
▁করবার	-10.1931
৭৫	-10.1931
▁সফর	-10.1936
নীয়	-10.1939
ছো	-10.194
▁১৯৮৪	-10.194
▁চুল	-10.1942
▁..	-10.1943
▁রাসায়নিক	-10.1943
▁১৯৬২	-10.1948
০৪	-10.1951
▁সীমাবদ্ধ	-10.1956
▁হোম	-10.1966
পূ	-10.1967
▁১৯৮৭	-10.1968
▁উদ্বিগ্ন	-10.1972
▁সাহসী	-10.1973
▁সম্বন্ধীয়	-10.1974
▁কারাগারে	-10.1975
▁এমনটা	-10.1975
▁১৯৮৩	-10.1983
কী	-10.1984
▁আচার	-10.1988
▁স্প্যানিশ	-10.1988
▁সুরক্ষিত	-10.1992
▁চাইলে	-10.1994
▁প্রতিফলিত	-10.2
▁আইসিসি	-10.2003
▁ফেরত	-10.2005
▁রেড	-10.2013
▁সৌজন্যে	-10.2013
▁এখানকার	-10.2016
▁জনতা	-10.2034
▁আরবি	-10.2034
▁দোষী	-10.2035
▁ক্রয়	-10.2036
▁বসতি	-10.2042
বাসী	-10.2053
▁দাসদের	-10.2057
▁থাকুন	-10.2058
▁অন্ধ	-10.2062
▁মাঝামাঝি	-10.2064
ধা	-10.2064
▁নিবন্ধন	-10.2064
▁নওয়াব	-10.2066
চু	-10.2071
▁ওপরে	-10.2072
▁অভি	-10.2077
▁নির্বাচনী	-10.2078
▁সেটাই	-10.2079
▁মালিকানা	-10.2082
হো	-10.2085
▁পরিবেশন	-10.2087
▁প্রসারিত	-10.2088
▁এ্যা	-10.209
▁নেতাদের	-10.2092
▁এনজিও	-10.2093
▁গায়ক	-10.2097
▁বিদেশি	-10.2102
▁ভা	-10.2111
পর	-10.2117
▁তথ্যের	-10.2118
▁নিয়েছেন	-10.212
▁বিনিময়	-10.2126
▁যাজক	-10.2128
▁এশিয়ান	-10.2135
▁ভৌগোলিক	-10.2136
▁কর্মরত	-10.2145
▁খেয়াল	-10.2147
▁গিয়েছিলাম	-10.2148
▁কেন্দ্রীভূত	-10.2152
মেন	-10.2159
▁রাজকীয়	-10.2166
▁সেগুলোকে	-10.2175
▁খ্যাতি	-10.2175
▁যথাক্রমে	-10.2202
▁অডিও	-10.2202
▁রূপে	-10.2203
▁হাঁস	-10.2207
▁সশস্ত্র	-10.2223
▁সম্পূর্ণরূপে	-10.2228
▁মোশি	-10.2235
▁পুরোনো	-10.2237
▁এজেন্ট	-10.2244
▁লাগছে	-10.2246
▁মঙ্গল	-10.2246
▁চ্যালেঞ্জ	-10.2246
▁পুরাতন	-10.2247
াইয়া	-10.225
▁একদল	-10.225
উল	-10.225
▁প্রণীত	-10.2253
ুক	-10.2253
▁উদ্যান	-10.2259
▁নির্	-10.2262
জান	-10.2262
▁আমরাও	-10.2269
▁হতাশ	-10.2271
৫৫	-10.228
▁টেক্সট	-10.2282
▁প্রবল	-10.2287
▁বিজ্ঞ	-10.2293
▁সংগ্রাম	-10.2294
▁রহস্য	-10.2294
সেন	-10.2294
▁১৯৮৮	-10.2295
▁মেরি	-10.2299
▁পার্বত্য	-10.2304
▁স্বর্ণ	-10.2311
▁নিম্নলিখিত	-10.2312
▁ঘিরে	-10.2312
▁অর্ধেক	-10.2314
▁সরকারকে	-10.2316
▁দলটি	-10.2318
▁পরিবহণ	-10.2319
▁ইংল্যান্ডের	-10.232
দী	-10.2321
▁বিচারের	-10.2324
▁পেশ	-10.2327
▁মিত্র	-10.2328
▁প্যা	-10.2332
▁রূপান্তরিত	-10.2346
▁বিদেশে	-10.2346
▁নিদর্শন	-10.2346
▁সহজে	-10.2347
▁সামগ্রী	-10.2352
▁বিদায়	-10.2356
▁রাজ্যে	-10.2357
▁ভয়াবহ	-10.2359
তত্ত্ব	-10.2363
▁প্রত্যাহার	-10.2371
▁ছেলেমেয়েদের	-10.2373
▁আল্লাহর	-10.2376
▁ওয়াচ	-10.238
▁ইফিষীয়	-10.2381
▁আরেকজন	-10.2381
▁থিয়েটার	-10.2383
▁করান	-10.2385
▁অক্ষর	-10.2388
ীদের	-10.2391
▁স্বয়ংক্রিয়	-10.2394
▁অলৌকিক	-10.2395
দো	-10.2396
▁পশ্চিমবঙ্গের	-10.2397
৫৮	-10.2398
▁অগ্রগামীর	-10.2401
াদি	-10.2403
▁দিচ্ছি	-10.2405
▁হ্যালো	-10.2406
▁চর	-10.2412
ক্ষ	-10.2417
মেইল	-10.2424
মের	-10.2427
প্রকাশিত	-10.2427
▁যিহুদি	-10.243
▁দায়	-10.2436
▁অস্থায়ী	-10.2438
▁পৃষ্ঠায়	-10.2442
চন্দ্র	-10.2445
▁আনুগত্য	-10.2445
▁আনার	-10.2448
শী	-10.2449
▁ডু	-10.245
▁বিরক্ত	-10.2452
▁চার্লস	-10.2453
সেই	-10.2455
▁মেজর	-10.2456
▁বস	-10.246
▁যথা	-10.2463
ভাব	-10.2468
▁টাকার	-10.2472
▁বীমা	-10.2479
▁করছ	-10.248
▁সত্যিকারের	-10.2482
▁ব্যাংকের	-10.2486
▁লাগানো	-10.2487
▁সেগুলি	-10.249
▁সম্পাদনা	-10.2491
▁গঠনের	-10.2496
▁নম্র	-10.2498
▁মধ্যবর্তী	-10.2499
▁গণতান্ত্রিক	-10.2499
▁১৯৬৯	-10.2511
▁গবেষণার	-10.2511
▁দেরি	-10.2513
▁আসি	-10.2519
▁লিখেছে	-10.2525
▁অগ্নি	-10.2527
▁নেতিবাচক	-10.2528
▁উন্নীত	-10.2528
▁বেন	-10.2528
▁লাইব্রেরি	-10.2531
যেমন	-10.2531
শ্রেণীর	-10.2533
▁দুধ	-10.2533
▁বৈদেশিক	-10.2535
▁ভূমিকায়	-10.2537
▁বোকা	-10.254
▁বাম	-10.2549
▁মেয়ের	-10.255
▁পঞ্চম	-10.255
▁কেন্দ্রে	-10.2558
▁অল	-10.2559
থি	-10.2562
▁কক্ষ	-10.2565
▁নোহ	-10.2568
▁আমিও	-10.2575
▁আকারের	-10.2577
▁বেগম	-10.2588
▁আপ	-10.259
▁আফ্রিকান	-10.2599
▁লেখেন	-10.2604
▁১৯৮৬	-10.2609
মত	-10.262
▁খাবারের	-10.2622
▁দলিল	-10.2629
▁মাতা	-10.2633
▁ফু	-10.2637
▁দেখেছিলেন	-10.264
এটা	-10.2642
▁ক্যা	-10.2642
▁করিব	-10.2643
▁মিনিটের	-10.2644
▁গির্জার	-10.2646
▁পর্ব	-10.2647
ার্স	-10.2651
▁রাখবেন	-10.2652
▁আসাম	-10.2654
▁পুনরুদ্ধার	-10.2657
▁শিরোনামের	-10.266
▁উনিশ	-10.2664
▁পুকুর	-10.2667
▁পাচ্ছে	-10.2673
▁নিয়ন্ত্রিত	-10.2674
▁চিন্তাভাবনা	-10.2674
▁পার্থিব	-10.268
ওয়ার	-10.2684
▁রুট	-10.2687
▁হিন্দি	-10.2688
৪৯	-10.2695
▁(;	-10.2696
▁প্রতিবেশী	-10.2698
▁নৃত্য	-10.2701
▁দৈর্ঘ্য	-10.2702
পদ	-10.2707
▁সর্বোত্তম	-10.2712
▁পরীক্ষায়	-10.2713
▁মূল্যায়ন	-10.2715
▁রাশিয়া	-10.2716
▁সংকেত	-10.2728
▁চাল	-10.2729
▁আদায়	-10.2733
▁যাইহোক	-10.2733
▁প্রাচীনদের	-10.2739
▁আধ্যাত্মিকভাবে	-10.2739
▁আমলে	-10.274
াব	-10.2741
▁আশ্বাস	-10.2741
▁লঙ্ঘন	-10.2743
▁গেম	-10.2748
শক্তি	-10.2751
▁ভেতর	-10.2753
▁একাডেমী	-10.2754
▁উপদেষ্টা	-10.2764
▁জাতীয়তাবাদী	-10.2768
▁হয়েছি	-10.2768
▁বস্ত্র	-10.2781
▁বিষয়গুলোর	-10.2787
▁বিনিময়ে	-10.2789
▁সম্প্রচার	-10.279
▁বিশুদ্ধ	-10.2803
▁মৃত্যুবরণ	-10.2804
▁পলি	-10.281
▁চার্চ	-10.281
▁কেন্দ্রের	-10.2813
▁মসজিদের	-10.2814
লের	-10.2816
অ্যা	-10.2817
▁আবহাওয়া	-10.2818
▁গ্রীক	-10.2819
▁কর্মকর্তাদের	-10.282
▁দত্ত	-10.282
▁ওজন	-10.2821
▁বীর	-10.283
▁জয়লাভ	-10.2844
▁বেসামরিক	-10.285
▁শোনার	-10.2852
▁রাজত্ব	-10.2853
▁বলেছি	-10.2854
▁১৯৭৩	-10.2855
▁কালে	-10.286
▁১৯৭৪	-10.2863
▁করতো	-10.2865
▁মাহমুদ	-10.2872
▁বৃহত্তর	-10.2873
কুল	-10.2877
▁খামার	-10.2878
কিন্তু	-10.2879
বিদ	-10.2883
▁ভর	-10.2884
▁ওঠার	-10.2885
▁থাকলেও	-10.2887
▁ভাইয়ের	-10.2888
▁পতন	-10.2899
ডার	-10.2904
▁কুকুর	-10.2906
তাম	-10.2908
▁সকলেই	-10.2911
▁অবশিষ্ট	-10.2912
উই	-10.2914
▁ক্যামেরা	-10.2914
▁হামলার	-10.2915
▁প্রচারিত	-10.2916
তারা	-10.2922
▁বন্ধুদের	-10.2929
▁দিয়েছি	-10.2933
▁অ্যালবাম	-10.2937
▁পাচ্ছি	-10.2941
▁৭৫	-10.2944
চ্ছ	-10.2951
▁দুর্যোগ	-10.2952
োর	-10.2956
▁দলকে	-10.2958
▁দুর্গ	-10.2959
▁জোরে	-10.2969
▁সাই	-10.2971
য়েন	-10.2976
▁ব্যান্ড	-10.2977
▁কার্যক্রমের	-10.2981
▁হোটেল	-10.2982
▁শিক্ষিত	-10.2986
েট	-10.2992
▁পোর্ট	-10.2998
▁সাগর	-10.2999
▁নাম্বার	-10.3008
৫৬	-10.3009
য়াল	-10.3011
▁পাথরের	-10.3013
▁হস্ত	-10.3013
▁বিগত	-10.3015
▁বাজে	-10.3021
▁ঘোড়া	-10.3022
▁গে	-10.3022
▁এসেছেন	-10.3025
▁একেবারেই	-10.3028
▁প্রিমিয়ার	-10.303
▁ঐতিহ্যবাহী	-10.3038
▁মেয়াদ	-10.3041
▁সাধারণভাবে	-10.3044
আল	-10.3046
▁কমিশনার	-10.3049
▁আনুষ্ঠানিক	-10.3049
▁কেউই	-10.305
▁সমন্বয়ে	-10.3053
▁নিই	-10.306
▁অগ্রগতি	-10.306
▁করলেও	-10.3066
▁শপথ	-10.3071
ফে	-10.3072
▁পাগল	-10.3077
▁শূন্য	-10.3079
▁বিহার	-10.308
▁সন্ধান	-10.308
▁কৃতজ্ঞতা	-10.3088
মার্ক	-10.3092
▁শহরটি	-10.3099
▁পেশা	-10.3102
▁পর্বত	-10.3107
▁১৯৬৭	-10.3116
০৩	-10.3116
▁১৯৮৫	-10.3116
▁হস্তক্ষেপ	-10.3119
৫৩	-10.3121
▁খাওয়ার	-10.3124
▁আকর্ষণীয়	-10.3125
▁ভূষিত	-10.3126
▁দিল্লি	-10.3126
▁ইউরোপে	-10.3133
▁গি	-10.3137
▁হাতের	-10.3148
ব্য	-10.315
▁মিলিয়ে	-10.3153
াত	-10.3154
▁জীব	-10.3155
▁অর্ধ	-10.3155
▁প্রার্থনার	-10.3157
বাস	-10.3158
ুয়া	-10.3159
▁তীরে	-10.3163
▁নীতির	-10.3173
▁কমিউনিস্ট	-10.3174
▁আবেগ	-10.3174
▁দিত	-10.3175
▁প্রান্ত	-10.3177
▁কাজটি	-10.3181
▁উদ্ধৃতি	-10.3182
জনিত	-10.3185
▁এগুলোর	-10.3189
▁যন্ত্রণা	-10.3191
▁বইয়ে	-10.3192
▁রু	-10.3193
▁প্রবাহ	-10.32
▁নৌ	-10.32
▁৫০০	-10.3204
▁নিঃসন্দেহে	-10.3206
▁উপাধি	-10.3212
▁স্বীকৃত	-10.3214
▁থাকুক	-10.3215
৫৯	-10.3215
▁স্থানান্তরিত	-10.3218
▁পুরুষের	-10.3219
▁স্মরণার্থ	-10.322
▁জনপ্রিয়তা	-10.3221
▁সেবায়	-10.3224
▁জলের	-10.3224
▁অতিথি	-10.3225
তর	-10.3231
▁ব্যা	-10.3232
্ট	-10.3235
▁এক্ষেত্রে	-10.3238
▁প্রারম্ভিক	-10.3239
ভে	-10.3242
▁বস্তুগত	-10.3248
ম্প	-10.3249
▁তু	-10.3252
▁প্রাপ্তবয়স্ক	-10.3255
▁হংকং	-10.3256
ত্র	-10.3258
▁তোমাদিগকে	-10.3263
লোক	-10.3263
▁সিংহ	-10.3267
▁সামনের	-10.3269
▁পরিশোধ	-10.3271
▁নিশ্চয়	-10.3274
▁কর্মসূচির	-10.3274
▁জোড়া	-10.328
বিরোধী	-10.3284
▁ফেলেছে	-10.3287
শান	-10.3289
এবং	-10.3291
▁নাইট	-10.3297
▁পয়েন্ট	-10.3308
▁নেট	-10.331
▁ব্লগের	-10.3312
▁ডেকে	-10.3312
▁বেলা	-10.3313
▁গন্ধ	-10.3314
▁বানানো	-10.3315
▁উত্তরাধিকার	-10.3318
▁কবর	-10.3318
▁খনন	-10.332
গন	-10.332
▁চিকিৎসক	-10.3323
▁যাত্রী	-10.3324
▁শরীরের	-10.3326
▁আগামী	-10.3332
▁কমান্ডার	-10.3334
▁দিলেন	-10.3338
▁ঘটতে	-10.3338
▁সংজ্ঞা	-10.3339
▁মানের	-10.3339
▁ডিফল্ট	-10.3343
▁বিপ্লবের	-10.3346
৬৮	-10.3346
▁সম্মেলনের	-10.3348
▁দ	-10.3348
▁দো	-10.3349
৫২	-10.3352
▁রাশিয়ান	-10.3352
▁হস্তান্তর	-10.3353
▁রোজ	-10.3356
▁ধারনা	-10.3358
▁ন্যায়বিচার	-10.3366
▁আন্দোলনে	-10.3373
০১	-10.3374
▁এখানেই	-10.3378
মিন	-10.3378
লিয়া	-10.338
▁ভারী	-10.3384
▁দেবতা	-10.3391
▁জরুরী	-10.3394
জ্ঞান	-10.3405
▁জবাব	-10.341
▁৫৬	-10.3411
▁মধ্যকার	-10.3413
▁ঘটবে	-10.3419
▁দুর্নীতি	-10.3419
▁ফ্রান্সের	-10.3421
ম্	-10.3422
▁রেখেছিলেন	-10.3422
ঁচ	-10.3427
ভেন	-10.3428
▁বংশের	-10.3435
▁ডিজাইন	-10.3436
নু	-10.3436
▁এতো	-10.3437
▁ভূমিকম্প	-10.3438
▁অন্ধকার	-10.344
▁উষ্ণ	-10.3441
▁পত্রিকায়	-10.3441
▁সাক্ষীদের	-10.3442
▁মদ	-10.3445
▁আধা	-10.3447
▁উৎপত্তি	-10.345
ারের	-10.3452
আপনি	-10.3456
▁গুলো	-10.3458
▁পর্য্যন্ত	-10.3459
▁পরিমাপ	-10.3462
▁পশ্চিমা	-10.3463
▁গণিত	-10.3464
▁বিন্যাস	-10.3467
▁প্রদর্শনের	-10.3468
▁বাস্তবায়ন	-10.347
▁বেলায়	-10.3471
▁পালা	-10.3474
▁ইসলামিক	-10.3478
▁কণ্ঠ	-10.3481
▁যেটার	-10.3483
৫৪	-10.3485
ক্ষণ	-10.3486
▁ভাগ্য	-10.3494
▁করিবার	-10.3497
▁ভ	-10.3503
▁ফাউন্ডেশন	-10.3506
ক্	-10.3508
▁প্রো	-10.3516
রাও	-10.3516
▁গোষ্ঠীর	-10.3516
▁হালকা	-10.3517
▁সংক্ষেপে	-10.3519
০২	-10.352
▁ক্লিক	-10.3524
▁অদৃশ্য	-10.3527
▁উপরের	-10.3527
৮৫	-10.3529
▁দম্পতি	-10.3529
▁চেয়েছিল	-10.3531
▁শ্রমিকদের	-10.3532
▁নোবেল	-10.3534
▁তারকা	-10.3535
▁আগমন	-10.3536
▁চেহারা	-10.3542
▁অর্ডার	-10.3543
▁উপজেলায়	-10.3549
▁বিচারপতি	-10.3552
▁উদ্যাপন	-10.3553
ওয়ে	-10.3554
▁শাস্ত্রপদ	-10.3556
▁পর্যটন	-10.3559
▁সমষ্টি	-10.3561
▁১৯৭৯	-10.3565
▁প্রবর্তন	-10.3565
▁পাকা	-10.3582
▁জন্মগ্রহণকারী	-10.3587
▁১৯৩০	-10.3591
কর্ম	-10.3599
▁রান্না	-10.36
▁স্তম্ভ	-10.3604
▁নেয়ার	-10.3604
য়েল	-10.3605
▁জাল	-10.3607
▁রুম	-10.3614
▁সবসময়ই	-10.3617
▁শিখ	-10.3618
▁নামেও	-10.3623
▁লেগে	-10.3623
▁সদস্যের	-10.3624
▁দেখাই	-10.3627
▁আঁকা	-10.3631
েজ	-10.3632
▁সমতল	-10.3634
▁আব	-10.3635
াকার	-10.3637
▁কোর্ট	-10.364
▁বরাদ্দ	-10.365
▁আসন্ন	-10.3652
পাল	-10.3664
▁ডাকা	-10.3665
▁নিবন্ধ	-10.3667
▁মশীহ	-10.3676
▁প্রশান্ত	-10.3678
▁নিশ্চয়তা	-10.3687
তায়	-10.3688
▁স্বার্থ	-10.3692
▁১৯১৪	-10.37
▁টাইপ	-10.37
▁কর্তব্য	-10.3703
▁যতটা	-10.3715
▁অনুধাবন	-10.3719
▁সাপেক্ষে	-10.3722
▁ক্ষয়	-10.3727
▁পোষণ	-10.373
▁মতবাদ	-10.3731
▁সোসাইটির	-10.3731
▁উপকরণ	-10.3735
থা	-10.3736
▁আনুমানিক	-10.3738
▁কমিয়ে	-10.3741
▁খেলে	-10.3742
▁হেনরি	-10.3743
▁বিদ্যালয়ে	-10.3748
▁গণতন্ত্র	-10.3753
ডেন	-10.3756
▁রক্ষার	-10.3761
▁পানীয়	-10.3762
▁রাজাবলি	-10.3764
▁প্রাচীর	-10.3772
▁স্	-10.3778
▁বলেছিলাম	-10.3781
▁বিনা	-10.3787
▁শ্রোতাদের	-10.3795
াঙ্গ	-10.3796
▁প্রকৃতির	-10.3797
▁জানতাম	-10.3797
▁দ্বি	-10.3797
▁কিছুর	-10.38
▁৩০০	-10.3803
▁সিভিল	-10.3806
৬৪	-10.381
▁৫৭	-10.3812
▁দপ্তর	-10.3812
ধারী	-10.382
▁মজার	-10.3821
▁প্রাধান্য	-10.3822
▁শ্রেণির	-10.3827
▁প্রয়োজনীয়তা	-10.3827
▁ডাটা	-10.3827
▁গাড়ির	-10.3836
▁প্রফেসর	-10.3839
▁সুপরিচিত	-10.3839
▁মাথার	-10.3842
িতা	-10.3843
▁চলবে	-10.3847
▁মেট্রো	-10.3848
্ত	-10.3849
▁১৯৪৮	-10.3854
▁অবধি	-10.3858
ায়ন	-10.3859
▁হাউস	-10.3859
▁আউট	-10.3863
▁সিরিয়া	-10.3865
নেট	-10.3867
৭৭	-10.3867
▁চিন্তার	-10.3867
ন্ডা	-10.3875
রান	-10.3875
▁ঠাকুর	-10.3875
▁মিষ্টি	-10.3876
▁সংখ্যার	-10.3884
▁পাপের	-10.3886
৯৭	-10.3888
▁আওয়াজ	-10.3896
▁১৯৬৫	-10.3897
▁সিপিআই	-10.3901
দাস	-10.3902
▁যিরমিয়	-10.3908
▁ক্যালেন্ডার	-10.3911
৬৭	-10.3912
▁ডিরেক্টরি	-10.3915
▁খুলনা	-10.3919
▁দেখাশোনা	-10.3921
▁ইতিমধ্যে	-10.3922
▁খাল	-10.3923
▁১৯৭৬	-10.3923
কিছু	-10.3926
▁লড়াইয়ে	-10.3927
▁লিখুন	-10.3934
বাই	-10.3944
▁নিরাপত্তার	-10.3947
সং	-10.3947
▁ডিস্ক	-10.395
▁লিপি	-10.395
▁অনূর্ধ্ব	-10.3951
▁ব্যক্ত	-10.3952
▁অবস্থানে	-10.3954
▁সমীক্ষা	-10.3959
▁হইল	-10.3959
▁যাচ্ছেন	-10.3963
▁ছায়া	-10.3963
▁পর্যালোচনা	-10.3969
▁ভারসাম্য	-10.3973
▁ভে	-10.3973
৭৪	-10.3975
▁সামুদ্রিক	-10.3978
▁সকলকে	-10.3979
ম্ব	-10.3985
গড়	-10.3994
▁নিক্ষেপ	-10.3995
▁ম্যানেজার	-10.3996
িজ	-10.4006
▁শলোমন	-10.4006
▁বেতার	-10.4007
▁সেবার	-10.401
▁ত্রি	-10.4011
▁অর্জনের	-10.4013
▁লোকেদেরকে	-10.4014
৫১	-10.4017
▁বিবেক	-10.402
▁গেলো	-10.402
▁পাঠক	-10.4033
▁পরমদেশ	-10.4035
▁চারপাশে	-10.4036
▁পুনঃ	-10.4037
▁গোয়েন্দা	-10.4038
▁ক্লান্ত	-10.4041
▁ভক্তি	-10.4048
৯৯	-10.4049
▁গ্রহণযোগ্য	-10.4053
▁পুনরুত্থিত	-10.4056
উদ্দিন	-10.4063
▁ব্যবসায়	-10.4067
▁হাজির	-10.4068
ষ্ঠ	-10.4072
▁আচরণের	-10.4072
▁এইরূপ	-10.4072
কায়	-10.4073
জী	-10.4075
▁ওয়াল	-10.4076
▁বিস্ময়কর	-10.4083
▁আহ	-10.4085
▁হ্যারি	-10.4088
সান	-10.4093
▁আস্তে	-10.4096
▁যন্ত্রপাতি	-10.4098
▁দেখছি	-10.41
▁দাগ	-10.4103
▁জাতিসংঘ	-10.4103
▁বিশ্বাসী	-10.4105
উত্তর	-10.4106
▁নাগরিকরা	-10.4108
▁সৌন্দর্য	-10.4108
কিউ	-10.4109
▁নিষ্ক্রিয়	-10.4109
▁বলব	-10.4114
▁১৯৭৮	-10.4115
▁মারিয়া	-10.4123
বর	-10.4128
▁কমিউনিটি	-10.4128
▁সভাগুলোতে	-10.4128
▁অপশন	-10.413
▁গান্ধী	-10.4135
▁পর্যায়	-10.4136
▁দূত	-10.4141
শু	-10.4141
▁করিবেন	-10.4142
▁গম্বুজ	-10.4146
▁বরফ	-10.415
▁খ্রিস্টাব্দের	-10.4151
▁চালায়	-10.4153
▁কূটনৈতিক	-10.4153
▁গায়ে	-10.4154
দেরকে	-10.4158
▁ছুটি	-10.4162
▁মেশিন	-10.4164
▁অতীত	-10.4165
▁গোল্ডেন	-10.4168
▁বাসায়	-10.417
▁চক্র	-10.417
▁ভাইবোনদের	-10.417
তেও	-10.417
ীকরণ	-10.4171
▁কিনে	-10.4171
▁আকৃষ্ট	-10.4171
▁পুনরালোচনা	-10.418
▁চাঁদ	-10.4184
▁মস্তক	-10.4184
▁তথা	-10.4186
▁তরল	-10.4188
▁কাজী	-10.4188
▁আলম	-10.419
▁জেল	-10.4192
▁আলু	-10.4193
▁ভিডিওটি	-10.4193
▁গুগল	-10.4193
▁ভয়ে	-10.4198
▁কোরিয়ার	-10.4199
দ্বিতীয়	-10.42
▁খাতে	-10.4205
▁(@	-10.421
▁ম্যা	-10.4211
্ন	-10.4226
▁ইসলামের	-10.4243
ক্রমে	-10.4246
▁জানাচ্ছে	-10.4258
▁পূর্বের	-10.4258
▁সংযোজন	-10.426
৯৮	-10.4263
▁বোঝাতে	-10.4263
ধরনের	-10.4266
▁১৯৫২	-10.4266
▁স্থগিত	-10.4269
▁চলমান	-10.4271
▁জ্ঞানের	-10.4271
▁স্বর্গ	-10.4271
▁প্রায়শই	-10.4273
▁ইস্রায়েলীয়রা	-10.4276
▁সোফি	-10.4278
▁নারীরা	-10.4281
▁ফেলবে	-10.4283
▁নির্ণয়	-10.4284
▁দারুণ	-10.4288
▁কুল	-10.4291
▁চলাচল	-10.4292
▁শান্তিপূর্ণ	-10.4294
▁নিচু	-10.4306
▁১৯৫১	-10.431
▁উৎপাদনের	-10.4312
▁মাটিতে	-10.4315
▁কোরিয়া	-10.4315
প্রতিদ্বন্দ্বিতা	-10.4325
▁ভাস্কর্য	-10.4329
▁করিনি	-10.433
৯৫	-10.4332
▁সেট	-10.4334
▁পদত্যাগ	-10.4338
▁যাত্তয়া	-10.4341
▁চ্যাম্পিয়নশিপ	-10.4344
▁গঙ্গা	-10.4344
▁আনুষ্ঠানিকভাবে	-10.4348
▁মঞ্চ	-10.4351
▁গম	-10.4353
▁বন্ধন	-10.4354
▁সমর্থিত	-10.4357
▁লগ	-10.4358
গ্রস্ত	-10.4361
▁জাদুঘর	-10.4362
করণের	-10.4363
▁মাস্টার	-10.4369
▁যাবো	-10.4376
▁নীচের	-10.4376
▁ফেসবুকে	-10.438
▁হেঁটে	-10.4381
▁সম্পদের	-10.4383
▁বাগ	-10.4383
▁সমর্থক	-10.4385
▁টার্মিনাল	-10.4386
দিকে	-10.4393
▁তিনটে	-10.4394
▁দার্শনিক	-10.4396
দিক	-10.4398
▁উদার	-10.4398
▁টে	-10.4399
৮৬	-10.4403
▁চিন্তিত	-10.4405
▁কখনই	-10.4406
▁কাউন্সিলের	-10.4406
▁যুব	-10.4408
▁১৯৫৭	-10.441
▁অর্থনীতির	-10.4412
▁টুকরো	-10.4414
▁ধার	-10.4417
▁অভিযোগে	-10.4419
▁সমাপ্ত	-10.4423
▁অধিকন্তু	-10.4423
▁নেতারা	-10.4425
▁যাচাই	-10.4427
▁সৃষ্টিকর্তা	-10.4428
▁দায়িত্বে	-10.4428
৬৯	-10.4442
▁তারাও	-10.4456
▁৬৬	-10.4456
পথ	-10.4457
▁নিশ্চিতভাবেই	-10.4461
টের	-10.4463
লান	-10.4471
▁শিব	-10.4478
▁রেখেছিল	-10.4483
৫০০	-10.4483
ন্ডার	-10.4486
▁ঝড়	-10.4488
িও	-10.4499
▁প্রাথমিকভাবে	-10.45
▁ফেডারেশন	-10.4502
▁রক্তের	-10.4508
▁অবরোধ	-10.4508
▁মর	-10.4513
▁অন্বেষণ	-10.4515
▁ক্যালিফোর্নিয়া	-10.4515
▁বিনামূল্যে	-10.4515
▁কমপক্ষে	-10.4515
▁মহৎ	-10.4516
৭৯	-10.452
▁গ্রেট	-10.452
▁জাতিগত	-10.4523
ধর্ম	-10.4528
▁সংবিধানের	-10.4536
▁বাবামা	-10.4537
▁স্তরের	-10.4537
োস	-10.4537
▁জীবন্ত	-10.454
▁নাচ	-10.4541
▁লোকটা	-10.4542
▁মেষ	-10.4542
▁প্রভুর	-10.4545
▁সফলভাবে	-10.4547
▁মিউজিক	-10.4551
▁একত্র	-10.4561
▁কাজকে	-10.4562
▁করেছ	-10.4567
৬৫	-10.4574
▁জোট	-10.4575
▁চলুন	-10.458
▁ব্যবহারকারীর	-10.4584
▁হত্যার	-10.4589
▁দুঃখজনক	-10.4589
▁৬৩	-10.4595
▁কার্যালয়	-10.4596
▁১৯৪০	-10.4598
▁ছেলের	-10.4598
▁নাট্য	-10.4604
৬২	-10.4608
পতি	-10.4609
্ব	-10.461
▁সংসদে	-10.4611
▁১৯৮১	-10.4613
▁শেখার	-10.4614
২০১১	-10.4615
▁পঞ্চায়েত	-10.4616
▁উর্দু	-10.4618
ওয়ালা	-10.4619
▁ব্যবহারিক	-10.462
▁খায়	-10.4624
▁পরস্পর	-10.4624
▁১৯২০	-10.4634
▁তারপরও	-10.4636
▁তুর্কি	-10.464
▁উইল	-10.4642
▁ক্ষমতায়	-10.4642
▁ব্ল্যাক	-10.4643
▁ভাইরাস	-10.4645
▁হারে	-10.4654
▁অসিদ্ধ	-10.4655
▁সংখ্যায়	-10.4662
▁ভিতর	-10.4663
▁বালিকা	-10.4664
▁রাষ্ট্রপতির	-10.4668
▁রেখা	-10.4671
▁তাল	-10.4674
▁বিষ	-10.4677
▁ইউটিউব	-10.468
▁কোচ	-10.4684
▁বাতাস	-10.4685
▁পাঞ্জাব	-10.4688
▁পারমাণবিক	-10.4691
▁ঘোষিত	-10.4694
▁অপরিহার্য	-10.47
▁অস্বাভাবিক	-10.4701
মাস	-10.4705
▁প্রেরণা	-10.4705
৮৮	-10.4707
জেন	-10.4712
শিক্ষা	-10.4714
▁হোমস	-10.4714
▁জন্যও	-10.4717
▁ডাল	-10.472
▁তর্ক	-10.4721
▁স্বেচ্ছায়	-10.4721
পাত	-10.4727
▁শুষ্ক	-10.4728
▁জাহাজের	-10.4731
▁উদ্বেগ	-10.4737
▁কেন্দ্রটি	-10.474
▁নেবে	-10.4743
▁মার্টিন	-10.475
▁ভাইয়েরা	-10.4751
▁ইঞ্জিনিয়ারিং	-10.4755
দল	-10.4756
▁তি	-10.4757
▁চাপের	-10.4757
▁ট	-10.4759
▁এভাবেই	-10.4764
৮৯	-10.4765
▁প্রতিদ্বন্দ্বী	-10.4766
▁ব্যবহারকারীদের	-10.4767
▁পৌঁছানোর	-10.4767
▁চালানোর	-10.4768
মুখ	-10.4769
৯৬	-10.4769
সময়	-10.4774
▁দিচ্ছেন	-10.4776
▁শিক্ষার্থী	-10.478
৫৭	-10.478
▁আবুল	-10.4782
▁বন্দুক	-10.4785
▁সোজা	-10.4788
খানা	-10.4792
);	-10.4792
যদি	-10.4793
▁ক্লাবের	-10.4795
▁বঙ্গ	-10.4802
▁লাগিয়ে	-10.4802
▁বিনোদন	-10.4803
▁সিনিয়র	-10.4804
▁হউক	-10.4804
▁কাদের	-10.4807
▁দুইজন	-10.4808
▁চর্চা	-10.4809
▁সাউথ	-10.4814
▁ভিডিওতে	-10.4815
▁মাঠে	-10.4816
▁পড়বে	-10.4817
▁রত্ন	-10.4824
▁প্রভাবশালী	-10.4833
▁টাইমস	-10.4834
▁গবেষক	-10.4834
সব	-10.4835
▁মিঃ	-10.4835
▁পাঠান	-10.4836
সপ্তাহ	-10.4838
স্কি	-10.484
▁যিহূদী	-10.4843
▁সম্প্রসারণ	-10.4852
▁৬৪	-10.4853
▁রেখেছেন	-10.4859
▁উচ্চারণ	-10.4861
▁যেগুলোর	-10.4862
▁কাঁচা	-10.4864
ান্ত	-10.4867
স্থান	-10.4869
▁ফেব্রুয়ারী	-10.487
▁সর্বপ্রথম	-10.4871
▁দুর্ঘটনা	-10.4872
▁হাতিয়ার	-10.4877
▁৭২	-10.4878
▁তুলেছেন	-10.488
▁আগত	-10.4884
▁১৯৫৬	-10.4886
▁সৈনিক	-10.4887
▁তালিকাভুক্ত	-10.4895
▁হাড়	-10.4898
▁দেয়াল	-10.49
▁অধিকাংশই	-10.4902
▁টিম	-10.4903
৮৪	-10.4904
▁ভাইস	-10.4905
▁বললো	-10.4906
৭৬	-10.4907
▁প্রচারের	-10.4912
▁বিজ্ঞানী	-10.4918
▁বলবেন	-10.492
▁নেপাল	-10.4922
▁স্টেডিয়াম	-10.4924
▁নিখুঁত	-10.4929
▁নির্ভরযোগ্য	-10.493
▁অতীতে	-10.4934
্ড	-10.4935
▁সংরক্ষণের	-10.4935
▁দেহের	-10.4938
▁জার্মানির	-10.4942
▁বলেই	-10.4944
▁দুঃখের	-10.4944
ঝ	-10.4945
টিক	-10.4945
কন	-10.4947
▁বিদ্যা	-10.4963
▁ব্যাগ	-10.4966
▁ঘটনাগুলো	-10.4973
▁খণ্ড	-10.4974
▁ক্লাস	-10.4976
▁বসু	-10.4985
▁দূরবর্তী	-10.4986
▁জনাব	-10.4987
ফল	-10.4992
ডু	-10.4993
সদাপ্রভু	-10.4996
রণ	-10.5
▁সেল	-10.5002
▁বৈ	-10.5004
▁উদ্ভব	-10.5004
▁তাহাদিগকে	-10.5006
কেন্দ্র	-10.5009
▁সেদিন	-10.5009
টায়	-10.5011
▁পরও	-10.5014
▁ক্ষতিপূরণ	-10.5014
▁কপিরাইট	-10.5015
▁শুল্ক	-10.5015
▁জনতার	-10.502
|	-10.5021
▁সন্ত্রাসী	-10.5022
▁ছয়টি	-10.5022
▁ঘ	-10.5023
৭২	-10.503
▁নকল	-10.503
▁জিও	-10.5031
বর্ণ	-10.5032
াবাদ	-10.5037
সূচক	-10.5038
▁ট্র্যাক্ট	-10.5041
▁হয়েছিলো	-10.5043
▁অনেকের	-10.5043
▁দ্বীপে	-10.5043
▁ব্যাক	-10.5044
ঘাট	-10.5047
▁তুলেছে	-10.505
▁সমিতির	-10.5051
▁পরিত্রাণ	-10.5057
▁করুণা	-10.5062
▁পানিতে	-10.5062
▁সম্পাদিত	-10.5063
▁হলুদ	-10.5068
▁১৯৪৬	-10.507
▁বাগান	-10.5072
তলা	-10.5072
বিষয়ক	-10.508
▁চালান	-10.5081
▁ইট	-10.5081
৮৩	-10.5082
▁মাদক	-10.5084
▁বললাম	-10.5086
▁থেকেও	-10.5088
্যাল	-10.5089
▁কুমিল্লা	-10.5091
▁অনুদান	-10.5092
▁লক্ষণ	-10.5092
▁''	-10.5095
▁সেসব	-10.5099
▁গ্রহ	-10.5099
▁পরিশেষে	-10.5102
▁অসুস্থতা	-10.5102
▁ওভার	-10.5107
▁ইহুদি	-10.5108
▁পাব	-10.5109
▁জার্মানি	-10.5117
▁বস্তুতপক্ষে	-10.5121
▁স্বয়ং	-10.5121
হান	-10.5123
্যা	-10.5123
▁পাহাড়ের	-10.5123
▁শিক্ষার্থীদের	-10.5127
▁প্রাচীনরা	-10.5129
▁টো	-10.5134
▁ভরা	-10.5135
▁আস	-10.5139
▁গবাদিপশু	-10.514
▁পারতাম	-10.5143
▁ভেসে	-10.5145
▁গলা	-10.5151
মুখী	-10.5151
▁স্তরে	-10.5153
▁চালিত	-10.5154
▁গুণাবলি	-10.5156
গ্রহণ	-10.5162
▁ক্রমশ	-10.5163
▁পাইলট	-10.5164
▁নজরুল	-10.5165
▁বিশ্বাসকে	-10.5169
▁অভ্যন্তরে	-10.517
▁প্রজাতন্ত্র	-10.5174
▁শেখা	-10.5175
▁ফে	-10.5176
▁আত্মীয়	-10.5176
৯২	-10.5177
▁ক্ষেত্রেই	-10.518
৯৪	-10.5182
▁প্রতিশোধ	-10.5183
▁খাজা	-10.5187
৬৩	-10.5188
বাজার	-10.5189
৭৮	-10.519
▁প্রচেষ্টার	-10.5194
▁জুনিয়র	-10.52
সম	-10.5202
▁প্রজা	-10.5209
▁প্রযোজক	-10.521
▁অন্তর	-10.5215
▁অ্যাপ্লিকেশন	-10.5215
▁স্থাপনের	-10.5215
▁ধাপ	-10.5216
▁গতকাল	-10.5217
▁উয়েফা	-10.5219
▁পরা	-10.5225
▁১লা	-10.5228
▁প্রথমত	-10.523
▁গ্রুপের	-10.5233
▁নির্মাতা	-10.5238
স্ব	-10.5242
▁জাগিয়ে	-10.5243
শেষ	-10.5247
▁মানবিক	-10.5251
একটি	-10.5254
▁ভঙ্গ	-10.5255
▁অনুসারীদের	-10.5256
▁১৯৫৮	-10.5256
▁বিজ্ঞানের	-10.5256
▁উদ্বোধন	-10.5257
▁রোধ	-10.5258
▁জন্মের	-10.5262
▁ছ	-10.5264
লেট	-10.5268
▁ওঠেন	-10.527
▁ম্যাচে	-10.5271
▁১৫০	-10.5272
িশ	-10.5278
▁টাইম	-10.5281
ভাই	-10.5281
▁বিংশ	-10.5282
▁বয়সের	-10.5283
▁ইঞ্জিন	-10.5283
▁৫৮	-10.5285
▁সাহসের	-10.5285
▁যাদেরকে	-10.5285
▁কিং	-10.5287
▁মূল্যের	-10.5288
▁মুহম্মদ	-10.529
▁বিপর্যয়	-10.5294
জীবন	-10.5295
▁স্যাটেলাইট	-10.5298
▁বরিশাল	-10.5299
▁নামটি	-10.5302
▁মিশ্র	-10.5305
▁ভরে	-10.5306
▁ল্যাটিন	-10.531
▁প্রত্যেকটা	-10.5314
▁বলিয়া	-10.5316
জের	-10.5323
▁১৯৪৫	-10.5328
▁ক্রমবর্ধমান	-10.5328
▁অধি	-10.5333
জল	-10.5334
▁প্রচলন	-10.5338
▁বক্স	-10.5343
৯৩	-10.5344
▁পেন	-10.5346
▁কার্য্য	-10.5347
বাড়ি	-10.5349
''	-10.5352
▁তেমনই	-10.5354
▁প্রদেশে	-10.536
▁সিরিজের	-10.5363
গুণ	-10.5364
▁সচেতনতা	-10.5371
যাকোব	-10.5374
▁;	-10.5376
▁ভু	-10.5377
▁পরম	-10.5381
দিগকে	-10.5385
ব্রা	-10.5387
▁তাপ	-10.5388
▁১ম	-10.5389
▁রকমের	-10.539
▁গমন	-10.5392
▁প্রযুক্তির	-10.5394
▁দ্বন্দ্ব	-10.5396
ঞ্চ	-10.5397
▁একইরকম	-10.5402
▁ব্যবসায়িক	-10.5403
▁খন্ড	-10.5406
▁বাসস্থান	-10.5406
▁দিতেন	-10.5409
▁সপ্তম	-10.541
▁পেয়েছিলাম	-10.5412
▁অধিকতর	-10.542
▁হৃদয়কে	-10.5421
▁তাপমাত্রা	-10.5425
▁ফ্লিকার	-10.5429
▁ক্ষেত্রেও	-10.5433
সী	-10.5434
সাম	-10.5437
পরি	-10.5442
▁মোটা	-10.5448
বিল	-10.5448
▁ফেলেছিল	-10.5454
▁আ্য	-10.5456
▁কানাডা	-10.5456
▁কৃত্রিম	-10.5459
েন্ট	-10.5464
ঠ	-10.5466
▁নোংরা	-10.5469
▁উদ্ভূত	-10.5469
▁অপমান	-10.5469
▁যিহূদা	-10.5469
▁পারা	-10.5471
▁ঘোষ	-10.5476
▁এও	-10.5477
৭১	-10.5481
▁পুন	-10.5481
▁পটভূমি	-10.5483
▁দাঁত	-10.5489
▁আফগানিস্তান	-10.549
▁টেবিল	-10.5492
▁সাক্ষীরা	-10.5494
▁রাখ	-10.5495
বদ্ধ	-10.5497
▁বিলুপ্তপ্রায়	-10.55
▁যিরূশালেমে	-10.55
▁সংঘর্ষ	-10.5502
▁মিস্টার	-10.5503
▁আখ	-10.5504
▁সনাক্ত	-10.5512
▁থিষলনীকীয়	-10.5512
▁যোগাযোগের	-10.5513
▁প্রশ্নগুলো	-10.5514
▁জিনিসপত্র	-10.5523
▁প্রাক	-10.5526
▁ঘন্টার	-10.5527
▁পারিনি	-10.5528
▁প্রদর্শনী	-10.5535
▁রংপুর	-10.5538
ভূমি	-10.5538
▁যথার্থ	-10.5539
▁সূক্ষ্ম	-10.5541
▁মাসিক	-10.5543
▁আইনগত	-10.555
▁তাড়না	-10.5552
▁চালাতে	-10.5553
▁প্রয়োজনে	-10.5554
▁হয়েছিলাম	-10.5561
▁আয়োজিত	-10.5571
▁ভেবেছিলাম	-10.5572
কথা	-10.5574
▁পারেননি	-10.5574
ওয়ান	-10.5577
▁কথাটা	-10.5578
▁তুরস্ক	-10.5581
▁পরিপ্রেক্ষিতে	-10.5582
▁পরই	-10.5583
▁ধীর	-10.5585
▁১৯৬১	-10.5587
ভো	-10.5589
ছা	-10.5598
▁বিরোধ	-10.5599
▁বুদ্ধিমান	-10.5601
▁ন্যায্য	-10.5602
▁প্রতিষ্ঠানে	-10.5603
▁রাখবে	-10.5604
▁পরিবেশের	-10.5612
▁&	-10.5612
▁বিপদজনক	-10.5612
▁জৈব	-10.5618
▁পর্বে	-10.562
▁দ্বীপের	-10.562
▁সম্মানিত	-10.5621
ীন	-10.5626
▁প্রসার	-10.5628
▁ঢুকে	-10.5632
▁গ্রীষ্মকালীন	-10.5632
▁আবদুল্লাহ	-10.5632
▁ইমাম	-10.5634
ন্দা	-10.5635
▁দণ্ড	-10.5641
▁অকার্যকর	-10.5642
▁ঘটছে	-10.5643
▁১৯৫৪	-10.5649
▁ক্রিয়া	-10.565
৮৭	-10.5652
▁২য়	-10.5656
▁লন্ডনে	-10.5661
▁মনো	-10.5661
▁কার্যকারী	-10.5661
▁বাসা	-10.5662
ইট	-10.5664
▁উদ্ভাবন	-10.5668
▁ছুটির	-10.5678
▁দাখিল	-10.5684
▁প্রশস্ত	-10.5689
▁সাহিত্যের	-10.5692
▁ডাউনলোড	-10.5694
পূর্বক	-10.5697
লাভ	-10.57
▁টানা	-10.57
▁পেরেছি	-10.5702
▁ওপেন	-10.5702
▁ত্রাণ	-10.5704
▁দারিদ্র্য	-10.5706
▁লোকসভা	-10.5707
▁সুসমাচারের	-10.5709
▁রিচার্ড	-10.5713
▁বারো	-10.5714
▁জাপানি	-10.5717
▁কারিগরি	-10.572
▁ব্লগাররা	-10.5722
▁বঙ্গবন্ধু	-10.5725
হিতো	-10.5726
▁উন্নয়নে	-10.5727
▁ঘা	-10.5727
▁বিবিসি	-10.5731
▁পূজা	-10.5734
▁সেকেন্ড	-10.5736
▁পণ্যের	-10.5738
▁পপ	-10.5741
▁হৃদয়ের	-10.5742
ল্ট	-10.5744
নোর	-10.5747
▁ঘোষণাবলি	-10.5748
▁একদিনের	-10.5749
েশ্বর	-10.575
▁মেক্সিকো	-10.5753
▁রয়ে	-10.5757
দাতা	-10.5757
▁সময়ই	-10.5763
▁উত্তরাধিকারী	-10.5766
▁ইউনাইটেড	-10.5767
▁আমায়	-10.5769
▁গেছি	-10.5772
প্রায়	-10.5772
ইফিষীয়	-10.5775
▁নিরপেক্ষ	-10.5776
▁পল্লী	-10.5779
▁বেড়া	-10.578
▁বিদ্রোহী	-10.5781
▁নিবন্ধিত	-10.5781
▁রানী	-10.5782
আদি	-10.5783
▁শান্তির	-10.5784
▁টান	-10.5787
▁সনাতন	-10.579
▁বিন্দু	-10.5794
▁রাজনীতিতে	-10.5796
▁সমসাময়িক	-10.5798
▁৬২	-10.5799
▁অপেক্ষাকৃত	-10.5808
▁সুপ্রিম	-10.5808
▁আসছি	-10.5809
▁ফিলিপীয়	-10.5813
▁কামনা	-10.5815
▁৬১	-10.582
ইল	-10.5823
▁পরিবেশে	-10.5832
▁সুনির্দিষ্ট	-10.5833
▁খ্রি	-10.5834
▁অন্যদেরকে	-10.5836
▁বাণী	-10.5837
▁প্রজাতন্ত্রের	-10.5838
▁চিত্রগুলো	-10.584
▁তত	-10.5843
▁প্রদানকারী	-10.5843
▁কফি	-10.5846
▁মৃত্যুদণ্ড	-10.5851
▁শাস্ত্রের	-10.5857
▁বালক	-10.586
মাল	-10.5865
▁অপব্যবহার	-10.5866
▁পতিত	-10.5867
▁১৯৬৪	-10.5869
াতে	-10.5874
োন	-10.5874
▁টেস্টে	-10.5875
▁অভিব্যক্তি	-10.5877
▁নির্ভরশীল	-10.5878
ক্ষেত্রে	-10.5879
▁ফিলিপ	-10.5889
ঘর	-10.5891
▁ভবনের	-10.5896
▁ওয়ার	-10.5902
▁তিনিই	-10.5902
▁নিষ্পত্তি	-10.5903
▁বঙ্গীয়	-10.5906
▁দেই	-10.5908
▁ক্রম	-10.5912
▁ঘটায়	-10.5913
▁অঙ্গীকার	-10.5913
▁হিউম্যান	-10.5915
▁কাট	-10.5915
▁কার্	-10.5919
▁পোস্টে	-10.592
▁অবলম্বন	-10.5921
▁আপত্তি	-10.5924
▁উত্থাপন	-10.5924
ক্কা	-10.5925
▁মতই	-10.5926
▁ইন্দোনেশিয়া	-10.5929
▁দৃঢ়ভাবে	-10.5929
▁১৯৬৮	-10.5932
▁অতিবাহিত	-10.5935
▁অ্যাসোসিয়েশন	-10.5936
আপনার	-10.5936
▁বৃক্ষ	-10.594
▁ব্লগারদের	-10.5942
▁সমবেদনা	-10.5945
▁ক্যাথরিন	-10.5946
▁সর্বত্র	-10.5946
▁থাকাকালীন	-10.5953
▁হাইকোর্ট	-10.5961
সিয়া	-10.5962
▁যীশুকে	-10.5964
▁ইরানী	-10.5965
▁মালদ্বীপ	-10.5967
▁ডিভাইস	-10.5967
▁সন্ধ্যা	-10.5973
▁জাপানে	-10.5973
▁রসায়ন	-10.5973
▁জলাশয়	-10.5978
▁এশীয়	-10.5978
সদাপ্রভুর	-10.5981
▁রূপক	-10.5982
▁ফাইলের	-10.5986
াই	-10.5988
▁রক	-10.5989
▁ল্যা	-10.5993
নীতি	-10.5999
▁এজন্য	-10.5999
▁বাপ্তাইজিত	-10.6001
▁স্ত্রীকে	-10.6002
▁বিশ্বকাপের	-10.6003
▁মহিলার	-10.6003
▁সেচ	-10.601
▁জনকে	-10.601
▁প্রশ্নগুলোর	-10.6013
▁সার্ভারের	-10.6017
িনা	-10.602
▁বাস্তবতা	-10.6022
▁বন্ধুরা	-10.6023
▁বিকৃত	-10.6024
▁দেখেছেন	-10.6028
ন্না	-10.6033
▁অবসান	-10.6034
▁প্রান্তে	-10.6038
▁ক্যারিয়ার	-10.6044
▁যিরূশালেম	-10.6044
▁উদ্যোগের	-10.6045
উড	-10.6047
সিন	-10.605
▁কাব্য	-10.6051
▁কাউন্টি	-10.6056
▁শ্বাস	-10.6059
▁ঠাণ্ডা	-10.6063
▁ধাক্কা	-10.6063
▁কারাদণ্ড	-10.6064
সেল	-10.6064
সকল	-10.607
▁বাল	-10.6071
▁সর্বদা	-10.6074
▁মুখের	-10.6075
▁যিহোশূয়	-10.6076
▁পুরানো	-10.6076
▁বসবাসকারী	-10.6076
▁সরঞ্জাম	-10.6082
▁প্রজনন	-10.6085
▁কৃত	-10.6088
▁সম্পৃক্ত	-10.6089
ভাষী	-10.6094
▁হইয়াছে	-10.6094
▁আবাসিক	-10.6096
▁আন্তঃ	-10.6097
৮২	-10.6099
▁সম্মুখে	-10.6101
▁নিয়ন্ত্রণে	-10.6104
▁ভিয়েতনাম	-10.6106
▁স্নাতকোত্তর	-10.6106
প্রধান	-10.611
▁সাময়িকী	-10.6116
হিত	-10.6118
▁গৃহে	-10.6119
▁রাখো	-10.6123
▁মুর	-10.6123
▁জীবনী	-10.6124
▁ইন্দোনেশিয়ার	-10.6126
▁খা	-10.6128
▁অতীতের	-10.613
▁করছিলাম	-10.613
▁অনেকগুলো	-10.6133
▁আলাপ	-10.614
▁স্যা	-10.6146
▁অব্রাহাম	-10.6146
▁মন্দিরে	-10.6149
▁ঘটনাটি	-10.6151
▁পরস্পরের	-10.6151
▁ওয়ে	-10.6155
▁ল্যাট্রিন	-10.616
▁আপীল	-10.616
োয়া	-10.616
কাম	-10.6163
র্ণ	-10.6164
▁চাপা	-10.6166
▁দৈনন্দিন	-10.6171
▁অবকাঠামো	-10.6174
৮১	-10.6175
▁যেটাকে	-10.6175
▁অভিজ্ঞ	-10.6176
▁কমপ্লেক্স	-10.6176
৭৩	-10.6181
োপ	-10.6182
▁ব্রা	-10.6185
▁ভালবাসি	-10.6186
বাংলা	-10.619
▁সোনার	-10.6194
▁নূতন	-10.6197
▁নিয়ন্ত্রণের	-10.6206
বেল	-10.6206
▁বিতর্কিত	-10.6209
▁চামড়া	-10.621
▁প্রবন্ধটি	-10.6212
▁পায়ের	-10.6215
▁উপনিবেশ	-10.6224
▁চীনে	-10.6232
▁কলাম	-10.6234
ব্যবস্থা	-10.6238
▁অনুপস্থিত	-10.624
▁ফাইলটি	-10.6242
▁১৯৬৩	-10.6243
▁সেইজন্য	-10.6243
▁সাফল্যের	-10.6247
▁আবিষ্কৃত	-10.6247
▁কয়লা	-10.6251
▁ক্রস	-10.6252
পুরুষ	-10.6253
▁আহবান	-10.6259
▁পাতায়	-10.6263
▁সেমি	-10.6265
বছর	-10.6267
▁রাজনীতির	-10.6267
▁অধিষ্ঠিত	-10.6269
▁বঞ্চিত	-10.627
▁কার্যকরী	-10.6273
▁বিপ্লবী	-10.6275
▁সহকর্মী	-10.6275
সির	-10.6276
ক্ত	-10.6278
▁সম্বলিত	-10.6282
াইল	-10.6283
টুকু	-10.6285
▁মুক্তিযোদ্ধা	-10.629
▁অভিবাসী	-10.6292
▁দিব	-10.6294
▁শরণার্থী	-10.6296
▁সন্তানরা	-10.6299
▁ওয়ান	-10.6299
▁পরেও	-10.6302
▁নোটিশ	-10.6302
▁অধিকারের	-10.6303
ভাগ	-10.6303
▁সাহায্যকারী	-10.6307
▁প্রতিস্থাপন	-10.6308
▁মেয়েকে	-10.6309
বর্তমান	-10.6311
▁বংশাবলি	-10.6313
▁মালিকানাধীন	-10.6315
▁দেও	-10.6315
▁সম্মাননা	-10.6319
দায়ক	-10.6321
▁১৯৬৬	-10.6321
▁উপদেশক	-10.6321
ব্যা	-10.6322
▁শিক্ষাদান	-10.6323
▁ছাপা	-10.6327
▁টুয়েন্টি২০	-10.6335
▁উপকূলীয়	-10.6337
▁সন্তানকে	-10.6337
ভাল	-10.6338
]:	-10.6338
▁দ্বার	-10.6339
▁দায়ের	-10.6339
▁পাঠানোর	-10.6343
▁দৌড়	-10.6349
▁সমাবেশ	-10.635
▁পড়ছে	-10.6352
▁চির	-10.6354
▁খেলতে	-10.6356
▁উভয়ই	-10.6356
▁ম্যাজিস্ট্রেট	-10.6357
▁উত্থান	-10.6357
▁তুলেছিল	-10.6358
▁প্রা	-10.6358
▁বুঝে	-10.6361
▁ভাগে	-10.6361
▁কোষ	-10.6362
▁ডলারের	-10.6362
▁ষষ্ঠ	-10.6368
▁হেক্টর	-10.6368
▁সমুদ্রের	-10.6375
▁চারজন	-10.6379
▁ছাড়	-10.638
▁হতাশা	-10.638
▁সেখানেই	-10.6383
▁৮৯	-10.6385
▁তোলেন	-10.6387
▁অবিবাহিত	-10.639
▁খসড়া	-10.639
▁ধারণার	-10.6393
▁পালক	-10.6393
শিল্প	-10.6395
▁অব্রাহামের	-10.6398
▁পাক	-10.6399
▁ছাড়িয়ে	-10.64
▁লুইস	-10.6401
▁গ্লোব	-10.6406
গ্রামে	-10.6406
▁বিদ্যালয়ের	-10.6407
▁ফেলো	-10.6411
▁ডেপুটি	-10.6412
▁পরিধান	-10.6413
▁লন্ডনের	-10.6415
▁বৃত্তি	-10.6415
▁অপরাধী	-10.6418
▁পাকিস্তানী	-10.6418
▁মাকে	-10.6423
▁অনুতপ্ত	-10.6424
▁চলাকালীন	-10.6425
▁লবণ	-10.6425
▁উদ্যোগে	-10.6426
▁বৈষম্য	-10.6427
▁শ্রেণি	-10.6427
▁উচ্চতর	-10.6427
▁চাবি	-10.6428
▁সমাপ্তি	-10.6428
▁পেলে	-10.6434
ক্রম	-10.6435
▁১১৯	-10.6436
▁জানিয়েছিলেন	-10.6436
▁তারপরে	-10.6438
▁পন্ডিত	-10.6442
হাই	-10.6445
#	-10.6445
▁অগ্রাধিকার	-10.6446
▁স্বাগত	-10.6447
ার্ড	-10.6449
▁গুরুত্বের	-10.645
▁আলোর	-10.6451
▁ডুবে	-10.6459
▁অপেক্ষায়	-10.646
েন্স	-10.6468
▁ওয়াশিংটন	-10.6469
▁নম্রতা	-10.6471
▁বয়	-10.6471
▁সতর্কতা	-10.6477
▁সময়কালে	-10.6477
২০১২	-10.6479
▁প্রাতিষ্ঠানিক	-10.648
▁ছাত্ররা	-10.648
▁নিরীক্ষা	-10.6482
▁বাধ্যতামূলক	-10.6486
▁এরূপ	-10.6487
▁কালের	-10.6487
লিক	-10.649
বী	-10.649
▁জিয়া	-10.65
▁জানালা	-10.65
▁কৌতুক	-10.6503
▁লাইফ	-10.6507
▁সাক্ষ্যদান	-10.6509
▁সঞ্চয়	-10.6511
▁মধ্যেও	-10.6512
▁মেঘ	-10.6515
▁কমন	-10.6516
▁হিল	-10.652
▁দানের	-10.6522
▁মিশরে	-10.6522
▁দিনাজপুর	-10.6525
কাজ	-10.653
▁কৃতিত্ব	-10.6531
▁গেমসে	-10.6532
▁মায়ানমার	-10.6535
▁স্থাপনা	-10.6535
জ্ঞ	-10.6536
▁সংসদীয়	-10.6536
▁অফিসিয়াল	-10.6537
▁খনি	-10.6537
▁দেখেছে	-10.6538
▁স্বাদ	-10.654
▁অর	-10.654
▁অনুসারী	-10.6545
▁১৯১৯	-10.6546
▁সুনাম	-10.6547
▁নরম	-10.655
বতী	-10.655
▁ইংরেজী	-10.6551
রিয়া	-10.6553
▁গুজব	-10.6554
▁সমাধি	-10.6555
য়ন	-10.6557
▁লেফটেন্যান্ট	-10.6558
▁গানটি	-10.657
▁আমেরিকায়	-10.6573
▁শরীরে	-10.6575
▁আরে	-10.6576
▁কিছুক্ষণ	-10.658
▁বশীভূত	-10.6581
র্ত	-10.6581
▁অত্যাচার	-10.6581
▁অংশগ্রহণকারী	-10.6582
▁পার্শ্ববর্তী	-10.6592
▁ঘটনাবলি	-10.6594
মালা	-10.6595
▁পায়ে	-10.6595
▁লাইট	-10.6596
▁বাড়তে	-10.6596
▁পুনর্	-10.6598
▁লিংক	-10.6603
▁আর্থ	-10.6604
▁দূতাবাস	-10.6606
▁প্রকল্পটি	-10.6607
হাম	-10.6615
▁খ্রীষ্টানেরা	-10.662
▁সৈন্যদের	-10.662
▁রেলপথ	-10.6622
ালি	-10.6623
▁রুটি	-10.6623
▁পারস্পরিক	-10.6626
▁নেপালের	-10.6629
▁দৃশ্যমান	-10.663
▁প্রস্তাবিত	-10.6631
▁প্রক্রিয়ার	-10.6634
▁অলিম্পিকে	-10.6635
▁থাই	-10.6637
▁রেগে	-10.6639
▁দরজার	-10.6642
▁ত্রিশ	-10.6642
▁দুঃখকষ্ট	-10.6645
ঘা	-10.6645
▁জানাই	-10.665
▁৭৩	-10.665
▁বন্ধুর	-10.665
▁শিলা	-10.6654
▁অধ্যায়ে	-10.6654
▁যাচ্ছিল	-10.6657
▁দৌরাত্ম্য	-10.6659
▁সজ্জিত	-10.6661
▁গবেষণায়	-10.6662
▁মানুষেরা	-10.6663
▁৬৭	-10.6668
▁বহিঃসংযোগ	-10.6671
তুল্য	-10.6672
▁পুনরাবৃত্তি	-10.6675
▁পেরেছিল	-10.6677
▁গার্ড	-10.6681
▁$	-10.6682
▁দেখলাম	-10.6684
▁বারবার	-10.6686
▁বিষয়গুলি	-10.6687
▁অধিবাসী	-10.6689
▁রত	-10.6689
পাদটীকাগুলো	-10.669
▁যিরূশালেমের	-10.6695
▁সমন্বিত	-10.6695
▁ফরাসী	-10.67
▁আছো	-10.6704
▁চাওয়া	-10.6704
▁বাজারের	-10.6707
▁শিকাগো	-10.6713
▁সম্মতি	-10.6713
কালের	-10.6715
▁অধিনায়ক	-10.6715
উদ্দীন	-10.6715
▁বালি	-10.672
৬১	-10.6724
▁ক্লিনিক	-10.6725
▁পুনরুত্থান	-10.6726
কিন	-10.6727
▁অভিজ্ঞতার	-10.6727
▁মামলার	-10.6729
▁উৎপাদিত	-10.6729
▁কলসীয়	-10.6737
▁করিয়াছেন	-10.674
এক্স	-10.674
▁আছ	-10.674
▁টেলিফোন	-10.6742
▁সফরে	-10.6744
▁বিল্ডিং	-10.6744
▁গ্রে	-10.6745
▁সম্মিলিত	-10.6746
▁যাত্রাপুস্তক	-10.675
গতি	-10.675
▁কড়া	-10.6752
▁উঠবে	-10.676
মহা	-10.6761
▁অক্ষাংশ	-10.6764
▁ব্যবধানে	-10.6765
▁পরিকল্পনার	-10.6766
বিজ্ঞান	-10.6766
▁ক্রোধ	-10.6769
▁উপলক্ষে	-10.6772
▁উভয়ের	-10.6772
▁ঝ	-10.6775
▁আশ্চর্য	-10.6781
▁তথ্যসূত্র	-10.6782
▁মেয়র	-10.6783
ঙ্গি	-10.6783
▁প্রাণীর	-10.6783
▁তালিকার	-10.6784
▁যথাসাধ্য	-10.6786
▁জলদি	-10.6789
▁১৯৪৯	-10.6793
▁স্বাস্থ্যকর	-10.6794
▁হিতো	-10.6794
▁বৃষ্টিপাত	-10.6798
▁অযোগ্য	-10.6805
▁নদীতে	-10.6806
▁কিনতে	-10.6807
▁অসন্তুষ্ট	-10.6809
▁ধরুন	-10.681
াংশ	-10.6823
▁ক্যান্সার	-10.6824
▁কর্মীরা	-10.6832
▁দূষণ	-10.6832
ার্থে	-10.6832
▁স্টক	-10.6833
▁নাগাদ	-10.6834
▁মূলধন	-10.6834
যাত্রা	-10.6835
▁করছো	-10.6837
▁মল	-10.684
মন্ত্রী	-10.6841
▁লোভ	-10.6842
▁অসম	-10.6842
▁আজিজ	-10.6843
ভিন	-10.6844
২০০৬	-10.6848
▁সংজ্ঞায়িত	-10.6856
▁সংকট	-10.6856
▁ডাই	-10.6857
▁ফর্ম	-10.686
▁ব্যবহারকারীরা	-10.6861
▁গেমস	-10.6864
▁বিধবা	-10.6872
▁ড্র	-10.6872
▁দর্শক	-10.6873
▁অবদানের	-10.6874
▁দুশ্চিন্তা	-10.6876
▁পথের	-10.6876
▁সারি	-10.6879
▁অধ্যাদেশ	-10.6879
▁যাহারা	-10.6881
▁৮৫	-10.6882
▁অক্ষম	-10.6887
▁নলকূপ	-10.6891
▁বাহিরে	-10.6891
▁জার্নাল	-10.6894
▁ফন্ট	-10.6895
▁দাসত্ব	-10.6896
পন্থী	-10.6896
▁প্রতিজ্ঞাত	-10.6898
▁গল্পের	-10.6899
▁থাকব	-10.6904
▁বর্জন	-10.6908
দ্র	-10.691
▁বাসিন্দা	-10.6911
৯১	-10.6915
▁কালি	-10.6916
▁খাত	-10.6916
▁ওয়েবসাইটে	-10.6922
কারীরা	-10.6924
▁লস	-10.6925
ফু	-10.6927
▁খাপ	-10.6927
▁প্রি	-10.6931
▁গালাতীয়	-10.6934
▁ইচ্ছে	-10.6936
▁এটাও	-10.6937
▁পাঠাতে	-10.6939
▁খ্রিস্টাব্দ	-10.6939
▁কাজেই	-10.694
▁নিষ্ঠুর	-10.694
▁মৃতদেহ	-10.6949
▁হার্ট	-10.6951
▁স্টুডিও	-10.6957
▁কথিত	-10.6963
▁শৃঙ্খলা	-10.6966
▁হোস্ট	-10.6971
▁সাপ	-10.6978
▁যিহিষ্কেল	-10.6988
▁১৯৫৯	-10.6992
শাস্ত্র	-10.6993
▁গ্রাহক	-10.6994
▁মেডিক্যাল	-10.6996
▁সবই	-10.7001
ইয়োব	-10.7001
▁জাতিকে	-10.7017
▁দেখাচ্ছে	-10.7018
কার্য	-10.7021
▁অংশগ্রহণের	-10.7026
▁দিয়েছিলাম	-10.7032
▁পয়সা	-10.7032
▁১৯৫৫	-10.7039
ওয়াল	-10.7042
▁শত্রুদের	-10.7043
▁শিয়া	-10.7045
াউ	-10.7046
▁মিয়া	-10.705
▁প্রকৌশলী	-10.7056
▁শাখার	-10.7064
▁কোনটা	-10.7065
▁চিকিৎসার	-10.7075
▁বর্ধিত	-10.708
▁মায়া	-10.708
▁ভালোবাসি	-10.708
▁স্মরণে	-10.7083
▁প্রার্থনায়	-10.7093
েশ	-10.7093
▁উদ্যোগী	-10.7093
▁বিনষ্ট	-10.7095
▁উইকিপিডিয়া	-10.7103
▁দ্রাঘিমাংশ	-10.7103
▁গ্র্যান্ড	-10.7104
▁ট্র্যাক	-10.7106
▁বিবাহের	-10.7106
▁সিঙ্গাপুর	-10.7107
▁পুত্রের	-10.7108
▁ভূমির	-10.7111
▁১২০	-10.7113
▁শ্রীলঙ্কা	-10.7114
▁সাতটি	-10.7115
▁হাম	-10.7117
▁স্নেহ	-10.7123
▁বোনের	-10.7123
▁সীমাবদ্ধতা	-10.7126
ৃ	-10.7127
▁লাগাতে	-10.7128
▁কোমল	-10.7131
▁আত্মপ্রকাশ	-10.7132
▁পৌঁছাতে	-10.7134
ম্বা	-10.7135
▁রাষ্ট্রদূত	-10.7139
▁৬৮	-10.7139
▁জোসেফ	-10.7139
▁ভ্রমণের	-10.714
▁সুস্পষ্ট	-10.7141
▁আরবের	-10.7141
▁ক্রি	-10.7145
▁১০০০	-10.7146
▁১৯৫৩	-10.7146
▁আপলোড	-10.7151
▁পুষ্টি	-10.7151
রিক	-10.7152
▁ইন্টারনেটে	-10.7159
▁হরি	-10.7164
▁প্রত্যেকটি	-10.7165
▁ফলস্বরূপ	-10.7166
▁ঢাল	-10.7167
▁গাড়ী	-10.7167
▁দূরত্ব	-10.7171
সমূহে	-10.7171
▁দীর্ঘদিন	-10.7171
▁রবিবার	-10.7173
▁আত্মহত্যা	-10.7173
রকম	-10.7175
সুর	-10.7177
▁সিদ্ধান্তের	-10.7178
▁সফলতা	-10.7187
▁প্রবিধান	-10.7187
▁লিস্ট	-10.7188
▁জমিদারি	-10.7189
▁এলিয়	-10.7192
▁খু	-10.7199
বের	-10.7202
▁ফারসি	-10.7202
▁সহায়তায়	-10.7205
▁১৯৪৩	-10.7207
▁ভান	-10.721
▁বেঁধে	-10.721
▁লিপ্ত	-10.7212
▁কার্ল	-10.7214
দ্	-10.7217
▁চৌ	-10.7219
▁কাজটা	-10.722
বলি	-10.7223
▁সত্যিকার	-10.7224
▁দাদা	-10.7224
ায়িত	-10.7227
▁পৃথিবীকে	-10.7229
▁উপসংহারে	-10.723
▁৭১	-10.7233
▁দুর্দশা	-10.7235
▁ফ্যাশন	-10.7235
▁স্বস্তি	-10.7235
▁শিরোনামে	-10.7236
ফো	-10.7238
▁অনন্য	-10.7245
▁নীতিগুলো	-10.7245
▁ঔপনিবেশিক	-10.7247
▁জলে	-10.7249
▁মহাসাগরীয়	-10.7249
▁দেশীয়	-10.7255
▁১৯৪২	-10.7256
▁বাক	-10.7257
▁চো	-10.7258
▁আওতাধীন	-10.7259
▁নু	-10.726
াধীন	-10.7266
▁ডো	-10.7266
▁কোর	-10.727
▁অত্যধিক	-10.7271
▁কর্নেল	-10.7271
▁ছেলেমেয়েরা	-10.7277
বাজ	-10.7278
▁সাহেব	-10.7286
▁নবাব	-10.7287
▁জেলাটি	-10.7288
▁দুর্বলতা	-10.7289
সিসি	-10.7295
▁গর্বিত	-10.7298
▁মাত্রায়	-10.7301
▁অর্থের	-10.7301
▁অপরকে	-10.7302
▁উল্লেখ্য	-10.7304
▁মৌসুম	-10.7307
▁বিস্মিত	-10.7307
▁ডক	-10.7309
▁মিডিয়ার	-10.7309
সাই	-10.7311
▁বিশ্বযুদ্ধ	-10.7312
▁জনগণকে	-10.7325
▁টাউন	-10.7327
দুর	-10.7328
▁দৌড়ে	-10.7329
▁আনে	-10.7333
▁প্রকৃতই	-10.7333
▁ফুটবলার	-10.7335
▁তাঁহাকে	-10.7335
ার্থ	-10.7336
ব্যক্তি	-10.7338
▁গেট	-10.7342
▁বিক্ষোভের	-10.7346
▁গঠনমূলক	-10.7347
▁ময়মনসিংহ	-10.7349
▁প্রক্রিয়ায়	-10.735
▁আর্মি	-10.7352
▁বাজানো	-10.7353
▁জানত	-10.7355
▁অফিসের	-10.7355
▁এড়াতে	-10.7356
▁তোকে	-10.7357
▁গোলাম	-10.7358
▁স্থানের	-10.7358
▁শাসনামলে	-10.7362
▁ফার	-10.7362
▁প্রস্তর	-10.7362
▁ধর্মঘট	-10.7365
▁রাইটস	-10.7366
২০১৩	-10.7367
▁পারছে	-10.7368
▁হোয়াইট	-10.737
▁গেলেন	-10.737
▁পুনরুত্থানের	-10.7371
▁এগুলির	-10.7371
▁মিসেস	-10.7371
▁অধিদপ্তর	-10.7372
▁৮৮	-10.7372
িম	-10.7375
▁পাঠকদের	-10.7376
▁বাস্তবে	-10.7377
▁আসবেন	-10.7378
▁কার্টুন	-10.738
▁লেবেল	-10.7381
▁পরিপূর্ণতা	-10.7385
▁চেতনা	-10.7386
▁তামিল	-10.7391
▁প্রতারণা	-10.7392
জ্জ	-10.7392
▁ক্যাম্প	-10.7393
য়ি	-10.7396
▁মেয়েরা	-10.7396
▁রোম	-10.7398
▁অনৈতিক	-10.7401
২০১০	-10.7405
এখন	-10.7408
তিন	-10.7409
▁যুক্তরাজ্য	-10.7411
▁বিষয়গুলোকে	-10.7416
▁ধাতু	-10.7416
▁প্রবেশের	-10.7417
▁এইচআইভি	-10.7417
▁সর্বমোট	-10.7418
▁লাফ	-10.7418
▁স্থল	-10.7418
▁প্রেরিতদের	-10.7419
▁টাকাপয়সা	-10.7431
▁বাহাদুর	-10.7431
▁জিনিষ	-10.7431
▁অপহরণ	-10.7442
▁লেক	-10.7445
▁প্রশাসনের	-10.7447
র্ন	-10.7452
▁১৯৪৪	-10.7453
▁বিবেচনায়	-10.7462
রিন	-10.7463
▁অন্যরা	-10.7464
্যু	-10.7464
স্তি	-10.7466
▁পাশের	-10.7474
▁অভিজাত	-10.7479
এসসি	-10.7479
▁বানান	-10.7486
▁করানো	-10.7487
টেন	-10.7488
▁মীর	-10.749
▁অনন্তজীবন	-10.749
▁প্রলোভন	-10.7491
▁ইউএস	-10.7493
▁মৃত্যুতে	-10.7493
ধর্মী	-10.7496
▁মরিয়ম	-10.7505
▁৪০০	-10.7508
পল	-10.7514
▁উত্তেজনা	-10.7516
▁মুহূর্ত	-10.7516
▁সনদ	-10.7521
▁উৎসবে	-10.7521
▁সমালোচক	-10.7527
▁লজ্জা	-10.7531
▁গাড়িতে	-10.7534
▁প্রত্যেকের	-10.7537
▁অন্যকে	-10.7539
▁অ্যান	-10.7545
▁অ্যাক্ট	-10.7555
▁তাহাকে	-10.7557
▁দর	-10.756
▁স্পেন	-10.7561
▁বৈদ্যুতিক	-10.7566
▁কণ্ঠস্বর	-10.7567
▁যোষেফ	-10.7568
▁৯১	-10.7572
▁সেন্ট্রাল	-10.7578
▁গুড	-10.7584
▁ইসলামি	-10.7591
▁হ্যাশট্যাগ	-10.7591
▁থেমে	-10.7592
▁তীর	-10.7595
▁মহ	-10.7601
▁ইংলিশ	-10.7604
▁ধর্ষণ	-10.7609
▁আগ্রহের	-10.761
▁কর্মকর্তারা	-10.761
▁বাবাকে	-10.7613
▁আসনে	-10.7614
▁জরিমানা	-10.7616
পট	-10.7617
▁ব্রি	-10.7619
▁মরে	-10.7622
বাংলাদেশ	-10.7624
▁কাছেই	-10.7624
িজম	-10.7626
▁বেথেল	-10.763
ক্যা	-10.7632
▁দেখিয়েছিল	-10.7634
ানি	-10.7636
▁কর্মকান্ড	-10.7636
▁গ্রন্থে	-10.7639
▁সরবরাহের	-10.764
▁শাকসবজি	-10.7641
▁পরমাণু	-10.7641
▁ঠিকই	-10.7641
▁মহাসড়ক	-10.7642
তাই	-10.7645
▁সিন্ধু	-10.7646
▁ক্ষত	-10.7646
▁৮৬	-10.7649
▁ধারায়	-10.765
▁রোগে	-10.7651
▁ক্ষুধা	-10.7653
▁স্বর	-10.7656
দিয়া	-10.7657
▁ব্য	-10.7658
উন	-10.7665
▁বর্ষ	-10.7666
▁মেক্সিকোর	-10.7667
▁প্রতিদ্বন্দ্বি	-10.7667
▁তথাপি	-10.7668
ম্যা	-10.7669
▁বানিয়ে	-10.767
য়েট	-10.7673
▁তাহাতে	-10.7675
▁বংশধর	-10.7676
▁উৎসবের	-10.7676
মিল	-10.7682
▁নগরের	-10.7685
▁দাঁড়াও	-10.7686
▁ঘোড়ার	-10.7689
▁খুঁজতে	-10.7691
▁ভিক্টোরিয়া	-10.7692
▁তুলনামূলকভাবে	-10.7695
শূন্য	-10.7696
উস	-10.7701
▁জাত	-10.7706
▁সিসি	-10.7706
▁লক্ষণীয়	-10.7715
▁নিষেধ	-10.7719
▁সাহিত্যে	-10.7719
▁ইত্যাদির	-10.7722
▁যখনই	-10.7724
▁পেরেছে	-10.7728
িট	-10.7729
▁গ্রন্থাগার	-10.7729
বাদের	-10.773
▁সম্পর্ককে	-10.7732
▁কানাডার	-10.7733
কুমার	-10.7734
▁সায়	-10.7741
▁শিরোপা	-10.7743
সময়ের	-10.7745
▁বটে	-10.7746
▁যশোর	-10.7746
ভাবেই	-10.7748
▁শিশুরা	-10.775
লস	-10.7753
িয়াল	-10.7754
▁অবস্থানের	-10.7755
গর	-10.7755
▁রিয়াল	-10.7756
র্ক	-10.7758
▁ল্যাংডনের	-10.776
▁হ্রদ	-10.7761
নির	-10.7762
▁মিছিল	-10.7763
▁৬৯	-10.7764
▁ইন্টার	-10.7768
▁সম্পত্তির	-10.7775
▁ব্রিজ	-10.7778
▁লেবীয়	-10.7779
▁পত্রিকাটি	-10.778
▁মিনিটে	-10.778
▁বেশীরভাগ	-10.778
▁দেখলে	-10.7787
▁৭৪	-10.7787
▁সর	-10.7788
▁প্রসব	-10.7791
▁বিরতি	-10.7791
▁শীঘ্র	-10.7791
▁রিসার্চ	-10.7793
▁ভয়ঙ্কর	-10.7793
▁মুজিবুর	-10.7794
▁পতনের	-10.7794
▁ব্যাটসম্যান	-10.7806
▁মঠ	-10.7806
▁প্রচারক	-10.7807
ুল্লাহ	-10.7809
▁ছাদ	-10.7811
▁ইস্যু	-10.7812
স্প	-10.7814
▁হিসেবেও	-10.7818
সীমা	-10.7818
▁শিবির	-10.7823
▁দলীয়	-10.7825
▁ঠান্ডা	-10.7832
▁সাম	-10.784
▁প্রকা	-10.7842
▁ভিড়	-10.7842
বুদ্ধি	-10.7848
▁অপ্রত্যাশিত	-10.785
▁আশেপাশের	-10.785
▁সংস্কারের	-10.7852
▁আপনিও	-10.7857
▁অভিযানের	-10.7858
▁সন্ধ্যায়	-10.7858
▁শুক্রবার	-10.7858
▁প্রশিক্ষণের	-10.7862
▁প্রস্থ	-10.7863
▁প্রেমপূর্ণ	-10.7864
▁দেখিয়েছেন	-10.7869
▁এক্সচেঞ্জ	-10.787
▁বিভাগীয়	-10.7872
▁মাঝখানে	-10.7877
▁দিয়াবল	-10.7881
স্থল	-10.7884
▁নেবেন	-10.7886
▁আক্ষরিক	-10.7887
▁খোদা	-10.7888
▁শিষ্যরা	-10.7897
▁রাই	-10.7898
▁দফা	-10.7899
▁মালয়েশিয়া	-10.7899
▁ভোজন	-10.79
▁৯৫	-10.7903
▁মিশ্রণ	-10.7905
▁ব্রাজিলের	-10.7906
▁পক্ষের	-10.7906
▁প্রতিবেদনে	-10.791
ানু	-10.7912
▁ডন	-10.7912
▁জেন	-10.7919
দ্ধ	-10.792
▁ডাচ	-10.7921
▁উত্তেজিত	-10.7921
▁অবহেলা	-10.7921
▁ট্রেড	-10.7922
▁মহাপরিচালক	-10.7922
▁অমর	-10.7923
▁বুঝি	-10.7924
▁করেছেনঃ	-10.7924
▁গুণগত	-10.7926
▁আজারবাইজান	-10.7927
▁নিচ্ছে	-10.7927
▁দাঙ্গা	-10.7928
▁মিনার	-10.7929
▁প্রতিবাদে	-10.793
নামা	-10.7934
▁ব্রাজিল	-10.7936
▁চরিত্রের	-10.7938
▁"[	-10.7938
▁হায়	-10.794
▁ইংল্যান্ডে	-10.7942
▁যানবাহন	-10.7944
▁লাইনের	-10.7944
▁শুদ্ধ	-10.7945
▁=	-10.7952
▁পৌঁছায়	-10.7953
▁পুনর্গঠন	-10.796
▁কনফিগারেশন	-10.7961
ফোর্ড	-10.7961
▁সাইকেল	-10.7966
▁অসুবিধা	-10.7968
মী	-10.7968
▁পোপ	-10.7969
▁কাজকর্ম	-10.7971
হ্	-10.7972
হর	-10.7973
▁বিপজ্জনক	-10.7973
▁আধিপত্য	-10.7973
▁শুনুন	-10.7974
▁নিল	-10.7974
▁শুনেছি	-10.7977
গাঁও	-10.7977
▁ম্যাগাজিন	-10.7977
▁সিস্টেমের	-10.7981
▁ডিসেম্বরে	-10.7981
▁দাসের	-10.7981
র্থ	-10.7983
▁গোটা	-10.7984
▁তাইওয়ান	-10.7987
▁প্রবেশাধিকার	-10.7987
▁ছেলেকে	-10.7989
▁ধু	-10.7994
▁সংকলন	-10.8001
ভান	-10.8001
▁আলোচনায়	-10.8001
▁চোর	-10.8004
▁চেয়েছিলাম	-10.8008
▁গ্যা	-10.801
▁প্রজন্মের	-10.8011
▁সাম্প্রদায়িক	-10.8012
▁উত্তীর্ণ	-10.8012
ডব্লিউ	-10.8013
▁বিষয়টিকে	-10.8015
খে	-10.8015
▁মির্জা	-10.8019
▁সমকামী	-10.8019
িদ	-10.802
▁ধ	-10.802
▁অভিভাবক	-10.8022
▁শীতল	-10.8023
▁খুলুন	-10.8026
▁ধর	-10.8028
▁স্পেনের	-10.8029
▁থা	-10.8031
▁এড	-10.8031
▁দাসেরা	-10.8033
▁সেশন	-10.8034
▁অনুষদ	-10.8036
চর	-10.804
▁শিক্ষকদের	-10.8041
▁আলোচিত	-10.8041
▁স্বভাব	-10.8045
▁দায়ে	-10.8047
▁উদ্ধৃত	-10.8047
▁তথাকথিত	-10.8052
▁ব্রোঞ্জ	-10.8052
▁গর্ব	-10.8055
▁দাঁড়িয়েছে	-10.8057
▁স্বাগতম	-10.806
▁পোস্টটি	-10.8062
▁ইনিংসে	-10.8063
▁সাহিত্যিক	-10.8064
ইংরাজি	-10.8065
▁শুচি	-10.8067
▁কোট	-10.8069
ষা	-10.8069
।'-	-10.807
▁হামিদ	-10.8081
▁বাহন	-10.8083
▁জটিলতা	-10.8086
▁বাজেট	-10.8089
▁ভূগর্ভস্থ	-10.8091
▁বেসরকারী	-10.8091
▁বাড়তি	-10.8091
▁পারলে	-10.8093
▁কথাই	-10.8098
▁ভাবনা	-10.81
▁চট্টগ্রামের	-10.8101
▁হর	-10.8102
▁একতা	-10.8103
ুস	-10.8106
▁শুয়ে	-10.8109
ভের	-10.811
▁ঘাটতি	-10.8111
▁অভাবে	-10.8118
ফর	-10.8118
▁মোড়	-10.812
▁ঘটা	-10.8122
বৃন্দ	-10.8122
▁খ্রিস্টপূর্ব	-10.8125
▁প্ররোচিত	-10.813
▁হাউজ	-10.8131
▁যোদ্ধা	-10.8131
▁ফেলুন	-10.8139
▁ভয়ানক	-10.8144
▁নও	-10.8147
▁টেকনোলজি	-10.8149
▁অভিধান	-10.8151
রোগ	-10.8153
গামী	-10.8156
নাস	-10.816
▁আকৃতি	-10.8164
▁৭৬	-10.8165
▁৭৭	-10.8165
▁ধ্বংসের	-10.8169
▁অণু	-10.8169
▁প্রস্থান	-10.8169
▁প্রাইভেট	-10.8171
▁একাউন্ট	-10.8171
▁বিশ্বস্ততা	-10.8173
▁খুজে	-10.8173
▁সমূহ	-10.8173
▁গীতরচক	-10.8178
▁নিউজিল্যান্ড	-10.8182
▁একজনকে	-10.8185
▁গোত্রের	-10.819
▁ফটো	-10.819
ীরা	-10.819
▁করিল	-10.8193
▁সংঘ	-10.8195
▁অপরিচিত	-10.8198
▁জামা	-10.8199
▁জমিতে	-10.82
▁প্রচারে	-10.82
▁ট্রাস্ট	-10.8202
▁খবরের	-10.8203
ীকৃত	-10.8207
নারী	-10.8209
লিং	-10.8211
▁প্রসঙ্গ	-10.8212
ধি	-10.8213
▁উক্তি	-10.8213
▁স্বাস্থ্যের	-10.8214
▁কামাল	-10.8222
▁সাহিত্যাদি	-10.8222
প্রিয়	-10.8225
▁সংলগ্ন	-10.8226
▁দিলাম	-10.8228
▁ব্যাঙ্ক	-10.8232
▁উল	-10.8235
▁শনিবার	-10.8238
▁অনুসন্ধানের	-10.8239
▁এসময়	-10.8241
▁অনেকগুলি	-10.8241
▁হান	-10.8247
▁পূর্ণসময়	-10.8248
▁রবীন্দ্রনাথ	-10.8249
বির	-10.8251
▁ফেলি	-10.8253
▁আফ্রিকায়	-10.8253
▁সাংবাদিকদের	-10.8257
▁গোপনে	-10.8261
▁কতিপয়	-10.8263
▁সহিংসতা	-10.8264
▁মাছের	-10.8266
▁দিলো	-10.8268
▁সাময়িক	-10.8274
▁গিলিয়েড	-10.8277
▁পাকসেনা	-10.8277
একজন	-10.8284
▁গজ	-10.8297
▁সূর্যের	-10.8297
▁খাদ্যের	-10.8297
▁পশুর	-10.83
▁১৯৩৭	-10.8302
মাই	-10.8306
▁মার্	-10.8307
▁ভিডিওটা	-10.8307
▁কেড়ে	-10.8312
▁ছাত্রী	-10.8317
▁কমন্স	-10.8319
▁করিম	-10.8319
▁স্টেশনে	-10.8322
▁লাগল	-10.833
▁লিঙ্ক	-10.8331
▁সম্	-10.834
বোনদের	-10.8342
▁ইউসুফ	-10.8344
▁নগদ	-10.8344
▁মারি	-10.8352
্তি	-10.8357
▁ল্যাঙডন	-10.8357
▁মীমাংসা	-10.8358
▁জাফর	-10.8358
▁বাক্যে	-10.8359
▁পুত্ত্র	-10.836
▁পেরেছিলাম	-10.836
▁বাহির	-10.8364
▁চলি	-10.8366
▁কিসের	-10.8367
োল	-10.8368
▁১৯৩৯	-10.8369
▁প্রধানমন্ত্রীর	-10.837
▁নির্যাতনের	-10.8371
ওয়াই	-10.8371
▁মধু	-10.8375
......	-10.8378
▁খোঁজ	-10.8382
▁ভ্যান	-10.8384
▁সাড়ে	-10.8388
েন্দ্র	-10.839
▁নিজেরা	-10.839
▁ব্যভিচার	-10.8392
▁ছাপানো	-10.8395
▁উদ্বুদ্ধ	-10.8398
▁অল্পবয়সি	-10.8398
্টার	-10.84
▁তরঙ্গ	-10.8403
ট্রি	-10.8407
▁অস	-10.8408
▁জায়গার	-10.8408
মূল	-10.8409
▁সাজানো	-10.8409
▁মুম্বাই	-10.841
▁সাংবিধানিক	-10.8412
▁প্রজেক্ট	-10.8412
▁বৎসর	-10.8416
▁ফ্লাইট	-10.8418
দর্শন	-10.842
▁মেমো	-10.8421
▁কোল	-10.8421
▁খোঁজার	-10.8422
▁পোস্টার	-10.8423
▁সার্বভৌম	-10.8425
▁আলেকজান্ডার	-10.8426
▁আঠারো	-10.8426
▁ইউরো	-10.8428
▁মাযার	-10.8429
▁গেলাম	-10.843
▁পড়	-10.8431
▁র্যা	-10.8437
▁রদবদল	-10.8439
▁চক্ষু	-10.8439
▁কার্যকলাপ	-10.844
রুশ	-10.844
▁৭৮	-10.8443
মূল্য	-10.8446
▁মোকাবেলা	-10.845
ভিল	-10.8451
▁আবির্ভূত	-10.8452
▁দৃঢ়সংকল্পবদ্ধ	-10.8453
বাগ	-10.8453
▁সত্যতা	-10.8453
▁ধূসর	-10.8454
▁বগুড়া	-10.8454
▁লোকে	-10.8457
▁ইংরেজিতে	-10.8462
▁নির্দেশক	-10.8462
▁নীতিমালা	-10.8463
▁লেখিকা	-10.8467
▁প্রাসাদ	-10.8473
ন্	-10.8473
▁সবগুলো	-10.8475
▁প্রত্যেকে	-10.8475
▁পড়েছিলেন	-10.8479
▁জঘন্য	-10.848
▁পৃথিবীব্যাপী	-10.8481
▁রাণী	-10.8483
▁৯৪	-10.8484
▁চিন্তাধারা	-10.8484
▁ইরাক	-10.8487
▁চালক	-10.8489
▁প্রেমে	-10.849
▁সমতা	-10.8491
▁সম্পূর্ণভাবে	-10.8492
▁বহুল	-10.8495
▁ট্রেনিং	-10.85
▁বুঝিয়ে	-10.8502
▁পাবার	-10.8502
ঠা	-10.8503
▁আরাম	-10.8503
▁অধিবেশন	-10.8503
▁দিবেন	-10.8505
ব্যাপী	-10.8507
▁আঙ্গুল	-10.8507
▁ভয়ংকর	-10.8508
▁৮৩	-10.8508
▁সম্মত	-10.8508
▁সৈন্যরা	-10.8512
▁ইচ্ছার	-10.8512
▁অটো	-10.8513
▁আজাদ	-10.8514
মেল	-10.8516
▁প্রচেষ্টায়	-10.8518
▁অপ্রয়োজনীয়	-10.8521
▁ফার্ম	-10.8521
▁বইটা	-10.8523
▁সুন্দরী	-10.8524
▁নির্দেশিকা	-10.8527
২০০৯	-10.8528
▁এক্সপ্রেস	-10.8534
▁ডব্লিউ	-10.8534
▁সর্বনিম্ন	-10.8535
▁উপকারী	-10.8535
▁মনোভাবের	-10.8538
▁উদ্	-10.8542
▁জ্বালানি	-10.8543
▁প্রবাসী	-10.8546
▁চিরস্থায়ী	-10.8548
▁খো	-10.855
▁দুর্ভিক্ষ	-10.8551
▁তারপরেও	-10.8556
▁বিবাদ	-10.8557
▁গণহত্যা	-10.8558
ত্তা	-10.8563
▁তুচ্ছ	-10.8563
▁তারাই	-10.8565
▁নল	-10.8567
▁যতদিন	-10.8567
▁উদ্যোক্তা	-10.8577
খান	-10.8577
কাস	-10.8577
▁একাডেমিক	-10.8578
▁স্থায়ীভাবে	-10.8578
▁থ	-10.8578
জিয়া	-10.8579
▁পর্দা	-10.858
▁মালা	-10.8581
▁বক্তা	-10.8583
▁সুখের	-10.8584
▁(_	-10.8589
অব	-10.8594
▁ভাষণ	-10.8595
▁খোদাই	-10.8599
▁অ্যাওয়ার্ড	-10.86
▁মধ্যযুগীয়	-10.8604
▁আকস্মিক	-10.8611
▁কানে	-10.8612
▁শান্তিতে	-10.8613
২০০৭	-10.8613
ধর	-10.8616
বাহী	-10.8616
▁১৯৩৫	-10.8616
▁ঘরোয়া	-10.8619
বর্তী	-10.862
ক্সি	-10.8624
রাত	-10.863
▁বৈশ্বিক	-10.8631
▁শহুরে	-10.8631
▁অর্জিত	-10.8631
▁ট্যাব	-10.8632
▁ব্রহ্মপুত্র	-10.8633
▁যমুনা	-10.8634
▁স্ক্রিন	-10.8634
▁ডঃ	-10.8635
▁আজও	-10.8635
▁বিজ্ঞতার	-10.8636
▁থামো	-10.8636
▁পূর্বপুরুষ	-10.8639
পাদটীকা	-10.864
▁উঠছে	-10.8643
▁আবারো	-10.8643
▁আংশিক	-10.8644
▁ঘোষনা	-10.8645
▁নিউইয়র্ক	-10.8646
▁ব্যবস্থাপক	-10.8647
▁খিলান	-10.8648
▁স্টাফ	-10.8649
▁বিশপ	-10.865
▁মাপ	-10.8651
▁দক্ষতার	-10.8652
▁১৯৪১	-10.8655
▁পিতামাতা	-10.8656
▁বিদ্রোহের	-10.8658
▁স্থপতি	-10.8659
▁উইন্ডোজ	-10.8659
▁সমবায়	-10.866
▁কাল্পনিক	-10.866
▁প্রিন্স	-10.866
জির	-10.8661
▁বিধিব্যবস্থার	-10.8661
▁বস্তুর	-10.8662
▁টুকরা	-10.8662
২০০০	-10.8663
▁সেইসব	-10.867
▁সেক্টর	-10.867
▁বার্তাটি	-10.8672
▁ফিলিস্তিনি	-10.8673
▁গোলে	-10.8683
▁ফাংশন	-10.8687
▁পারছেন	-10.869
কিং	-10.8691
মির	-10.8696
▁মোহ	-10.8698
ারী	-10.8699
▁সিল	-10.8699
▁দেননি	-10.87
▁উত্তোলন	-10.8701
িব	-10.8704
▁বোলিং	-10.8711
▁নবী	-10.8714
▁জানিনা	-10.8719
▁নেবার	-10.8724
▁ইয়ো	-10.8725
▁মস্তিষ্ক	-10.8728
▁ধ্বংসাবশেষ	-10.8729
▁নির্দোষ	-10.8729
▁ভুটান	-10.873
▁বলবো	-10.8732
▁রুমে	-10.8734
▁কোথা	-10.8736
▁এটিই	-10.8738
▁৯২	-10.8741
▁তত্ত্বাবধায়ক	-10.8743
▁দেশটি	-10.8745
▁নির্ভরতা	-10.875
▁বিবর্তন	-10.8751
াহ	-10.8753
▁অবগত	-10.8754
▁সদয়	-10.8756
▁বন্যার	-10.8756
▁পরিপক্ব	-10.8757
▁প্রযোজনা	-10.876
স্টি	-10.8762
▁প্রযুক্তিগত	-10.8763
▁শাসকদের	-10.877
কোট	-10.8771
▁হেড	-10.8772
▁পররাষ্ট্র	-10.8773
▁মৃদু	-10.8774
▁ভীত	-10.8779
▁বিতর্কের	-10.8782
য়েড	-10.8783
▁জড়ো	-10.8785
▁পুড়িয়ে	-10.8785
▁মেরামত	-10.8789
▁ব্যতিক্রম	-10.8789
▁প্রজন্ম	-10.8792
তন্ত্র	-10.8797
াপেক্ষা	-10.8799
▁অস্বাস্থ্যকর	-10.8799
▁কার্যাবলী	-10.88
আউট	-10.8802
▁প্রথমবার	-10.8805
▁প্রমুখ	-10.8806
দর	-10.8807
▁বাচ্চারা	-10.8808
▁ত্রিপুরা	-10.8814
▁বৈচিত্র্য	-10.8815
▁ঝামেলা	-10.8816
▁মস্তিষ্কের	-10.8817
▁হাইওয়ে	-10.8818
▁আকৃতির	-10.8821
টেল	-10.8822
▁লেন	-10.8826
▁উত্থাপিত	-10.8827
▁সিদ্ধান্তে	-10.8839
ক্রি	-10.8841
ন্ডি	-10.8842
▁কৃষকদের	-10.8846
▁ষড়যন্ত্র	-10.8853
▁১৯২১	-10.8856
▁নাগরিকের	-10.8862
▁উঠা	-10.8862
▁সংখ্যাগরিষ্ঠ	-10.8867
▁ছেলেদের	-10.8869
▁স্বেচ্ছাসেবক	-10.8869
▁ইলেকট্রনিক	-10.887
▁পেত	-10.8871
▁স্মিথ	-10.8872
সিস	-10.8872
▁ভগ্ন	-10.8876
▁মৌসুমের	-10.8879
▁জ্বর	-10.8887
▁গ্রহন	-10.889
▁অক্টোবরে	-10.8891
▁সামগ্রিক	-10.8893
▁খুলতে	-10.8893
নেস	-10.8894
▁নীতিনিষ্ঠা	-10.8894
▁হকি	-10.8896
▁চিত্ত	-10.8897
▁ভদ্র	-10.8897
▁ব্যবসার	-10.8898
▁আশঙ্কা	-10.8899
▁হিমালয়	-10.8899
▁ভূগোল	-10.8903
প্রেম	-10.8903
▁অবনতি	-10.8904
▁থাকতেন	-10.8905
ডেল	-10.8908
পত্রিকা	-10.8909
▁মহকুমা	-10.8909
্টি	-10.8909
▁পুনর্সাক্ষাৎ	-10.8913
▁স্লোগান	-10.8913
▁রব	-10.8914
মনা	-10.8916
▁অধীনস্থ	-10.8918
▁গরুর	-10.8921
▁প্রে	-10.8922
▁প্রসঙ্গে	-10.8922
▁শিশুকে	-10.8925
▁বন্দোবস্ত	-10.8928
▁কর্মের	-10.893
বৃত্তি	-10.8933
▁ডিএনএ	-10.8939
▁ইভেন্ট	-10.894
▁আখ্যায়িত	-10.8941
▁দ্বৈত	-10.8942
▁বনাম	-10.8945
খু	-10.8947
▁নায়ক	-10.8947
চ্ছি	-10.8949
▁দ্বিতীয়ত	-10.8953
▁প্রতিবাদের	-10.8953
▁৯৯	-10.8954
▁প্রত্যাবর্তন	-10.8956
▁প্রত্নতাত্ত্বিক	-10.8956
▁বিশেষত্ব	-10.8956
▁প্রখ্যাত	-10.8956
▁অর্থনীতিতে	-10.8956
▁এলো	-10.8957
▁মুজিব	-10.896
যিহোবার	-10.8966
▁৮৪	-10.8968
▁ভদ্রমহিলা	-10.897
▁ব্লগিং	-10.897
▁দ্বিগুণ	-10.897
▁সংঘাত	-10.8973
সংখ্যা	-10.8973
▁এডওয়ার্ড	-10.8973
▁রায়ের	-10.8975
▁ধরেছে	-10.8976
▁জ্ঞাত	-10.8979
▁স্পেস	-10.8979
▁লাইভ	-10.8982
▁দিয়েই	-10.8983
▁ব্যর্থতা	-10.8983
▁নিরুৎসাহিত	-10.8984
▁টেলিযোগাযোগ	-10.8984
▁উপত্যকা	-10.8986
ইস	-10.8986
▁সিকিউরিটি	-10.8987
ঙ্গার	-10.8987
▁নর্থ	-10.8988
▁স্ট্রিট	-10.8991
▁হিসেব	-10.8991
তন	-10.8992
▁নিশ্চিতভাবে	-10.8992
▁সহানুভূতি	-10.8998
▁ঝগড়া	-10.8998
▁অপারেটিং	-10.8999
▁ইঞ্চি	-10.9
▁প্যাকেজ	-10.9001
▁অংশীদার	-10.9002
▁ফেল	-10.9002
▁পর্বের	-10.9006
▁আইনি	-10.9011
▁হাওড়া	-10.9013
▁কর্মকাণ্ড	-10.9015
▁অগ্র	-10.9015
▁ভক্ত	-10.9017
▁রুপ	-10.9018
▁হট	-10.9021
▁ওয়াই	-10.9022
▁লক	-10.9022
▁মিলিটারি	-10.9028
▁তত্ত্বাবধান	-10.9031
▁থাম	-10.9032
▁পাতার	-10.9037
▁প্লাগ	-10.9038
▁পেট	-10.9039
▁প্রজ্ঞাপন	-10.9043
▁রৌপ্য	-10.9043
▁লোকসংখ্যা	-10.9046
▁বাংলাদেশি	-10.9048
বৃত্ত	-10.9051
▁মহাসাগর	-10.9052
▁ট্রাক	-10.9053
▁সোশ্যাল	-10.9056
▁চলেন	-10.9058
ণা	-10.9059
▁বিরল	-10.9059
▁অষ্টম	-10.906
▁কথোপকথন	-10.9062
▁বাড়ানোর	-10.9063
কির	-10.9063
▁প্রাণীদের	-10.9068
▁উৎসর্গীকৃত	-10.9072
▁সেনাপতি	-10.9072
▁শিখি	-10.9072
▁গোত্র	-10.9073
▁ঘুমিয়ে	-10.9073
টিং	-10.9079
▁বাকী	-10.908
▁ভীতি	-10.9082
হীনতা	-10.9084
▁রোগীর	-10.9084
▁রোমাঞ্চকর	-10.9086
▁বাঁশ	-10.9086
▁ব্র্যাক	-10.9086
▁তামাক	-10.9089
▁ট্রি	-10.909
▁এডমন্ড	-10.9093
▁পর্তুগিজ	-10.9097
▁কর্মচারীদের	-10.91
▁লিনাক্স	-10.9102
▁ডক্টর	-10.9102
এটি	-10.9104
▁পুতুল	-10.9104
লক	-10.9104
▁ফাঁস	-10.9105
▁বেত	-10.9108
চ্ছে	-10.9109
▁স্রোত	-10.9109
▁ফেসবুকের	-10.9113
▁বন্য	-10.9114
▁সূত্রপাত	-10.9116
▁ধ্বনি	-10.9122
▁সমর্থনে	-10.9124
▁প্রকল্পে	-10.9125
▁কলম্বিয়া	-10.913
▁দেয়নি	-10.9134
১৯৭২	-10.9135
▁আলোক	-10.9137
▁ধরেন	-10.9139
▁জন্মদিন	-10.914
▁ম্যারি	-10.9147
যন্ত্র	-10.9148
▁লাশ	-10.9148
স্বাস্থ্যকেন্দ্র	-10.9149
▁মাংসের	-10.915
▁কেজি	-10.9152
তাকে	-10.9153
▁অনুবাদক	-10.9158
▁তৃণমূল	-10.9159
▁রয়্যাল	-10.9159
▁ন্যস্ত	-10.9159
▁গুপ্তধন	-10.9159
▁যৌথভাবে	-10.9159
▁বানাতে	-10.916
যখন	-10.9161
▁জনগোষ্ঠী	-10.9161
▁বিভাজন	-10.9162
▁ভয়েস	-10.9164
▁বোতাম	-10.9174
▁খাড়া	-10.9176
ভারত	-10.918
▁ভাইকে	-10.9181
▁পঞ্চাশ	-10.9184
▁উত্পাদন	-10.9188
▁উপার্জন	-10.9188
▁স্মারক	-10.9189
▁অবহিত	-10.9192
.;	-10.9192
▁নির	-10.9193
▁যুক্তিযুক্ত	-10.9193
▁যাইবে	-10.9194
▁মেঘনা	-10.9196
▁দেশগুলোর	-10.9198
▁প্রচারণার	-10.9203
▁স্বরাষ্ট্র	-10.9206
▁প্রণালী	-10.9208
▁বিপদের	-10.9208
▁উক্তরূপ	-10.9209
▁সিডি	-10.9212
▁অবিলম্বে	-10.9217
▁অক্সফোর্ড	-10.9217
হারা	-10.9221
▁বড়দিন	-10.9222
কারি	-10.9222
▁মঞ্চে	-10.9229
▁পুরাণ	-10.9229
টিভি	-10.9231
▁কাই	-10.9231
▁দুজনেই	-10.9233
▁৯৭	-10.9235
অনেক	-10.9238
▁গেঁথে	-10.9247
▁দৃষ্টিকোণ	-10.9247
▁হুম	-10.9248
▁বাবামার	-10.9251
▁খাঁ	-10.9254
▁টের	-10.9257
মারা	-10.9259
▁ঝুঁকির	-10.9261
▁অভ্যর্থনা	-10.9261
▁সংবাদপত্রের	-10.9261
▁অকৃষি	-10.9262
▁তলায়	-10.9263
▁সাজা	-10.9263
▁মুগ্ধ	-10.9264
▁উৎসর্গীকরণ	-10.9266
▁যুক্তরাজ্যের	-10.9268
তী	-10.927
▁পাখির	-10.9273
▁সরু	-10.9273
▁যোগান	-10.9274
▁বেশিরভাগই	-10.9274
▁কেনার	-10.9274
▁শিল্পে	-10.9275
▁দাতব্য	-10.9276
▁সেপ্টেম্বরে	-10.928
▁যাপন	-10.9281
▁বারের	-10.9282
বন্ধ	-10.9284
▁রাস্তাটি	-10.9287
▁পর্যটক	-10.9287
▁কমনওয়েলথ	-10.9291
▁শৌল	-10.9292
▁হান্না	-10.9292
▁দর্শকদের	-10.9293
▁আগামীকাল	-10.9297
▁থাইল্যান্ড	-10.9298
▁জামে	-10.9301
কোষ	-10.9301
▁ভবনটি	-10.9302
▁লইয়া	-10.9306
তাঁহার	-10.9308
র্জ	-10.9309
▁হুমকির	-10.931
▁প্রশাসক	-10.9316
২০০৮	-10.9317
▁সায়েন্স	-10.932
▁অভিনীত	-10.9322
▁আবর্জনা	-10.9322
▁ধা	-10.9323
▁দিল্লির	-10.9323
দ্দ	-10.9323
▁উপকূল	-10.9328
▁শিক্ষাবিদ	-10.933
▁ঘূর্ণিঝড়	-10.9331
▁ষাট	-10.9336
২০০১	-10.9336
▁চ্যাম্পিয়ন	-10.9338
▁পলিসি	-10.934
▁সমুদয়	-10.9341
ফিল্ড	-10.9343
▁হাইস্কুল	-10.9348
▁ইরানি	-10.9348
▁বলিদান	-10.9348
২০১৪	-10.9351
প্রদান	-10.9352
নির্	-10.9353
তল	-10.9353
ন্ন	-10.9354
▁কোর্টের	-10.9355
▁নৌবাহিনীর	-10.9358
▁পাত	-10.9358
▁মানা	-10.9365
াদ	-10.9366
▁রণ	-10.9367
▁চূর্ণ	-10.9368
▁রাজত্বের	-10.9368
▁ক্যান	-10.9371
▁ফোল্ডারে	-10.9372
▁বাবু	-10.9373
▁কিউ	-10.9374
▁শুন	-10.9375
▁ভাবা	-10.9378
▁অনধিক	-10.9379
▁পরিত্যক্ত	-10.938
▁অন্তর্ভূক্ত	-10.9381
▁ফাইনাল	-10.9382
ঞ্জি	-10.9382
▁টুল	-10.9384
▁জুতা	-10.9384
▁ছবিগুলো	-10.9387
▁জয়ের	-10.939
▁রাজবংশের	-10.9394
▁গুন	-10.9395
▁মুক্তিযোদ্ধাদের	-10.9397
▁আকবর	-10.9397
শত	-10.9397
▁অটল	-10.9398
▁পেলাম	-10.9399
▁প্রকাশকদের	-10.9401
▁কবির	-10.9403
▁অনা	-10.9403
▁পুর	-10.9405
▁অস্পষ্ট	-10.9406
▁অনুপাত	-10.9409
▁হলাম	-10.9412
দশ	-10.9413
▁দরজায়	-10.9418
▁১৯৩৮	-10.9423
▁মাইক্রো	-10.9426
▁পিছিয়ে	-10.9426
▁সত্যে	-10.9426
▁গর্ত	-10.9426
নাল	-10.9427
▁খাতের	-10.943
লাই	-10.9433
▁বাড়াতে	-10.9433
▁প্যান	-10.9433
▁বিভ্রান্ত	-10.9434
▁গ্লাস	-10.9448
প্রকাশ	-10.9449
▁সমাধানের	-10.9453
▁জায়গাটা	-10.9453
▁নৈতিকতা	-10.9453
▁ধর্মে	-10.9454
▁উপহাস	-10.9454
▁প্রেসিডেন্সি	-10.9455
▁আরোগ্য	-10.9457
▁বর্ধমান	-10.9457
▁দ্বিধা	-10.9457
ানোর	-10.9462
▁অবাধ্য	-10.9465
▁আর্থার	-10.9468
▁পর্নোগ্রাফি	-10.9469
কুই	-10.9482
▁সময়কাল	-10.9483
▁ডিস	-10.9483
▁কর্ণ	-10.9484
▁লগইন	-10.9488
▁ইন্দো	-10.9488
▁চিন	-10.9492
চক	-10.9493
▁মোটামুটি	-10.9495
▁১১০	-10.9495
▁পূ	-10.9498
▁দোকানে	-10.9499
মোহন	-10.9501
▁লাঠি	-10.9501
▁১৯৩২	-10.9502
বৎ	-10.9503
▁১৯৩১	-10.9503
সেট	-10.9504
▁যেগুলি	-10.9505
▁ইয়োবের	-10.9505
বাবা	-10.9511
▁জীবনধারা	-10.9512
▁গ্রন্থের	-10.9512
▁ট্রফি	-10.9514
্টন	-10.9515
▁ক্রিস	-10.9515
বোন	-10.9515
▁মোতাবেক	-10.9516
▁স্যানিটেশন	-10.9516
▁বুড়ো	-10.9516
▁নিয়ন্ত্রক	-10.9517
▁প্রশ্নোত্তর	-10.9517
▁বাস্তবায়নের	-10.9524
▁হাসপাতালের	-10.9527
▁তুমিই	-10.9529
▁স্বাক্ষরিত	-10.9529
সেন্ট	-10.9532
▁এইডস	-10.9532
▁খাম	-10.9533
▁রাত্রি	-10.9535
▁একজনের	-10.9538
▁ইন্টারনেটের	-10.9541
▁দেখব	-10.9545
▁পিছু	-10.9548
যাত্রাপুস্তক	-10.9549
▁লাগলো	-10.9551
▁মুক্তিপ্রাপ্ত	-10.9551
▁ফিল্ড	-10.9552
▁কষ্টকর	-10.9554
দেব	-10.956
▁স্যাম	-10.9563
▁রেন্ট	-10.9566
▁নিরাপদে	-10.9566
কস	-10.9567
▁ব্যাংকিং	-10.9572
লেস	-10.9575
▁আগা	-10.9576
▁ফরিদপুর	-10.958
াক	-10.9583
পের	-10.9588
▁দুর	-10.9592
▁নগরে	-10.9592
▁অগ্রাহ্য	-10.9593
▁নির্গত	-10.9596
▁উন্নতির	-10.9597
▁চারিদিকে	-10.9597
▁প্রথমদিকে	-10.9598
▁ইমেইল	-10.9598
টেক	-10.9598
▁ব্যাক্তি	-10.9599
▁ফ্রান্সে	-10.9601
▁ইস্রায়েলীয়	-10.9602
▁কাঁটা	-10.9602
▁অ্যাল	-10.9604
▁পড়াশুনা	-10.9607
▁খাজনা	-10.9607
▁জিনিসটা	-10.9617
▁কিউবা	-10.9619
▁দেশটিতে	-10.9619
মতি	-10.9619
পবিত্র	-10.9621
লন	-10.9622
▁মিলন	-10.9624
কেন	-10.9634
▁রক্ষণাবেক্ষণ	-10.9635
▁ছবিটা	-10.9637
▁ধরণ	-10.9637
কট	-10.9638
▁গিয়া	-10.9641
▁আশার	-10.9642
▁তাস	-10.9644
▁লেগেছে	-10.9645
▁পড়ো	-10.9646
▁ব্রোশার	-10.9647
▁লাইনে	-10.9649
▁করাতে	-10.9651
▁দম	-10.9651
▁চেয়ার	-10.9653
▁ফেরার	-10.9653
▁মার্শাল	-10.9654
▁নাটকে	-10.9654
জাতি	-10.9654
▁ব্যবস্থাপনার	-10.9655
েক	-10.9656
▁দেখাও	-10.9665
ত্য	-10.9667
▁ফেডারেল	-10.9669
▁চেম্বার	-10.9669
▁উদ্বোধনী	-10.967
▁য	-10.9671
▁কার্বন	-10.9671
▁সৃষ্টিকর্তার	-10.9674
▁মুদ্রার	-10.9674
২০১৫	-10.9677
▁সবক	-10.9678
▁ভীষণ	-10.9678
▁বিচিত্র	-10.9678
ওয়েল	-10.9679
▁পালিত	-10.9679
▁কর্মকর্তার	-10.968
▁প্যারিস	-10.9681
ডন	-10.9682
ট্টা	-10.9684
▁সতর্কবাণী	-10.9685
▁|	-10.9689
▁পেজ	-10.9691
▁এসিড	-10.9693
▁ব্রিটেন	-10.9694
▁কলুষিত	-10.97
▁প্লে	-10.9701
▁রাসেল	-10.9702
▁ঘোষণার	-10.9704
▁প্রতিবন্ধকতা	-10.9706
▁বাঘ	-10.9709
▁বসা	-10.9712
▁দেখবে	-10.9714
▁ব্যাবসা	-10.9715
▁প্রচ্ছদ	-10.9715
▁অভ্যস্ত	-10.9715
▁ট্রেডমার্ক	-10.9715
▁সমাদর	-10.9716
▁গণমাধ্যম	-10.9716
দেহ	-10.9718
▁বেস	-10.9718
ানন্দ	-10.9722
▁হেরে	-10.9723
▁নামিয়ে	-10.9724
▁জড়	-10.9726
িরা	-10.9729
▁কুয়েত	-10.973
▁লাহোর	-10.973
নিউ	-10.973
▁আরোহণ	-10.973
▁পরিচালনায়	-10.9731
▁যোনা	-10.9732
▁খেতাব	-10.9733
যার	-10.9735
ক্ষা	-10.9736
সাল	-10.9736
▁থি	-10.9736
▁অধিবাসীদের	-10.9737
▁বেদনা	-10.9737
▁ফলক	-10.9737
▁দেখবেন	-10.9739
রুপ	-10.9739
▁ভালবাসে	-10.974
▁ধারে	-10.9743
▁পাহাড়ি	-10.9743
▁অনুভূতির	-10.9744
▁ইব্রাহিম	-10.9746
▁অবজ্ঞা	-10.9753
▁চুক্তিতে	-10.9754
▁তুলা	-10.9754
্যান্ট	-10.9755
▁৮৭	-10.9756
▁লাগা	-10.9757
▁ভূত	-10.9759
▁ক্যাপ	-10.976
▁বেথেলে	-10.9762
▁গাজা	-10.9762
▁গোপনীয়তা	-10.9763
▁মানিয়ে	-10.9769
▁ঢেকে	-10.977
▁জাপানী	-10.9773
▁নূর	-10.9774
▁আলা	-10.9776
▁বিকশিত	-10.9777
▁বছরগুলোতে	-10.9777
▁দেবো	-10.9779
▁রক্ষণশীল	-10.978
▁কর্মসূচী	-10.9781
▁বদ্ধ	-10.9782
▁ইতালীয়	-10.9786
শালা	-10.9786
▁আর্টস	-10.9789
▁ততই	-10.9789
▁নিম্নরূপ	-10.979
▁তলা	-10.9792
▁যৌনতা	-10.9792
▁মেধা	-10.9792
▁সেক্রেটারি	-10.9793
▁সাব্যস্ত	-10.9793
▁পরিহার	-10.9795
▁পৃষ্ঠ	-10.9797
▁শেল	-10.9799
▁যিহুদিদের	-10.98
রিস	-10.9804
▁চার্চের	-10.9804
▁গোল্ড	-10.9805
▁মোড	-10.9806
▁রেমিটেন্স	-10.9808
▁বহাল	-10.9809
▁নক্ষত্র	-10.981
▁পলায়ন	-10.9811
▁স্টাইল	-10.9812
▁স্নায়ু	-10.9812
য়েভ	-10.9813
▁হাতি	-10.9817
▁১৯৩৬	-10.9822
▁ট্রাফিক	-10.9824
▁ভিডিওর	-10.9826
▁১৯২২	-10.9826
▁১৯১৮	-10.9834
▁চড়ে	-10.9834
▁দেখাবে	-10.9839
▁কাঁঠাল	-10.9839
▁প্রাচীনতম	-10.9841
▁সোমবার	-10.9842
▁শৈলী	-10.9845
্লি	-10.9851
িয়াম	-10.9854
▁আত্মসমর্পণ	-10.9855
▁মুর্শিদাবাদ	-10.9856
▁সাহা	-10.9856
▁অনন্তকাল	-10.9857
িমা	-10.9861
▁খনিজ	-10.9862
▁গরু	-10.9863
▁সময়কার	-10.9869
▁নিক	-10.9871
▁চিঠিতে	-10.9872
ষণ	-10.9873
▁আইকন	-10.9874
▁তাড়া	-10.9875
▁পেল	-10.9875
▁পাতলা	-10.9876
▁মণ্ডলীকে	-10.9877
▁শিল্পকলা	-10.9878
▁সত্যকে	-10.9878
▁নির্দেশনার	-10.988
▁ফায়ার	-10.988
▁বিষয়কে	-10.988
▁কয়েকদিন	-10.9883
▁বিশ্বাসে	-10.9885
▁বিষয়শ্রেণী	-10.9885
মিয়া	-10.9886
▁অভিনন্দন	-10.9887
▁প্রেক্ষাপটে	-10.9887
▁ভারসন	-10.989
▁কমই	-10.9891
▁ম্যাপ	-10.9892
পাস	-10.9894
▁পায়নি	-10.9895
রেখা	-10.9895
▁আর্জেন্টিনা	-10.9897
▁সেন্সর	-10.9903
্ল	-10.9905
▁রাশি	-10.9906
▁ছুটে	-10.9906
▁আগেও	-10.9907
▁জোন	-10.9908
▁ভূমিহীন	-10.9908
▁পরমদেশে	-10.9909
▁হিন্দুদের	-10.9912
▁মাত্রার	-10.9916
▁ভাববাণী	-10.9919
▁পারস্য	-10.9919
▁জাগতিক	-10.9919
▁আইস	-10.992
▁দাঁড়	-10.9922
▁শিখেছি	-10.9929
▁জীবাণু	-10.9934
জিন	-10.9941
▁চিনতে	-10.9947
▁কার্যক্রমে	-10.9947
▁স্বত্ব	-10.9948
বিশ্বস্ত	-10.9949
▁ইম্পোর্ট	-10.995
▁প্রতীয়মান	-10.995
▁উন্মোচন	-10.995
▁মূল্যবোধ	-10.995
▁মনকে	-10.995
▁বুকমার্ক	-10.9951
যোগ	-10.9959
▁রাজবংশ	-10.9959
লাস	-10.9967
▁শোষণ	-10.9967
▁মোটর	-10.9968
▁ফাইনালে	-10.9971
▁বাঁচাতে	-10.9975
▁মারতে	-10.9981
▁বিষাক্ত	-10.9982
▁দৈহিক	-10.9982
পস	-10.9987
মায়ের	-10.9989
বর্তমানে	-10.999
মোর	-10.9992
▁জিম	-10.9993
▁প্রকাশ্যে	-10.9997
▁ল্যাঙ্গুয়েজ	-10.9997
▁সর্বোপরি	-10.9997
▁রেজা	-10.9999
▁পাশ্চাত্য	-10.9999
▁সহস্র	-10.9999
▁আইনটি	-11.0002
▁অসহায়	-11.0003
▁কারাগার	-11.0003
▁একতাবদ্ধ	-11.0007
▁অব্যাহতি	-11.0007
▁তর	-11.0007
▁গাই	-11.0008
বীর	-11.0009
▁আসত	-11.0009
▁উপজাতি	-11.0011
▁শাহের	-11.0012
▁লং	-11.0013
▁দূষিত	-11.0013
▁ধূমপান	-11.0013
▁বৃষ্টির	-11.0013
▁গ্রামীণফোন	-11.0014
▁মার্কেট	-11.0015
▁ঘাট	-11.0015
বড়	-11.0016
▁কালা	-11.0019
▁গুণগুলো	-11.002
▁উদ্দিন	-11.0022
যিহোবা	-11.0024
ক্র	-11.0027
▁অধ্যায়ের	-11.0028
ড়ী	-11.0029
গী	-11.0032
▁চাচ্ছি	-11.0032
▁বিস্ফোরণ	-11.0035
▁পাইবে	-11.0036
▁সিংহাসনে	-11.0038
▁ছন্দ	-11.0038
▁সেজন্য	-11.0039
ধু	-11.004
সুবিধা	-11.0041
▁হার্ড	-11.0041
চো	-11.0044
▁চেপে	-11.0047
▁উপকারজনক	-11.0048
▁ব্রাউজার	-11.005
▁খলিফা	-11.0051
▁সৈন্যবাহিনী	-11.0053
▁থাইল্যান্ডের	-11.0054
▁দিও	-11.0055
▁নিজেরাই	-11.0055
িংয়ের	-11.0057
▁কেস	-11.0059
যিশা	-11.0064
▁যিহূদার	-11.0065
▁বাঁচিয়ে	-11.0065
বোর্ড	-11.0068
▁নারীবাদী	-11.007
▁ট্যাপ	-11.0073
▁জাম	-11.0076
টাইম	-11.0076
▁শমূ	-11.0077
▁ক্রিয়েটিভ	-11.0077
য়াং	-11.0078
▁স্বার্থে	-11.0079
▁অভিবাসন	-11.0082
পাত্র	-11.0085
▁ফ্যাক্টরি	-11.0086
▁বন্ধুবান্ধব	-11.0089
ত্বের	-11.0092
▁তোমায়	-11.0096
▁পাচ্ছেন	-11.0104
তাদের	-11.0106
কোর	-11.0107
▁জাহাজে	-11.0108
▁শব্দটা	-11.0109
অনু	-11.0109
▁পূর্বাভাস	-11.011
▁বোতল	-11.0114
▁ঠেলে	-11.0115
▁ক্রা	-11.0115
▁ভালবাসেন	-11.0117
▁সঙ্গীতের	-11.0117
▁বোলার	-11.0118
▁শোনেন	-11.0118
▁মাধ্যমের	-11.0122
▁সুফি	-11.0122
▁জাদু	-11.0122
▁মেনু	-11.0125
▁সিম	-11.0125
▁অবতরণ	-11.0125
▁অভিযানে	-11.0126
▁প্যানেল	-11.0129
▁মসজিদটি	-11.0131
▁হিংস্র	-11.0134
▁পছন্দের	-11.0136
▁স্টেশনের	-11.014
য়াস	-11.0141
▁ডিভিশন	-11.0142
▁পরিকল্পিত	-11.0142
পূর্বে	-11.0142
▁এলে	-11.0145
তোমাদের	-11.0146
▁রোমের	-11.0147
▁ভূমিকম্পের	-11.0149
▁ব্যবস্থাকে	-11.015
▁সাথি	-11.0154
▁দোষারোপ	-11.0158
▁শুমারি	-11.0158
▁ক্ষতির	-11.016
▁দেশগুলোতে	-11.016
সামাজিক	-11.0161
▁স্পেনীয়	-11.0166
▁অসীম	-11.0168
▁আনোয়ার	-11.0168
▁চাকুরি	-11.0169
▁প্রত্যয়	-11.0173
▁বক্তৃতার	-11.0176
কর্তা	-11.018
▁মাউন্ট	-11.0181
▁নভেম্বরে	-11.0181
▁সিঁড়ি	-11.0183
▁সালাম	-11.0184
▁ঐক্য	-11.0186
মতো	-11.0189
▁ফ্রেঞ্চ	-11.0191
▁সমৃদ্ধি	-11.0192
▁খেল	-11.0192
ীভূত	-11.0197
▁রেশম	-11.0199
▁প্রজ্ঞার	-11.02
▁কুমারী	-11.0201
সত্য	-11.0201
▁মঙ্গলের	-11.0205
▁স্টাডি	-11.0205
▁প্ল্যাটফর্ম	-11.0206
▁ধোঁয়া	-11.0206
▁অজ্ঞাত	-11.0208
▁লেনদেন	-11.0209
▁সংখ্যালঘু	-11.021
▁সততা	-11.0215
▁পৌর	-11.0216
▁লাগানোর	-11.0219
▁খোলার	-11.022
▁ব্যাকরণ	-11.0222
▁গাণিতিক	-11.0223
▁সমবেত	-11.0223
▁ভাববিনিময়	-11.0223
দিনের	-11.0224
▁ভ্রাতা	-11.0225
ফুল	-11.0225
▁পূর্ণাঙ্গ	-11.0226
িটি	-11.0231
▁৭৯	-11.024
▁ব্র	-11.0242
▁অতীব	-11.0242
▁করানোর	-11.0248
▁লাই	-11.0251
▁নাক	-11.0251
▁উড়ে	-11.0252
▁প্রয়াস	-11.0257
▁ঘড়ি	-11.0257
২০০৫	-11.026
▁সিন	-11.0261
চিত্ত	-11.0262
▁সংঘর্ষের	-11.0262
িদের	-11.0264
▁মহামারী	-11.0264
▁কাটাতে	-11.0271
▁সঞ্চালন	-11.0272
▁কেনা	-11.0275
▁যুবতী	-11.0276
▁বর্ষণ	-11.0278
▁সাইটে	-11.0282
▁অন্ধকারে	-11.0284
▁খাই	-11.0284
+	-11.0286
▁দরুন	-11.0289
▁কলম	-11.029
পন্ন	-11.0294
▁যেখান	-11.0296
▁জানাচ্ছেন	-11.0296
▁ইউটিউবে	-11.0297
▁১৯২৯	-11.0297
▁তাও	-11.0297
▁ভরসা	-11.0298
গল	-11.0301
▁সমস্যাগুলো	-11.0303
▁ডোমেইন	-11.0304
▁গর্ভপাত	-11.0305
▁বলিউড	-11.0306
ভু	-11.0306
ত্	-11.0309
▁সভাতে	-11.0309
লির	-11.0311
▁বিগ	-11.0312
বিচার	-11.0312
▁কন্ট্রোল	-11.0313
▁২৫০	-11.0314
▁ইল	-11.0316
▁সাফ	-11.0319
▁চ্যাপলিন	-11.0321
▁প্যারা	-11.0323
▁বসবাসরত	-11.0323
▁বাণিজ্যের	-11.0323
র্ড	-11.0326
▁প্রণয়নের	-11.0327
▁ফাঁদ	-11.0328
ীতে	-11.0331
▁নার্স	-11.0331
▁মৌখিক	-11.0331
▁বোধগম্যতা	-11.0334
▁জজ	-11.0335
▁সাইবার	-11.0335
▁পুরা	-11.0335
▁ভট্টাচার্য	-11.0337
▁ভিউ	-11.0339
▁এসএমএস	-11.034
শাসিত	-11.0341
▁ভোজ	-11.0344
▁সেগুলির	-11.0346
▁তোমাদেরকে	-11.0351
▁১৯৩৩	-11.0354
▁বর্জ্য	-11.0356
▁আশায়	-11.0356
ানা	-11.0357
▁পুত্রকে	-11.0358
▁হাস	-11.0359
▁সস্তা	-11.0362
▁ছেলেমেয়ে	-11.0363
▁সিঙ্গাপুরের	-11.0366
▁সীমান্তে	-11.0367
▁আবির্ভাব	-11.037
▁আইয়ুব	-11.037
▁প্রোফাইল	-11.037
▁গাঢ়	-11.0371
▁শোন	-11.0371
▁বাড়ছে	-11.0371
▁ডজন	-11.0374
▁বেইজিং	-11.0375
▁আন্তরিকভাবে	-11.0375
▁আদায়ের	-11.0375
▁বাদশাহ	-11.0378
ক্ষেত্র	-11.0378
▁গোড়ার	-11.0379
▁বিয়ার	-11.038
▁আশেপাশে	-11.038
▁নিয়েছিলাম	-11.0381
▁পরিতৃপ্তি	-11.0382
▁দুষ্টতা	-11.0382
▁বৈধতা	-11.0383
▁ব্যাবহার	-11.0385
▁চিংড়ি	-11.0387
▁লোকই	-11.039
▁দুজনের	-11.039
▁গভীরতা	-11.039
▁প্ল্যান	-11.039
▁হিরো	-11.0391
▁পট	-11.0392
▁ব্যাপারটি	-11.0394
▁কথার	-11.0395
▁মিউজিয়াম	-11.0403
▁দীর্ঘস্থায়ী	-11.0404
▁শুনি	-11.0409
▁মহারাষ্ট্র	-11.0409
▁পড়লে	-11.041
▁ফো	-11.041
▁পালনের	-11.0418
▁প্রাপ্তির	-11.0418
▁সম্প্রসারিত	-11.042
▁রোগীদের	-11.042
▁একাদশ	-11.0426
▁১৯২৮	-11.0429
ধন	-11.0434
▁কোম্পানীর	-11.0435
▁হুগলি	-11.0437
ঢ	-11.0439
পশ্চিমে	-11.0442
▁কক্ষে	-11.0443
জাই	-11.0449
▁মালিকের	-11.0449
▁বিকাশের	-11.0456
▁৮২	-11.0457
▁ইয়েমেন	-11.0459
▁প্রবেশপথ	-11.0464
াঞ্চল	-11.0466
▁৯৬	-11.0469
▁বাড়ানো	-11.047
ভঙ্গ	-11.0473
▁আগ্রহজনক	-11.0473
▁স্বার্থপর	-11.0474
▁বর্ষা	-11.0476
▁ফির	-11.0477
▁হিম	-11.0479
▁উপাসকদের	-11.0479
▁উপস্থিতির	-11.048
▁গেজেটে	-11.0485
স্তান	-11.0486
২০০	-11.0487
▁দেশকে	-11.0488
▁সামর্থ্য	-11.0488
▁রোগী	-11.049
▁কথাও	-11.0492
▁বসন্ত	-11.0492
▁মুসা	-11.0493
টাও	-11.0494
▁হারায়	-11.0494
▁দেখিয়েছে	-11.0498
▁হাওয়া	-11.05
▁নিয়ন্ত্রন	-11.0503
▁বিজনেস	-11.0503
স্টা	-11.0506
▁দেখেছিল	-11.0506
▁সাধারন	-11.0507
▁বিছানা	-11.0509
▁হাঁ	-11.051
বাক্য	-11.051
▁শার্ট	-11.0512
দেখ	-11.0513
▁মেলে	-11.0514
ল্লি	-11.0516
▁বেকার	-11.0518
▁একদিকে	-11.0519
▁চক্রবর্তী	-11.052
▁আড্ডা	-11.052
▁ছুরি	-11.0524
▁ময়লা	-11.0524
থে	-11.0525
পক্ষ	-11.0528
▁সময়েই	-11.0528
▁বিলি	-11.0529
▁ন্যা	-11.053
▁ভোটার	-11.0532
২০০৪	-11.0534
▁বুকে	-11.0536
▁গৌড়	-11.0537
শ্চ	-11.055
▁ঈদ	-11.0555
▁পাপী	-11.0555
▁ভবিষ্যত	-11.0556
ৎস	-11.0558
▁গাওয়া	-11.0563
▁ইয়েমেনের	-11.0564
▁বিশ্বকাপে	-11.0566
▁মজুরি	-11.0567
▁বীমাকারী	-11.057
▁তন্মধ্যে	-11.057
ইয়ে	-11.0578
সুলভ	-11.058
▁লেডি	-11.0583
▁নাটকের	-11.0585
▁শীর্ষচরণ	-11.0587
▁ট্রা	-11.0588
▁অপরদিকে	-11.0588
ব্বা	-11.0589
▁আমিই	-11.059
▁চারটে	-11.0591
▁অবি	-11.0591
হাট	-11.0591
অথবা	-11.0592
ক্ট	-11.0605
▁পরিবেশগত	-11.0605
▁শেখানো	-11.0606
▁পূর্বেই	-11.0607
দয়া	-11.0608
▁শালা	-11.0609
াইড	-11.061
▁বসানো	-11.0611
▁পড়ল	-11.0612
▁ক্রু	-11.0614
পথে	-11.0615
▁প্রতিভা	-11.0616
▁স্বীয়	-11.0618
▁বিড়াল	-11.062
▁মাঝারি	-11.0621
▁মন্ত্র	-11.0622
▁ইয়র্কের	-11.0625
▁ক্যাম্পাস	-11.0628
▁জ্ঞানী	-11.0631
▁ফোর্স	-11.0632
▁ফ্যা	-11.0634
▁সেঞ্চুরি	-11.0638
▁কাভারেজের	-11.0638
▁পাসপোর্ট	-11.0638
▁ক্রমে	-11.0645
▁চট্টগ্রামে	-11.0646
াত্মক	-11.0649
▁স্থানীয়ভাবে	-11.0649
▁উঠল	-11.0653
▁যো	-11.0655
▁অস্ট্রেলীয়	-11.0655
▁টাঙ্গাইল	-11.0656
▁বন্টন	-11.0656
▁স্বাস্থ্যসেবা	-11.0656
জাল	-11.0657
▁কুরআন	-11.0657
▁নিষ্কাশন	-11.0657
▁পরপরই	-11.0659
যান	-11.066
লিপি	-11.0664
েদ	-11.0666
▁বাহরাইন	-11.0667
ধার	-11.067
▁টেলিভিশনে	-11.067
▁নিয়েছি	-11.067
িয়াস	-11.0671
বিভাগ	-11.0673
▁পাল্টা	-11.0673
▁হতেন	-11.0678
▁ভবিষ্যদ্বাণীর	-11.0679
▁ফেলেন	-11.0681
▁তত্ত্বাবধানে	-11.0688
দক্ষিণ	-11.0692
▁মানবজাতিকে	-11.0693
▁অঞ্চলটি	-11.0693
▁ব্রিটিশদের	-11.0694
▁ধার্য	-11.0694
বার্ট	-11.0698
▁এরিক	-11.0698
পাকিস্তান	-11.0701
▁যেতাম	-11.0702
▁ইয়াং	-11.0706
▁সাধু	-11.0706
▁বর্ষসেরা	-11.0706
▁স্বামীকে	-11.0707
▁নেতৃত্বাধীন	-11.0707
▁সমস্যায়	-11.0714
▁নিয়মের	-11.0722
টান	-11.0722
▁ভাগাভাগি	-11.0723
▁নিম্নোক্ত	-11.0723
▁প্রশিক্ষিত	-11.0724
▁শিল্পকর্ম	-11.0725
▁তরুণদের	-11.0726
▁কাকে	-11.073
▁গতিতে	-11.0735
▁সার্বিক	-11.0735
যুবতীদের	-11.0735
▁গাইড	-11.0737
▁বলতেন	-11.0737
▁৯৮	-11.0739
▁মহাযাজক	-11.074
▁তাজা	-11.0741
▁ধরেছেন	-11.0741
চল	-11.0742
▁সংস্কৃতিতে	-11.0742
▁মেজাজ	-11.0742
▁অবিশ্বাস্য	-11.0743
▁যুবরাজ	-11.0743
্সের	-11.0744
▁দেখছে	-11.0746
রেন	-11.0749
▁হেসে	-11.0755
▁প্রাণপণ	-11.0758
▁পুরোপুরিভাবে	-11.0758
ট্রা	-11.076
উপদেশক	-11.0762
▁উন্নয়নশীল	-11.0764
▁ক্লাসে	-11.0768
▁আড়াল	-11.077
▁বিস্ময়	-11.077
▁মৌল	-11.0771
মৃত্যু	-11.0773
▁সাদৃশ্য	-11.0774
▁আলোকপাত	-11.0775
গুন	-11.0775
▁স্বচ্ছ	-11.0776
▁উভয়েই	-11.0777
▁দর্শনের	-11.0778
▁প্রমান	-11.0778
াবে	-11.0778
▁খেলেছেন	-11.0778
▁হাসিনা	-11.078
দেশের	-11.0781
▁উসমানীয়	-11.0782
▁পদ্মা	-11.0783
বিধান	-11.0784
▁স্কোর	-11.0784
▁ব্লকের	-11.0788
▁মামলায়	-11.0789
▁মর্মে	-11.0789
▁শিলালিপি	-11.079
▁কমেডি	-11.0791
▁জিতে	-11.0801
ঙ্গো	-11.0806
▁মেষপালক	-11.0806
▁দীপ্তি	-11.0807
▁ইজ	-11.0807
সেস	-11.0808
▁জ্যেষ্ঠ	-11.081
▁আক	-11.0811
▁নিয়োগের	-11.0815
▁ওয়েন	-11.0815
▁অদ্বিতীয়	-11.0817
সিদ্ধ	-11.0818
ড়িয়া	-11.082
▁সুবিধার	-11.082
▁নিকটতম	-11.082
▁মর্	-11.0824
মানব	-11.0827
▁কতখানি	-11.0827
▁গন্তব্য	-11.0828
▁সাংবাদিকতা	-11.0829
▁ব্র্যান্ড	-11.083
▁ইন্ডিজ	-11.084
▁ইয়ার	-11.0841
লিস	-11.0841
▁টেক	-11.0842
▁দরখাস্ত	-11.0844
▁ট্যাক্সি	-11.0844
▁লীগে	-11.0847
▁উপাদানের	-11.0848
গম	-11.0848
▁কাগজে	-11.0848
▁সুরক্ষার	-11.0849
▁বিলম্ব	-11.085
্জ	-11.085
▁স্টাডিজ	-11.0851
▁যাত্রার	-11.0853
▁পূর্ণরূপে	-11.0857
▁সবকিছুই	-11.0858
▁জাগ	-11.0858
জীবী	-11.0859
▁ট্রাইব্যুনাল	-11.0861
▁পৌরাণিক	-11.0861
▁ঘরবাড়ি	-11.0863
▁কর্ম্ম	-11.0864
বার্গ	-11.0867
প্রথম	-11.0869
▁সেনাবাহিনীতে	-11.087
▁করিয়াছে	-11.0874
▁লেখায়	-11.0874
▁সংশোধনী	-11.0874
▁কথাগুলোর	-11.0881
▁ভালোবাসেন	-11.0882
সিটি	-11.0884
▁ঘুর	-11.0886
মণি	-11.0889
য়ু	-11.0891
র্দ	-11.0893
▁চাইবে	-11.0894
▁পাঠিয়েছিলেন	-11.0898
▁চল্লিশ	-11.0899
▁বাষ্প	-11.09
▁বিষয়টাকে	-11.0903
▁প্রস্ত্তত	-11.0907
▁ঘণ্টার	-11.0909
▁পীর	-11.0911
▁মিন	-11.0911
▁পুস্তিকা	-11.0914
র্ধ	-11.0914
বুক	-11.0918
▁বিদ্যুত	-11.092
▁চাকরির	-11.092
▁সমুদ্রে	-11.0924
ঙ্গু	-11.0924
▁স্টেডিয়ামে	-11.0926
২০০২	-11.0926
▁শব্দটির	-11.0928
▁মুন	-11.0929
▁ভেদ	-11.0929
াবলি	-11.0929
▁হইলে	-11.0929
▁বেদনাদায়ক	-11.0931
▁শরীফ	-11.0932
▁খে	-11.0934
▁পৃ	-11.0936
পুরে	-11.0937
▁সহবিশ্বাসীদের	-11.0937
▁অত	-11.0938
একটা	-11.0941
▁মাহ	-11.0941
▁খ্রিষ্টাব্দে	-11.0943
মায়েরা	-11.0944
▁আশ	-11.0947
▁আত্মীয়স্বজন	-11.0948
▁দড়ি	-11.0949
▁কাঠামোর	-11.0949
▁তুষার	-11.0949
▁আপিল	-11.095
▁অক্ষ	-11.0951
▁সম্মুখ	-11.0954
পন	-11.0955
▁যিশা	-11.0961
▁ইন্সটিটিউট	-11.0966
▁বরখাস্ত	-11.0966
▁হেলিকপ্টার	-11.0966
▁আপডেট	-11.0966
▁গ্রীন	-11.0966
▁সত্তা	-11.0973
শার	-11.0974
▁ফাঁদে	-11.0976
▁ইজরায়েল	-11.0976
▁মানবজাতি	-11.0978
▁কয়েকবার	-11.0981
▁জোয়ার	-11.0981
▁পুঙ্খানুপুঙ্খ	-11.0984
▁কুস্তি	-11.0985
িয়ন	-11.0985
▁ঋণের	-11.0987
▁সীমার	-11.0989
▁অ্যাড	-11.0989
▁বিজ্ঞানীরা	-11.0994
বাহিনী	-11.0997
▁মস্কো	-11.1001
▁প্রত্যাশিত	-11.1001
▁উচ্ছেদ	-11.1002
▁হেল	-11.1006
▁আটটি	-11.1006
▁ইয়ে	-11.1008
▁১৯২৬	-11.1011
▁পিতামাতার	-11.1012
মুরগির	-11.1017
▁শীতকালীন	-11.1019
▁মহিলারা	-11.1019
▁স্বর্গদূত	-11.102
▁আফগানিস্তানে	-11.1021
▁প্রতিফলন	-11.1022
▁ততক্ষণ	-11.1024
▁আগমনের	-11.1024
▁বিহারের	-11.1029
▁অনুকূল	-11.1029
▁তারিখের	-11.1036
▁ড্রাইভার	-11.1036
▁টমাস	-11.104
▁ততটা	-11.104
▁পাড়ি	-11.1041
▁শিক্ষাগুলো	-11.1044
▁প্রাপ্য	-11.1044
▁ড্রাইভ	-11.1044
প্রকা	-11.1049
▁রেজিমেন্ট	-11.1052
▁উকিল	-11.1054
াঙ্ক	-11.1054
▁গ্রাস	-11.1056
রেস	-11.1057
▁ভালোবাসার	-11.1064
▁সহযোগিতায়	-11.1065
▁লেগেছিল	-11.1065
▁উঠি	-11.1067
▁প্রতিবেশীদের	-11.107
▁আদেশের	-11.1072
▁অশ্লীল	-11.1072
▁রহমানের	-11.1076
সিল	-11.1078
▁কেনিয়া	-11.1079
লাইট	-11.1081
▁উদ	-11.1081
▁মালয়েশিয়ার	-11.1083
▁ভালোবাসে	-11.1085
▁১০৩	-11.1091
▁নিখিলবিশ্ব	-11.1092
▁বাদ্যযন্ত্র	-11.1098
▁লুট	-11.11
▁আত্মাকে	-11.1101
নং	-11.1104
▁নির্বাসিত	-11.1107
▁ক্ল	-11.1107
▁ধর্মান্তরিত	-11.1108
শাসন	-11.111
▁টাই	-11.111
বিন্যাস	-11.1115
▁মিনি	-11.1115
▁কর্পোরেশনের	-11.1117
▁শিক্ষকতা	-11.1125
▁নোয়াখালী	-11.1126
▁পাও	-11.1126
ভেদ	-11.1127
▁সামঞ্জস্যপূর্ণ	-11.1127
▁অনুপ্রেরণা	-11.1131
▁ডিস্কে	-11.1135
▁পুল	-11.1135
▁তীত	-11.1136
▁দশম	-11.1137
▁ঈর্ষা	-11.114
▁সিগারেট	-11.1142
ুম	-11.1148
▁লিখেন	-11.1152
▁প্রবাদ	-11.1153
▁জৈন	-11.1153
▁মাতাল	-11.1154
াশ	-11.1155
▁ইসরায়েল	-11.1155
▁দৈত্য	-11.1158
াইন	-11.1158
সভা	-11.1158
ভূ	-11.1159
▁গড	-11.1159
▁ইথিওপিয়া	-11.116
▁মেসেজ	-11.116
▁ড্যানিয়েল	-11.116
▁অধিগ্রহণ	-11.1161
▁কালী	-11.1161
▁সমাজতান্ত্রিক	-11.1161
▁ফ্রাঙ্ক	-11.1161
▁হোটেলে	-11.1162
▁বিপন্ন	-11.1164
▁১৩০	-11.1166
▁ভূমিতে	-11.1167
▁অভিযোগের	-11.1168
▁বিস্তর	-11.1171
▁দেওয়াল	-11.1173
▁ঋতু	-11.1174
▁শলোমনের	-11.1175
▁বুদ্ধ	-11.1177
▁পৌত্তলিক	-11.1178
▁মনোরম	-11.118
▁পরগনা	-11.1182
▁করেছো	-11.1185
▁রাইট	-11.1192
▁ঘু	-11.1192
▁সবচাইত	-11.1197
▁অবশিষ্টাংশ	-11.1197
▁অন্তর্দৃষ্টি	-11.1197
িফ	-11.1199
জগতের	-11.1204
খালী	-11.1205
▁প্রতিবছর	-11.1208
▁ভিতরের	-11.1209
▁পড়েছেন	-11.1212
▁ইনস্টল	-11.1214
▁নিম্নবর্ণিত	-11.1214
▁ধনসম্পদ	-11.1214
▁৮১	-11.1215
▁শের	-11.1216
▁অনশন	-11.1217
▁জ্যোতি	-11.1222
চির	-11.1226
▁বাতি	-11.1227
▁জর্ডান	-11.1229
তান	-11.1232
▁মুহাম্মাদ	-11.1232
▁জেরুজালেম	-11.1233
▁মুখ্যমন্ত্রী	-11.1233
▁লেখ	-11.1234
▁চড়া	-11.1238
▁জানুয়ারিতে	-11.1239
▁দুইবার	-11.1243
▁লেখকদের	-11.1245
▁ডিপার্টমেন্ট	-11.1246
▁শিখা	-11.1247
▁প্রচন্ড	-11.125
▁আকাশের	-11.125
▁আক্রমন	-11.125
▁আইরিশ	-11.125
▁আহার	-11.125
▁খেলনা	-11.1251
▁মুভি	-11.1254
▁অধিবেশনে	-11.1256
▁একীভূত	-11.126
▁পাথ	-11.1262
গতভাবে	-11.1263
র্ম	-11.1263
▁ইতালি	-11.1264
▁সাগরের	-11.1265
▁চিত্রনাট্য	-11.1267
▁নিখোঁজ	-11.1268
▁স্পেশাল	-11.1268
▁অগভীর	-11.1269
▁সত্যজিৎ	-11.127
ডের	-11.1275
▁ল্যাব	-11.1276
▁অর্থপূর্ণ	-11.1277
▁মিশে	-11.1278
▁৯৩	-11.1279
▁কর্মসংস্থান	-11.1282
▁প্রয়োগের	-11.1283
▁অন্ত	-11.1283
▁ধাপে	-11.1284
▁আসেনি	-11.1286
▁গর্ভবতী	-11.1286
▁মার্চে	-11.1287
▁বুধবার	-11.1287
▁ঘটাতে	-11.1293
▁পন্থা	-11.1296
গাল	-11.1296
▁জাতের	-11.1296
▁নেটওয়ার্কের	-11.1297
▁আধ	-11.13
ালী	-11.13
▁পর্বতে	-11.1301
▁জুটি	-11.1302
▁সংস্করণে	-11.1302
▁অস্থির	-11.1302
▁অভিশাপ	-11.1304
▁১৯৩৪	-11.1304
▁টোকিও	-11.1305
তঃ	-11.1305
▁টিকিট	-11.1307
▁বলত	-11.131
▁বিক্ষোভকারীদের	-11.1314
▁ক্ষমতাকে	-11.1314
▁পরিদর্শক	-11.1316
▁বাজি	-11.1318
ঈ	-11.1319
▁কাতার	-11.1319
▁খেলাধুলা	-11.1322
▁কোয়ান্টাম	-11.1322
▁ইকবাল	-11.1323
▁আমাদিগকে	-11.1324
▁সমা	-11.1324
▁দম্পতির	-11.1324
▁বাহ্যিক	-11.1325
▁শুনেছিলেন	-11.1327
▁মাধ্যমেই	-11.1331
কারক	-11.1332
▁গুল	-11.1335
▁সৃজনশীল	-11.1335
▁খেলোয়াড়দের	-11.1337
▁পরাজয়	-11.1337
▁ব্রাহ্মণ	-11.134
▁ওবামা	-11.1341
▁পেরিয়ে	-11.1342
▁শাস্ত্রে	-11.1345
▁চাষের	-11.1347
প্রত্যেক	-11.1348
▁ধরো	-11.135
▁ব্যক্তিত্বের	-11.135
▁দেয়ালে	-11.1351
▁আবিষ্কারের	-11.1356
▁স্ত্রীলোক	-11.1356
▁সভ্যতার	-11.1357
▁গালা	-11.1359
▁সরিষা	-11.1359
▁রোবট	-11.1359
▁ডেভেলপমেন্ট	-11.1361
▁ক্যাম্পে	-11.1364
▁মাতৃ	-11.1365
▁ফিজি	-11.1366
▁পানীয়জল	-11.1368
▁তিল	-11.1371
ষ্ক	-11.1372
▁মৃতদের	-11.1372
▁হবা	-11.1372
র্ব	-11.1374
▁সমূদ্র	-11.1377
▁গরিব	-11.1377
▁গিয়েছেন	-11.1378
▁জানাচ্ছি	-11.138
▁লিখ	-11.1381
▁বব	-11.1381
▁আনি	-11.1382
বাড়ী	-11.1382
ইড	-11.1383
▁নিলে	-11.1383
দূর	-11.1384
শ্রী	-11.1385
▁বলিভিয়া	-11.1385
▁বোঝানো	-11.1387
▁সকলই	-11.1395
ফ্রি	-11.1396
▁ব্রাউন	-11.1397
▁এলাকাটি	-11.1397
▁বাধ্যতা	-11.14
▁ডাকে	-11.1405
▁হামলায়	-11.1406
▁বয়সি	-11.1407
▁তুলি	-11.1408
▁মধ্যম	-11.1408
▁নিলাম	-11.1409
▁ঈ	-11.1409
▁বেগ	-11.1411
▁পার্স	-11.1415
▁এইজন্য	-11.1416
সাধন	-11.1416
▁স্মরণীয়	-11.1417
ধীন	-11.1419
▁প্রতিষ্ঠানটি	-11.1419
বংশ	-11.1421
▁টেলিভিশনের	-11.1421
▁করেছিলো	-11.1422
▁চারপাশের	-11.1423
▁ছা	-11.1424
▁তাৎপর্য	-11.1426
ান্তর	-11.1426
▁প্রতিকূল	-11.1426
▁ভাবি	-11.1427
▁ওয়ার্ক	-11.143
▁কম্পিউটারের	-11.1431
▁ব্যতিরেকে	-11.1432
▁মাদ্রাজ	-11.1432
▁মাফ	-11.1433
▁আবদুর	-11.1433
ঝা	-11.1434
▁কান্না	-11.1434
▁মুনাফা	-11.1434
▁শ্রীলঙ্কার	-11.1435
▁জারী	-11.1435
▁সোর্স	-11.1436
ভেল	-11.1436
▁ভালবাসার	-11.1436
গালাতীয়	-11.1438
িউ	-11.1441
▁কবে	-11.1442
▁বিজয়ের	-11.1443
▁রবি	-11.1444
▁ঢুকতে	-11.1446
▁বিশ্বাসঘাতকতা	-11.1447
ভিয়া	-11.1449
▁দুনিয়া	-11.145
▁কুটিরশিল্প	-11.1451
▁বৃহস্পতিবার	-11.1451
▁সিরিজে	-11.1455
▁প্লাটফর্ম	-11.1469
▁জনক	-11.1469
য়ার্স	-11.1471
ন্দি	-11.1472
▁লিগ	-11.1472
▁বণিক	-11.1473
▁ওয়াটার	-11.1475
এসএ	-11.1476
▁রাজাদের	-11.1477
▁মহিমা	-11.1478
▁ছুঁড়ে	-11.148
▁বাহিনীকে	-11.148
▁পরিমান	-11.1481
▁শীর্ষক	-11.1481
১০০	-11.1482
▁তিমি	-11.1485
রাজা	-11.1486
▁মজুমদার	-11.1487
▁যুগ্ম	-11.1489
▁সুদান	-11.149
সম্পদ	-11.1491
▁ছেলেরা	-11.1492
▁প্রতিহত	-11.1496
▁দেবতাদের	-11.1499
প্রভু	-11.1501
▁তবু	-11.1506
▁বিকিরণ	-11.1506
ম্বার	-11.1508
প্লা	-11.1509
▁আনন্দদায়ক	-11.1509
তাত্ত্বিক	-11.1511
বত	-11.1511
▁মোডে	-11.1512
▁থে	-11.1512
▁উঠেছিলেন	-11.1513
▁কৃষিভূমি	-11.1515
▁নারায়ণ	-11.1517
▁শিবিরে	-11.1518
ইফি	-11.152
▁সংক্রমণ	-11.1522
ণের	-11.1522
▁শাখায়	-11.1523
ারে	-11.1523
চিহ্ন	-11.1524
▁রথ	-11.1528
শিল্পী	-11.153
▁কেক	-11.153
ড়ানো	-11.1534
▁৬০০	-11.1537
দেশীয়	-11.1541
▁অসন্তোষ	-11.1543
▁প্রেক্ষিতে	-11.1543
▁প্রবর্তিত	-11.1543
▁নির্বাহ	-11.1549
নস	-11.1552
▁মাইন	-11.1555
▁ফুলের	-11.1558
▁জার্মানিতে	-11.156
▁তিমুর	-11.1562
▁মুসলিমদের	-11.1562
▁উপদ্বীপ	-11.1563
স্টোন	-11.1563
▁অভিন্ন	-11.1563
▁অংশটি	-11.157
▁ব্লু	-11.157
নাই	-11.157
▁কোয়া	-11.1571
▁খালিদ	-11.1576
য়েস	-11.1576
পাঠ	-11.1576
▁প্রকাশ্য	-11.1576
▁আবৃত	-11.1577
যদিও	-11.1578
▁কিম্বা	-11.158
▁আরা	-11.1582
ত্তয়া	-11.1587
▁ট্যা	-11.1588
নিজ	-11.1591
২০০৩	-11.1594
▁ভাগের	-11.1596
▁প্রকারের	-11.1597
▁পিএইচডি	-11.1599
▁ইয়ান	-11.16
োদ	-11.1602
কৌশল	-11.1602
▁বুদ্ধিমান্	-11.1604
▁এজেন্সি	-11.1604
▁ব্রিটেনের	-11.1609
▁১৯২৫	-11.1611
থু	-11.1612
ম্ম	-11.1616
▁মুঘল	-11.1617
▁বেলজিয়াম	-11.1618
▁মাদকদ্রব্য	-11.1618
▁পাল্টে	-11.1618
▁ছিদ্র	-11.1618
াগার	-11.1619
▁অতিশয়	-11.162
▁উৎসাহজনক	-11.1621
▁মীখা	-11.1622
▁সৌর	-11.1624
▁সম্মানের	-11.1626
▁সাঁতার	-11.1627
ীত	-11.1629
▁এলিজাবেথ	-11.1636
▁সর্ববৃহৎ	-11.1636
▁কলকারখানা	-11.1636
▁বিক্ষিপ্ত	-11.1637
▁পুষ্প	-11.1638
▁পোষাক	-11.1642
▁আসছেন	-11.1643
হাত	-11.1644
▁সতেজ	-11.1645
▁ডিরেক্টর	-11.1647
▁পিপলস	-11.1649
▁চামড়ার	-11.1649
▁তেলের	-11.165
মানের	-11.1651
▁সামঞ্জস্য	-11.1652
▁১৯২৪	-11.1652
▁বুঝ	-11.1654
▁আয়োজক	-11.1655
▁ইরানে	-11.1655
▁বিরক্তি	-11.1658
সারি	-11.1658
▁মাইক	-11.1663
▁কার্যধারা	-11.1663
▁গন	-11.1664
▁চার্জ	-11.1664
▁শক্তিকে	-11.1665
কারীর	-11.1666
▁ক্যাল	-11.1668
তান্ত্রিক	-11.1669
ফ্রে	-11.1669
▁ফ্রে	-11.1669
▁সভাপতির	-11.167
▁অবিশ্বাসী	-11.1672
▁কাদা	-11.1673
▁হারানো	-11.1673
▁আঙুল	-11.1674
▁ইকুয়েডর	-11.1674
▁শিল্পীদের	-11.1675
▁উপকূলে	-11.1675
▁ব্যাধি	-11.1677
▁পাকবাহিনী	-11.1681
▁পিতাকে	-11.1685
▁দ্বীপপুঞ্জ	-11.1685
▁লুই	-11.1687
▁ম্যাগ	-11.1688
▁দায়িত্বপ্রাপ্ত	-11.1689
▁কাগজের	-11.1689
শের	-11.1691
▁পুরস্কৃত	-11.1693
▁অনুপ্রবেশ	-11.1693
গ্রহ	-11.1697
▁উত্তরের	-11.1698
টিন	-11.1702
▁রিং	-11.1703
োচিত	-11.1706
▁ভাঙ্গা	-11.1707
▁ক্লায়েন্ট	-11.1711
রাষ্ট্র	-11.1712
▁মধ্যবিত্ত	-11.1712
▁দাবা	-11.1715
▁মন্দিরটি	-11.1715
▁কাশ্মীর	-11.1715
▁অবিচার	-11.1717
▁দেয়ালের	-11.1717
▁ফোনের	-11.1718
▁প্রাপক	-11.1718
▁সমর্থকদের	-11.1719
মিটার	-11.1719
▁শাসিত	-11.1726
▁পেশাগত	-11.1727
গ্রে	-11.1727
▁ক্ষয়ক্ষতি	-11.173
▁বানানোর	-11.1731
▁ভোর	-11.1731
▁সমতুল্য	-11.1731
▁আহরণ	-11.1732
ত্রি	-11.1732
▁বুদ্ধিজীবী	-11.1735
▁রহস্যময়	-11.1739
▁নবম	-11.1741
স্থিত	-11.1742
▁ভদ্রলোক	-11.1743
▁মুখোপাধ্যায়	-11.1749
▁রোমান্টিক	-11.1749
▁ধাতব	-11.175
▁হারানোর	-11.1752
▁আকাশে	-11.1752
▁সবচে	-11.1753
▁সভ্যতা	-11.1754
▁সমালোচনার	-11.1758
▁সাক্ষাতে	-11.176
১৯৯৭	-11.1762
▁নাগরিকত্ব	-11.1763
উট	-11.1765
▁ভূমিমালিক	-11.177
▁ক্রে	-11.1772
▁ট্রান্স	-11.1772
▁১৯২৭	-11.1773
▁ছেলেটা	-11.1774
▁রানের	-11.1774
▁আমলের	-11.1776
▁সহিংসতার	-11.1779
▁চায়না	-11.1779
গ্রা	-11.178
▁বাটন	-11.1781
▁কাক	-11.1781
▁প্রতিজ্ঞাগুলো	-11.1787
▁ফলশ্রুতিতে	-11.1787
▁আদৌ	-11.1788
▁সহযোগে	-11.1788
▁ফ্রন্ট	-11.1791
▁লাগান	-11.1792
▁অবলম্বনে	-11.1792
▁তদন্তের	-11.1802
▁বিট	-11.1802
▁জলপ্লাবন	-11.1806
▁মেট্রোপলিটন	-11.1806
▁খানিকটা	-11.1806
▁ম্যানেজমেন্ট	-11.1806
্যান	-11.1807
বুল	-11.1807
▁কক্সবাজার	-11.1807
▁বলবৎ	-11.1809
▁ইহুদী	-11.1812
▁মহাকাশ	-11.1819
▁সন্ত্রাস	-11.1822
▁দোস্ত	-11.1823
▁দলগুলো	-11.1823
▁পিতৃ	-11.1824
▁পেপার	-11.1824
▁ওয়াচটাওয়ার	-11.1825
▁বুলেট	-11.1826
▁পাণ্ডুলিপি	-11.1829
সঙ্গীত	-11.1829
স্টিক	-11.1829
জুড়ে	-11.1829
▁পাবনা	-11.183
▁বাদে	-11.1832
ফের	-11.1832
▁সত্যই	-11.1833
▁আদমের	-11.1837
োয়ার	-11.1841
▁আবাস	-11.1843
▁ওয়েল	-11.1844
▁সমস্যাগুলোর	-11.1849
▁দাতা	-11.1849
ভারতীয়	-11.1851
▁পাঠ্য	-11.1853
▁ফ্রেম	-11.1855
▁মাদ্রিদ	-11.186
▁বংশোদ্ভূত	-11.1864
▁সদ্ব্যবহার	-11.1864
▁সর্বজনীন	-11.1864
▁এসোসিয়েশন	-11.1865
কক্ষ	-11.1869
চক্র	-11.1874
গমন	-11.1877
▁পিন	-11.1878
ফলাদি	-11.1878
▁সাথেই	-11.1879
▁লোকটি	-11.1879
▁বাধ্যবাধকতা	-11.1883
▁গভীরে	-11.1884
▁ক্ষোভ	-11.1884
▁উত্	-11.1885
▁লাতিন	-11.1885
রাস	-11.1886
▁নিষ্ঠা	-11.1886
▁রক্ষিত	-11.1889
▁সংসার	-11.1889
▁বিশ্বস্তভাবে	-11.1894
▁ভিসা	-11.1894
▁১৯১৭	-11.1896
▁আদান	-11.1897
▁এডি	-11.1901
▁শোভা	-11.1901
▁নারিকেল	-11.1902
▁এগারো	-11.1902
▁পুরোহিত	-11.1905
▁সময়সীমা	-11.1909
▁পাড়া	-11.1913
▁লিন	-11.1914
দণ্ড	-11.1919
▁খোঁজে	-11.1919
▁ফুটে	-11.192
াপ	-11.1921
▁তড়িৎ	-11.1921
▁আটলান্টিক	-11.1922
▁ভোলা	-11.1925
রাজ্য	-11.1929
▁বিক্রেতা	-11.193
▁রচনার	-11.1931
▁যাওয়ায়	-11.1932
▁ইমারত	-11.1934
▁আরোপিত	-11.1934
▁যন্ত্রের	-11.1936
ম্ভ	-11.1938
▁কোপা	-11.194
▁অপারেটর	-11.1941
▁প্রোটিন	-11.1941
শাহ	-11.1941
▁আরেকটু	-11.1942
▁বিবাহবিচ্ছেদ	-11.1943
▁ঘাঁটি	-11.1946
▁মরতে	-11.1946
▁করিয়াছি	-11.1947
▁বন্দরে	-11.1952
পাদ	-11.1953
▁ফিলি	-11.1953
▁চাহিদার	-11.1954
▁সেলাই	-11.1954
▁সাক্ষাতের	-11.1955
▁কোস্ট	-11.1956
▁মুখোশ	-11.196
▁গায়িকা	-11.1961
▁আসক্ত	-11.1961
▁আজকাল	-11.1962
▁ভবনে	-11.1963
▁সাইন	-11.1963
ভূত	-11.1964
▁যেদিন	-11.1967
মন্দ	-11.1968
▁অন্তর্	-11.1968
▁কিম	-11.1969
▁হননি	-11.197
▁হাঁটতে	-11.1971
▁ক্লা	-11.1975
▁ইরাকের	-11.1976
▁শিকারি	-11.1977
▁দুর্	-11.1979
▁মৃৎশিল্প	-11.198
মনুষ্য	-11.1981
টস	-11.1984
▁কাগজপত্র	-11.1984
▁ভোক্তা	-11.1986
▁কবিতার	-11.1986
▁জার	-11.1987
▁লেজ	-11.1988
▁ইনস্টিটিউটের	-11.1993
▁মঙ্গলবার	-11.1994
▁লোহার	-11.1998
▁কই	-11.1999
▁উল্টো	-11.1999
নায়	-11.2001
▁ঢেউ	-11.2002
▁অহংকার	-11.2003
▁পার্কে	-11.2013
মণ্ডল	-11.2013
▁১৪৫	-11.2014
ধ্বনি	-11.2015
▁পঞ্চ	-11.2015
▁যেতেন	-11.2015
▁মেয়াদে	-11.2016
▁সারাদিন	-11.2018
▁শিক্ষার্থীরা	-11.202
ব্যাক	-11.2021
▁মূল্যে	-11.2024
▁স্কট	-11.2028
▁প্রত্যেকেই	-11.2028
▁ফোরাম	-11.2033
▁মসৃণ	-11.2038
▁আতঙ্ক	-11.2038
▁ক্রুদ্ধ	-11.2039
▁আন্ত	-11.2041
প্রতিষ্ঠান	-11.2042
োট	-11.2043
টী	-11.2044
ঢাকা	-11.2046
▁পেছনের	-11.2048
প্রকৃতি	-11.2049
▁কৌশলগত	-11.2049
▁জানিয়েছিল	-11.2052
▁পরিত্রাণের	-11.2052
▁১৯২৩	-11.2052
▁গ্রিন	-11.2054
বিধি	-11.2056
▁অভিলাষ	-11.2057
▁মজুত	-11.2057
▁স্ট্যান্ডার্ড	-11.2057
▁স্মৃতিস্তম্ভ	-11.2057
▁মুখপাত্র	-11.2059
▁প্রতিবন্ধী	-11.2063
▁বিচারে	-11.2077
▁পদাতিক	-11.2077
হ্যা	-11.2077
▁শতাংশের	-11.2078
▁প্রহরী	-11.2078
সিয়ান	-11.2079
স্ট্র	-11.2079
▁নিপীড়ন	-11.2081
প্রো	-11.2082
পেন	-11.2083
▁দক্ষিন	-11.2084
ঁজ	-11.2084
▁রীতিনীতি	-11.2091
▁দুর্নীতির	-11.2093
▁চালা	-11.2095
▁গেলেও	-11.2096
▁বিপণন	-11.2096
▁সহযোগিতার	-11.2096
▁মহাবিদ্যালয়	-11.2097
▁বাতাসের	-11.2097
্তা	-11.2098
▁সেক্ষেত্রে	-11.2106
চাষ	-11.2113
▁টার	-11.2115
▁যুক্তিসংগত	-11.2116
▁সমর্পণ	-11.2116
▁নেব	-11.2117
▁বধির	-11.2117
▁ওয়াটসন	-11.2117
▁ফ্লু	-11.2117
▁যথাযথভাবে	-11.2119
[	-11.2124
▁আগুনে	-11.2124
▁তুলেন	-11.2126
▁চূড়া	-11.2129
▁রোমে	-11.2131
▁এন্টি	-11.2132
পিত	-11.2133
কারণ	-11.2136
স্কো	-11.2136
টিয়া	-11.2136
▁পূরণকল্পে	-11.2136
▁ওমর	-11.2137
কাটা	-11.2138
ণী	-11.214
▁শ্যাম	-11.2141
রায়	-11.2145
▁দন্ড	-11.2149
▁রশিদ	-11.215
▁ফিলিপাইনের	-11.2153
▁দায়ূদকে	-11.2155
▁নিবিড়	-11.2155
▁পর্ষদ	-11.2156
▁হালনাগাদ	-11.2156
▁ফোনে	-11.2157
▁দেবতার	-11.2158
▁খাইয়ে	-11.2158
▁স্টেশনটি	-11.2159
▁মুকুট	-11.2159
▁কোণ	-11.216
▁পাচার	-11.2161
স্কা	-11.2163
▁গল	-11.2163
▁চাইনিজ	-11.2163
নারায়ণ	-11.2163
▁নব্য	-11.2165
▁দুর্ঘটনার	-11.2167
▁এনেছে	-11.2169
▁মানুষই	-11.2171
▁অপরাধে	-11.2171
▁এশিয়ায়	-11.2172
▁ফেলেছি	-11.2172
▁এপ্রিলে	-11.2174
▁প্রশ্নটা	-11.2174
▁জিন্নাহ	-11.2175
▁সর্বশক্তিমান	-11.2176
ডিসি	-11.2176
▁সুবাহদার	-11.2177
▁গাছপালা	-11.2181
▁খাদ	-11.2182
▁হীন	-11.2188
▁মিহরাব	-11.2189
▁শৈশব	-11.2191
▁নুর	-11.2194
▁নির্দেশিত	-11.2194
▁ঐক্যবদ্ধ	-11.2195
▁নির্মূল	-11.2196
▁বনভূমি	-11.2196
▁তৈরিতে	-11.2197
▁গণতন্ত্রের	-11.2197
▁এনকোডিং	-11.2197
র্ট	-11.2199
▁দেখিনি	-11.22
▁গুহা	-11.2203
▁থাকিবে	-11.2204
ক্তি	-11.2208
িভ	-11.2209
▁দলগুলোর	-11.2212
ম্মা	-11.2213
▁মৃত্তিকার	-11.2215
▁মজবুত	-11.2215
▁কৃষিজমি	-11.2216
▁জ্বালা	-11.2217
▁দার	-11.222
▁জামাল	-11.2221
▁শেষকালে	-11.2222
বাল	-11.2225
▁কিশোরী	-11.2226
১৯৯৯	-11.2227
▁ডেস্কটপ	-11.2234
▁ব্রিগেড	-11.2234
▁স্বর্ণপদক	-11.2235
সেবা	-11.2235
▁গণপ্রজাতন্ত্রী	-11.2235
▁আব্বাস	-11.2237
▁সুদ	-11.2237
▁বহুমুখী	-11.2238
▁অধিবাসীরা	-11.2239
▁তাক	-11.2239
▁বর্ণমালা	-11.2239
▁মোহন	-11.2242
▁অর্থহীন	-11.2245
▁উৎ	-11.2245
উর	-11.2246
িনি	-11.2248
▁টিক	-11.2248
▁গর্ভ	-11.2248
▁আনন্দে	-11.2252
▁একশ	-11.2254
▁একান্ত	-11.2257
ুদ্দিন	-11.2259
▁যুক্তরাজ্যে	-11.2262
পরায়ণ	-11.2263
▁নিজেও	-11.2266
▁১০৪	-11.2272
▁সঙ্গ	-11.2272
▁ভোটে	-11.2272
▁টনি	-11.2274
▁গার্ডেন	-11.2274
▁অমান্য	-11.2275
▁রপ্তানিদ্রব্য	-11.2275
▁মুদ্রিত	-11.2275
▁ভাইবোনেরা	-11.2277
▁বণ্টন	-11.2278
▁এমি	-11.2284
▁উদ্দীপনা	-11.2284
তালিকা	-11.2285
▁নীরব	-11.2287
▁মধুর	-11.2289
▁পরিষদে	-11.2289
▁ফান	-11.2293
োরা	-11.2297
▁বাসিন্দাদের	-11.2297
ডোর	-11.2301
এনসি	-11.2304
▁পেশায়	-11.2305
▁ফসলের	-11.2306
▁বিক্রির	-11.2307
▁সাক্ষাৎকারে	-11.2307
▁ডিসপ্লে	-11.2314
▁ভৌগলিক	-11.2315
▁আইটেম	-11.2315
▁দারিদ্র	-11.2316
▁টেনিস	-11.2316
▁বাহরাইনের	-11.2316
▁হাব	-11.2316
▁ধ্বংসাত্মক	-11.2317
▁ঘাস	-11.2318
▁৩য়	-11.232
▁কাটার	-11.2321
▁বিবরণী	-11.2321
ামি	-11.2321
▁গ্রি	-11.2324
▁আর্জেন্টিনার	-11.2328
▁টেবিলের	-11.2329
▁চাকুরী	-11.233
▁তালা	-11.2332
▁শিক্ষকের	-11.2334
▁পরস্পরকে	-11.2339
্বা	-11.2339
▁বিবি	-11.2339
▁সংঘটন	-11.234
▁ফরম্যাট	-11.234
ট্র	-11.2341
প্রবাহ	-11.2342
▁বন্দরের	-11.2342
▁ইউরোপিয়ান	-11.2343
▁সাজ	-11.2343
▁কামান	-11.2344
ূর	-11.2344
▁পড়েছি	-11.2347
জ্জা	-11.2347
চিত	-11.2352
▁উঠ	-11.2358
▁নেশা	-11.2359
▁গলায়	-11.236
▁কোরিয়ান	-11.236
▁সই	-11.2361
▁আমোদপ্রমোদ	-11.2361
নির্ভর	-11.2362
আপন	-11.2365
গেট	-11.2365
▁বাঁশের	-11.2365
▁উড	-11.2369
▁নাড়া	-11.2369
টাস	-11.237
১৯৯৮	-11.237
ষ্টি	-11.237
কর্মী	-11.2373
▁সংকীর্ণ	-11.2375
▁স্মৃতিচিহ্ন	-11.2376
▁বপন	-11.2376
▁গ্যালারি	-11.2378
▁প্রত্যেককে	-11.238
মুর	-11.2383
▁আমা	-11.2388
▁ডানা	-11.2388
▁পাঁচটা	-11.2394
▁বিজ্ঞপ্তি	-11.2395
▁বউ	-11.24
▁প্রাচ্য	-11.2402
পরিচালক	-11.2402
▁ফিলিপাইন	-11.2403
▁বহির্	-11.2405
▁নবীন	-11.2406
▁ভাত	-11.2409
▁দাবিতে	-11.241
রাহ	-11.241
শিয়ান	-11.2412
▁ক্রীড়াবিদ	-11.2412
▁পরীক্ষামূলক	-11.2413
যাহারা	-11.2414
▁রোল	-11.2417
▁দালান	-11.2417
▁চলাকালে	-11.2419
গ্রি	-11.2423
▁মাতৃভাষা	-11.2425
▁আদ	-11.2426
▁অভ্	-11.2427
▁হায়দ্রাবাদ	-11.2436
▁পোড়ামাটি	-11.2436
▁ঘুমাতে	-11.2437
বহ	-11.2437
▁বিধ্বস্ত	-11.2437
▁গার	-11.244
▁ল্যান্ড	-11.244
▁বাবামারা	-11.2442
▁বাহু	-11.2442
▁গানে	-11.2443
▁পিট	-11.2447
▁দেখেছিলাম	-11.2448
▁সংকল্প	-11.2448
চালিত	-11.2449
▁খেলাটি	-11.2449
মিস	-11.2449
▁লেবাননের	-11.2451
মতে	-11.2452
▁দৈব	-11.2454
▁শুকনো	-11.2456
▁ব্যায়াম	-11.2457
▁জগৎকে	-11.2459
থেকে	-11.2461
লায়	-11.2464
মনে	-11.2466
▁জিমি	-11.2467
প্রাণ	-11.2467
আমেরিকান	-11.247
ঘাত	-11.2471
১৯৯৬	-11.2472
▁রিপাবলিক	-11.2473
▁দেল	-11.2473
▁নেদারল্যান্ডস	-11.2474
▁ফ্রান্সিস	-11.2476
▁হারাতে	-11.2476
▁হুকুম	-11.2477
▁নারায়ণগঞ্জ	-11.2477
দানের	-11.2478
▁থামিয়ে	-11.248
▁ছাত্রের	-11.248
▁কমলা	-11.2482
▁পাউন্ড	-11.2484
▁পাইপ	-11.2484
শিপ	-11.2486
▁পয়	-11.2486
▁মেন	-11.2487
▁তরুণী	-11.2488
▁চেনা	-11.249
▁ফোর্ট	-11.2491
▁বিনয়	-11.2491
▁প্রদেয়	-11.2497
এসবিএন	-11.2498
▁শিখেছিলেন	-11.2499
▁মানদণ্ড	-11.2499
াবলী	-11.2501
▁যেখানেই	-11.2501
ভাষা	-11.2502
▁বার্ষিকী	-11.2502
▁চলেছেন	-11.2505
▁বাছাইপর্ব	-11.2506
▁দেড়	-11.2512
▁নরওয়ে	-11.2513
▁অর্	-11.2515
▁একাই	-11.2517
▁বৈবাহিক	-11.2517
▁স্পোর্টস	-11.2517
▁ইতালির	-11.2518
▁নিঃশ্বাস	-11.2519
▁ধারণাটি	-11.2519
▁অশ্ব	-11.252
পুরের	-11.2521
বার্তা	-11.2525
▁রঙ্গ	-11.2525
োভ	-11.2526
পাকা	-11.2526
▁শোনে	-11.2527
▁আলোকে	-11.2532
এনএ	-11.2532
▁ব্রহ্ম	-11.2533
▁কেনিয়ার	-11.2536
ংগ	-11.2536
▁ঐতিহ্যের	-11.2537
▁ডেল	-11.2537
▁দেহে	-11.2537
▁অধ্যক্ষের	-11.254
▁লেখাপড়া	-11.254
▁গাজী	-11.254
▁ইনিংস	-11.2542
▁সারাংশ	-11.2542
▁ভার্	-11.2543
▁প্রান্তরে	-11.2544
লেও	-11.2544
▁কন্	-11.2545
▁যাতায়াত	-11.2546
চাঁদ	-11.2547
▁চেষ্টায়	-11.2547
▁সন্ত্রাসবাদ	-11.2547
▁ঝি	-11.2547
▁স্বপ্নের	-11.2548
▁অ্যাপ	-11.2549
▁শেষদিকে	-11.2552
▁বইগুলো	-11.2553
১৯৯৫	-11.2553
▁এগুলোকে	-11.2554
▁বর্ণের	-11.2554
অন্য	-11.2557
▁পরিধি	-11.2559
▁পাহারা	-11.2561
▁পিছনের	-11.2561
▁প্রবন্ধগুলো	-11.2562
কেট	-11.2566
▁অর্থায়ন	-11.257
ম্বো	-11.257
▁সুভাষ	-11.2571
▁ফান্ড	-11.2574
▁প্রায়শ	-11.2575
▁বন্ড	-11.2575
▁ইসমাইল	-11.2579
▁উৎকৃষ্ট	-11.2579
▁ব্যাহত	-11.2579
▁ভাঙা	-11.2582
গ্রন্থ	-11.2583
▁দয়ালু	-11.2584
ঙা	-11.2584
▁প্রবর্তনের	-11.2585
▁উট	-11.2587
একর	-11.2587
▁১৯১২	-11.2591
▁মামা	-11.2599
▁তখনকার	-11.26
▁ক্ষমতাসীন	-11.26
▁ভার্চুয়াল	-11.26
▁চৈতন্য	-11.26
▁পরিচিতির	-11.26
▁বাড়ী	-11.26
▁ভালোই	-11.2601
গুরু	-11.2603
▁নিদ্রা	-11.2605
▁সিংহাসন	-11.2605
▁আমাদেরও	-11.2607
▁অপেরা	-11.2607
▁ব্যাস	-11.2607
▁সম্ভবপর	-11.2607
▁চাচা	-11.2608
▁বিদেশ	-11.2609
▁ভারি	-11.261
▁৩টি	-11.261
▁রানে	-11.2612
▁লালন	-11.2613
▁পাঠায়	-11.2613
রেজ	-11.2617
▁উপমহাদেশের	-11.2617
২০১৬	-11.2617
▁স্বাধীনভাবে	-11.262
▁আর্সেনিক	-11.262
▁মদ্যপান	-11.2621
▁নাবিক	-11.2625
▁এমনি	-11.2626
▁ঝু	-11.2629
যাহা	-11.263
▁সঙ্কট	-11.2632
▁খুনি	-11.2636
▁গুড়	-11.2637
▁সন্তানেরা	-11.2638
▁শ্বেত	-11.2641
▁আত্মায়	-11.2642
গেন	-11.2643
▁উড়িয়ে	-11.2645
ুত	-11.2647
▁মোটেও	-11.2648
বায়	-11.2648
▁যাচ্ছ	-11.2651
▁প্লা	-11.2653
▁তুল	-11.2654
▁হিংসা	-11.2654
্লা	-11.2656
▁ঝা	-11.2657
াধিকার	-11.2657
িণী	-11.2657
শিয়া	-11.2662
▁শর্তাবলী	-11.2662
▁জ্বালানী	-11.2664
▁পেছন	-11.2664
▁প্রতিযোগী	-11.2665
▁আলোকিত	-11.2667
গিরি	-11.2668
▁পিস	-11.2669
▁মুক্তিযুদ্ধ	-11.2669
ণে	-11.267
্যে	-11.2671
দ্যা	-11.2672
▁অন্যান্যদের	-11.2674
▁প্রতিলিপি	-11.2676
ভয়	-11.2677
▁জঙ্গি	-11.2677
▁একথা	-11.2678
▁প্রতিনিধিদের	-11.2679
▁কনফিগার	-11.2682
▁বত্সর	-11.2682
▁আচ্ছাদিত	-11.2683
পাই	-11.2683
▁ন্যূনতম	-11.2683
অন	-11.2686
▁ব্যাথা	-11.2687
▁নাটকীয়	-11.2689
জগৎ	-11.269
▁সদস্যগণ	-11.2691
▁ধরছে	-11.2693
▁বস্তুত	-11.2695
▁এসবের	-11.2696
▁বিষয়বস্তুর	-11.2701
▁পদোন্নতি	-11.2704
▁যান্ত্রিক	-11.2704
রক্ষা	-11.2704
▁কাটানোর	-11.2706
▁শর	-11.2706
িলা	-11.2706
▁থাকতাম	-11.2707
পিতা	-11.2708
▁সন্ন্যাসী	-11.2711
নতুন	-11.2711
▁সাময়িকভাবে	-11.2712
▁ফ্লা	-11.2714
যুদ্ধ	-11.2714
▁প্লেট	-11.2714
▁প্রসিদ্ধ	-11.2716
১৯৯৪	-11.2717
▁চাইবেন	-11.2717
▁স্টোন	-11.2718
▁নারীকে	-11.2721
▁টপ	-11.2721
▁টুপি	-11.2724
▁উইলিয়ম	-11.2724
▁প্রশংসিত	-11.2724
গুয়া	-11.2725
▁ক্লাসের	-11.2727
▁হিট	-11.273
কেল	-11.273
▁সময়টা	-11.2731
▁তিনবার	-11.2733
▁আসিয়া	-11.2736
▁মিশ্রিত	-11.2737
বৃদ্ধি	-11.2738
সিম	-11.274
▁জাভা	-11.2741
পান	-11.2742
িয়ায়	-11.2744
▁লিওন	-11.2745
▁প্রতিদিনের	-11.2746
▁পদ্ম	-11.2749
বন্ধু	-11.275
▁সিরীয়	-11.275
▁ইঁদুর	-11.275
ন্ধ	-11.2758
▁নৌবাহিনী	-11.2763
ফোর	-11.2763
▁বাৎসরিক	-11.2766
▁সংগঠক	-11.2766
▁কর্ণাটক	-11.2766
▁অলঙ্কার	-11.2766
▁লত্তয়া	-11.2767
করি	-11.2768
▁ফার্স্ট	-11.2768
▁হাটবাজার	-11.2768
▁হরিণ	-11.2769
প্রা	-11.277
ব্র	-11.2772
▁যাবৎ	-11.2773
▁হইও	-11.2775
▁সলোমন	-11.2776
▁রেস	-11.2776
াট	-11.2779
▁বিপদে	-11.278
বাণিজ্য	-11.2781
দন	-11.2787
▁দ্রাক্ষারস	-11.2788
▁৫ম	-11.2791
▁কেনো	-11.2796
▁অজুহাত	-11.28
▁সেইসমস্ত	-11.28
▁পাঁচজন	-11.2801
▁বিশৃঙ্খলা	-11.2802
▁মুল	-11.2803
ডিং	-11.2804
▁বিমানবন্দরে	-11.2805
▁হ্যান্ড	-11.2806
▁প্রবীণ	-11.2808
▁যাবতীয়	-11.281
▁সন্নিকট	-11.2813
▁কানা	-11.2813
▁সংস্থাটি	-11.2814
▁করিতেছি	-11.2817
▁জিজ্ঞাসাবাদ	-11.2822
ল্য	-11.2824
▁টক	-11.2824
▁ইতিহাসবিদ	-11.2825
▁প্রদানে	-11.2827
▁গ্রহের	-11.2828
▁৪টি	-11.2828
▁উপসাগর	-11.2828
▁অবতীর্ণ	-11.2829
▁চট্টোপাধ্যায়	-11.2829
▁রিপোর্টে	-11.283
▁দুর্ঘটনায়	-11.2834
আরবী	-11.2836
▁পারলাম	-11.2837
ফ্ট	-11.2837
▁উপসংহার	-11.2837
▁২০২০	-11.2838
সংখ্যক	-11.2838
▁নদ	-11.2839
▁ওয়েলস	-11.2839
▁অংশগ্রহন	-11.2841
▁সমঝোতা	-11.2841
▁হত্যাকাণ্ড	-11.2841
ন্য	-11.2841
নান	-11.2841
▁জাহান	-11.2842
▁প্যারিসে	-11.2844
▁বৈষ্ণব	-11.2848
▁ইস্হাক	-11.2849
▁অর্থনীতিবিদ	-11.285
▁প্রোটোকল	-11.285
▁উপস্থাপিত	-11.2851
▁দ্রব্যের	-11.2855
▁অলস	-11.2856
▁বন্দীদের	-11.286
▁সী	-11.2861
▁বলছিলেন	-11.2861
▁সফরের	-11.2864
ফট	-11.2865
প্ল	-11.2866
▁হচ্ছি	-11.2867
▁তথ্যচিত্র	-11.287
▁অক্সিজেন	-11.2872
▁শুভেচ্ছা	-11.2872
▁স্বেচ্ছাসেবী	-11.2872
▁ক্রেডিট	-11.2873
▁ট্রে	-11.2874
▁১৪০	-11.2879
▁আফ	-11.288
▁আয়ারল্যান্ড	-11.2882
▁গ্রন্থটি	-11.2883
▁তাত্ত্বিক	-11.2886
▁নির্মাণে	-11.2886
▁সীমান্তের	-11.2887
▁রেকর্ডিং	-11.2888
রিড	-11.289
▁নাস্তিক	-11.2893
▁প্রবন্ধের	-11.2894
▁উদ্দেশ্যের	-11.2894
মস	-11.2896
সাস	-11.2897
▁তুলনামূলক	-11.2898
▁বিদ্ধ	-11.2901
তেন	-11.2903
▁নিয়েই	-11.2904
যিনি	-11.2905
▁কারখানার	-11.2909
▁সন	-11.291
ুনি	-11.2911
▁আশরাফ	-11.2913
▁প্রতারিত	-11.2914
▁ইস্পাত	-11.2914
▁গুপ্তচর	-11.2915
▁বাজ	-11.2915
▁রক্তপাত	-11.2917
▁গঠনে	-11.292
▁আটকা	-11.2921
▁ভেতরের	-11.2921
ট্রো	-11.2922
ুই	-11.2923
▁নট	-11.2924
▁করতেই	-11.293
▁বেল্ট	-11.293
▁বাহ	-11.2931
▁সদস্যপদ	-11.2933
▁আগুনের	-11.2935
▁অযৌক্তিক	-11.2935
▁ক্রমান্বয়ে	-11.2935
▁বন্দ্যোপাধ্যায়	-11.2935
▁সন্তোষজনক	-11.2936
▁দারুন	-11.2936
▁থমাস	-11.2936
▁স্তূপ	-11.2936
▁বাস্তবায়িত	-11.2936
▁অনিশ্চিত	-11.2936
▁কম্প	-11.2937
▁ফজলুল	-11.2937
▁নির্বোধ	-11.2937
▁অ্যাকশন	-11.2938
▁নকশার	-11.294
▁বৈশিষ্ট্যের	-11.2942
▁বিনতি	-11.2945
কারণে	-11.2948
▁সাবধানে	-11.2948
▁গোলাপ	-11.295
▁সুন্দরবন	-11.2952
▁ফয়সাল	-11.2954
▁ভূমিকার	-11.2954
▁চওড়া	-11.2957
▁নজরদারি	-11.2957
্রা	-11.2958
াচার	-11.2959
রেল	-11.296
▁দাদু	-11.2961
▁সুবিধাজনক	-11.2962
গৃহ	-11.2963
ন্থ	-11.2971
▁দৃশ্যত	-11.2971
▁নিত্য	-11.2973
▁প্রভাবে	-11.2975
▁চরণ	-11.2976
▁দুবার	-11.2978
▁হাস্যরসাত্মক	-11.2978
▁অবরুদ্ধ	-11.298
▁আবরণ	-11.2981
▁বাচ্চার	-11.2987
▁সমীকরণ	-11.2988
▁শাস্তির	-11.2989
র্প	-11.299
ভাগে	-11.299
▁বায়ো	-11.2991
▁রইল	-11.2996
▁ঠ	-11.2996
▁টিবিং	-11.2998
▁পাদ	-11.2999
▁অ্যাম্ব্রা	-11.3
▁আম্পায়ার	-11.3
▁উপসর্গ	-11.3
▁ভূতাত্ত্বিক	-11.3
▁টেবিলে	-11.3001
▁জন্মে	-11.3001
▁চার্লি	-11.3002
ঞ	-11.3003
ফ্	-11.3003
▁মার্থা	-11.3005
েন্দ্রনাথ	-11.3006
▁ছাদের	-11.3008
▁পৌলকে	-11.3009
▁প্রান্তিক	-11.301
▁সহজাত	-11.3011
▁জর্জিয়া	-11.3013
▁বাজেয়াপ্ত	-11.3013
▁স্থিতি	-11.3014
▁চলছিল	-11.3016
▁ছাই	-11.3017
▁বানর	-11.3018
সাগর	-11.3019
▁বহিষ্কার	-11.3021
▁সিনা	-11.3024
▁সিটির	-11.3024
▁সুবর্ণ	-11.3025
▁দাঁতের	-11.3026
▁বসতে	-11.3027
▁প্রেমিক	-11.3027
▁সকালের	-11.303
▁ডাক্তারের	-11.3031
▁কন্ঠ	-11.3031
▁আলোকচিত্র	-11.3032
ালয়	-11.3034
▁বিরাজ	-11.3036
▁থামাতে	-11.3036
▁ছাগল	-11.304
▁নিও	-11.3041
তির	-11.3041
▁অসুস্থতার	-11.3041
▁সমালোচকদের	-11.3042
▁শর্মা	-11.3045
▁জোগায়	-11.3047
▁গ্রা	-11.3047
▁ট্যাগ	-11.305
পদ্ধতি	-11.305
▁সিটিতে	-11.3051
▁পাইনি	-11.3052
▁গিল	-11.3053
▁মিটিং	-11.3055
ধান	-11.3057
▁উদ্যম	-11.3057
▁কৌ	-11.3058
রিও	-11.306
কেন্দ্রিক	-11.3062
▁বিঘ্ন	-11.3065
▁জীবিকা	-11.3067
▁সঞ্চার	-11.3069
▁করিয়াছিলেন	-11.307
তুর	-11.3072
▁শর্তে	-11.3073
জনের	-11.3074
▁অন্তঃকরণ	-11.3074
▁বিমানের	-11.3075
▁সূচক	-11.3076
বিয়া	-11.3079
জয়	-11.3079
▁তুলবে	-11.3081
▁ভাগই	-11.3083
▁মনুষ্যের	-11.3083
শিশু	-11.3083
াকৃতি	-11.3084
▁ইস	-11.3085
▁ফলের	-11.3086
▁উদ্দীপিত	-11.3086
▁পরিলক্ষিত	-11.3086
▁নিছক	-11.3086
▁ক্ষুধার্ত	-11.3086
▁আচ্ছাদন	-11.3086
▁অবজেক্ট	-11.3086
▁১৯০০	-11.3087
▁প্রতিকার	-11.3088
▁আয়ু	-11.3089
▁শ্রেণীতে	-11.3092
▁উদ্বাস্তু	-11.3095
▁নিষ্	-11.3095
ট্যা	-11.3099
▁বার্সেলোনা	-11.31
▁বশে	-11.31
▁নির্মান	-11.3107
▁সফলতার	-11.3108
▁বাতাসে	-11.3111
▁কীসের	-11.3111
▁সদ্য	-11.3115
▁দিয়াবলের	-11.3115
▁জং	-11.3115
▁ভ্রান্ত	-11.3118
▁এদেশে	-11.3119
▁স্টে	-11.3119
▁পৃষ্ঠপোষক	-11.3121
▁স্বা	-11.3123
ন্দ্র	-11.3123
▁রাজতন্ত্র	-11.3124
ানী	-11.3126
জিত	-11.3127
▁ভিট্টোরিয়া	-11.3129
▁ইন্টারফেস	-11.3129
▁ডেমোটিক্স	-11.313
▁মেয়েটা	-11.313
▁স্ক্রিপ্ট	-11.3133
ক্টর	-11.3137
▁পিঠে	-11.314
ওয়ার্ড	-11.3141
মধ্যে	-11.3141
▁পাকবাহিনীর	-11.3143
▁প্রতিমা	-11.3144
▁সমাপ্তির	-11.3144
▁খুনের	-11.3145
▁পৌঁছ	-11.3149
▁কণা	-11.3151
▁সাংগঠনিক	-11.3151
▁লৌহ	-11.3152
▁শিখে	-11.3153
▁ক্রিসমাস	-11.3153
শ্র	-11.3155
▁কষ্টভোগ	-11.3156
ঞ্জা	-11.3161
▁সংবাদের	-11.3163
তুল	-11.3163
▁বাঁ	-11.3165
▁নম্বরে	-11.3165
▁রয়েল	-11.3166
▁ব্যবধান	-11.3168
▁ছাত্রকে	-11.3171
▁শীত	-11.3172
অভি	-11.3172
▁মাইক্রোসফট	-11.3173
▁আমোদ	-11.3174
▁প্রতিপক্ষ	-11.3174
▁বদ	-11.3176
▁অসম্মান	-11.3176
▁খ্রিস্টানের	-11.3177
▁সঙ্গেসঙ্গে	-11.3179
াচ্ছে	-11.3179
▁জঙ্গল	-11.3183
জিং	-11.3186
▁হয়না	-11.3187
▁১৯১১	-11.3187
ফিন	-11.3192
▁লক্ষ্মী	-11.3193
গের	-11.3193
▁রাজস্থান	-11.3194
▁হযরত	-11.3195
▁ডেইলি	-11.3195
য়েজ	-11.32
▁নিজাম	-11.3202
▁গ্রেড	-11.3203
▁শ্রমিকের	-11.3207
▁১৯০৫	-11.3211
▁পর্বতের	-11.3214
▁জনেরও	-11.3216
▁উইনস্টন	-11.3217
▁নগ্ন	-11.3217
▁সাধিত	-11.3218
কলা	-11.3218
▁সমূহের	-11.3218
▁শীর্ষস্থানীয়	-11.3218
▁ছড়া	-11.3219
▁আশ্রম	-11.3224
▁লেই	-11.3229
▁দখলে	-11.3231
াকৃতির	-11.3231
দাদ	-11.3231
▁আর্ক	-11.3233
▁প্রাপ্তি	-11.3233
▁বিমানবন্দরটি	-11.3241
▁পাশা	-11.3242
▁সমকালীন	-11.3242
▁১৬০	-11.3243
▁উপগ্রহ	-11.3253
▁স্টিভ	-11.3257
▁দামি	-11.3258
▁জাহাঙ্গীর	-11.326
▁কণ্ঠে	-11.326
ংশ	-11.3263
▁আশাবাদী	-11.3264
▁ব্যানার	-11.3268
▁তাৎপর্যপূর্ণ	-11.3268
১৯৯৩	-11.3276
▁পিতরের	-11.3279
াভ	-11.3279
দুই	-11.3279
▁বৃত্ত	-11.3282
▁টিকা	-11.3282
▁প্রক্সি	-11.3285
▁স্ক্যান	-11.3286
▁সংবেদনশীল	-11.3287
▁প্রীতি	-11.3288
▁সেরকম	-11.329
▁আত	-11.329
াবস্থা	-11.3295
▁রিও	-11.3297
▁জী	-11.3299
▁চারদিকে	-11.33
▁খিলাফত	-11.3305
▁সার্বজনীন	-11.3305
▁পরীক্ষণ	-11.3305
▁ইতিহাসবেত্তা	-11.3306
লিয়ান	-11.3307
▁বৈঠক	-11.331
্না	-11.331
▁দ্বিতীয়বার	-11.3315
আইএস	-11.3316
▁ট্যুর	-11.3319
▁দেখিতে	-11.3321
▁বালা	-11.3321
▁গির্জায়	-11.3323
▁তুলেছিলেন	-11.3323
▁১০৬	-11.3324
▁শীর্ষে	-11.3324
▁নির্ধারণের	-11.3325
▁ঠিকানায়	-11.3327
রক্ষক	-11.3327
▁লিগা	-11.3328
▁আমিরাত	-11.3329
▁শ্রবণ	-11.3334
▁৫টি	-11.3339
ফাই	-11.3343
খানি	-11.3344
▁লেখকের	-11.3346
▁প্রাসঙ্গিক	-11.3349
বিন	-11.335
▁পেরেছেন	-11.3352
বয়স	-11.3353
▁কষ্টের	-11.3353
▁আইনী	-11.3355
▁মাদার	-11.3358
▁বিপর্যয়ের	-11.3361
▁উপাসনায়	-11.3361
▁অঙ্কিত	-11.3362
▁শুধুই	-11.3366
▁সংবিধানে	-11.3367
▁হলিউড	-11.3367
▁দিনটি	-11.337
▁প্রভাবের	-11.3371
▁শিথিল	-11.3372
▁আউটপুট	-11.3372
▁আসবাবপত্র	-11.3372
▁নেতার	-11.3372
স্থাপন	-11.3372
▁তালেবান	-11.3373
▁টীকা	-11.3374
▁বিষ্ণু	-11.3374
▁আসর	-11.3375
▁পরিস্থিতিকে	-11.3376
▁সুতা	-11.3378
▁তত্ত্বের	-11.3378
▁শিখেছেন	-11.338
ন্ডো	-11.338
▁আঁ	-11.3383
▁বদল	-11.3384
১৯৭১	-11.3386
▁টুর্নামেন্ট	-11.3387
▁দাঁড়াতে	-11.3387
চিন্তা	-11.3388
▁বাঁচানোর	-11.3393
তীত	-11.3395
▁রাশেদ	-11.3395
▁সংকটের	-11.3397
▁ফার্সি	-11.34
▁ক্ষেত্রমত	-11.3401
াসের	-11.3403
▁নজরে	-11.3404
▁প্রথাগত	-11.3413
সিক	-11.3416
▁প্রতিক্রিয়ার	-11.3417
▁বিরক্তিকর	-11.3418
▁ভগবান	-11.3418
▁পূর্বদিকে	-11.3419
▁সদৃশ	-11.3421
▁ঝড়ের	-11.3423
▁গড়া	-11.3423
▁কাঁধে	-11.3424
▁সম্মানে	-11.3424
▁প্রাণের	-11.3426
নিয়ার	-11.3428
▁বাদামি	-11.3428
▁৪র্থ	-11.3428
▁খড়	-11.3429
▁সূত্রে	-11.3429
▁সংস্পর্শে	-11.3432
▁পোড়া	-11.3432
▁সেটাও	-11.3434
ডস	-11.3434
▁সংগীতের	-11.3435
ায়ণ	-11.3437
▁কুকুরের	-11.3437
▁ইতস্তত	-11.3439
▁থিষল	-11.3439
▁চক	-11.3439
▁কুখ্যাত	-11.3439
▁সাথী	-11.344
▁সেমিনার	-11.344
ইয়ের	-11.3441
▁গাড়িটা	-11.3447
রিয়ান	-11.3448
▁ইফি	-11.3451
▁বিমানবন্দরের	-11.3451
গোর	-11.3453
সাহিত্য	-11.3454
▁অঙ্কন	-11.3456
শালী	-11.3457
যারা	-11.3458
▁সবে	-11.3459
▁চাপিয়ে	-11.3459
▁একুশে	-11.346
সমূহকে	-11.3465
▁সাটো	-11.3466
▁পারার	-11.3466
দ্বার	-11.3468
▁জোরদার	-11.347
▁ততদিন	-11.3471
▁জমে	-11.3472
ন্টি	-11.3474
▁শিক্ষায়	-11.3477
▁দেশগুলো	-11.3477
▁শোনো	-11.3481
▁ভৌত	-11.3481
▁এরপরে	-11.3482
▁আগ্নেয়গিরি	-11.3484
▁পাহাড়ে	-11.3484
▁উত্স	-11.3485
▁মনি	-11.3486
▁বিরোধিতার	-11.3487
▁দিবসে	-11.3487
▁বিএ	-11.3488
▁দানব	-11.3488
▁গৃহযুদ্ধ	-11.3489
▁প্রেরক	-11.3491
▁স্প	-11.3492
যিরমিয়	-11.3494
▁একাগ্র	-11.3494
স্তর	-11.3495
রুম	-11.3495
▁তুমিও	-11.3499
▁প্রোগ্রামিং	-11.35
▁শির	-11.3501
▁পর্দায়	-11.3502
▁প্যালেস্টাইন	-11.3504
উল্লাহ	-11.3505
▁সম্বোধন	-11.3506
▁ফসলাদি	-11.3508
▁হারিয়েছে	-11.3509
▁রাধা	-11.351
বলে	-11.3513
▁মসজিদে	-11.3513
মারি	-11.3514
আরসি	-11.3515
▁উপভাষা	-11.3519
▁১৯১০	-11.352
জীবনের	-11.3521
▁বাবিল	-11.3522
গ্র	-11.3523
▁দৃষ্টিভঙ্গির	-11.3523
▁অক্ষরে	-11.3523
▁নম্রভাবে	-11.3524
▁পর্বতমালা	-11.3524
ঘরে	-11.3527
ডাক	-11.3528
▁উচ্চপদস্থ	-11.3529
▁প্রলুব্ধ	-11.3529
▁ব্রাসেরো	-11.3529
▁আয়তাকার	-11.3529
▁পান্ডুলিপি	-11.3529
▁ত্ত	-11.353
▁অনুমতিক্রমে	-11.3533
▁উপরন্তু	-11.3533
▁পটার	-11.3533
▁দেরী	-11.3538
ম্পা	-11.354
▁গোলা	-11.3544
▁ক্ষীণ	-11.3548
▁একাকী	-11.3548
য়ী	-11.3548
▁বেড়াতে	-11.3552
▁অনুপযুক্ত	-11.3552
▁শ্যা	-11.3552
▁উৎকর্ষ	-11.3553
▁প্রকাশকের	-11.3553
▁সমস্তকিছু	-11.3553
▁কমিক	-11.3553
▁ড্রাগন	-11.3555
▁সাথির	-11.3555
বারের	-11.3557
▁ডট	-11.3559
▁বিক্ষোভকারীরা	-11.3561
ধারণ	-11.3561
▁রাশিয়ায়	-11.3562
▁প্রজাদের	-11.3563
▁ইনি	-11.3563
▁সোল	-11.3564
▁শব্দগুলো	-11.3566
াইট	-11.3571
র্গ	-11.3573
▁নিরীহ	-11.3574
▁মিথ্যে	-11.3574
▁ছিন্ন	-11.3577
▁সর্বকালে	-11.3578
▁সুযোগের	-11.3578
▁রকেট	-11.358
বিষয়গুলো	-11.358
▁এস্টেট	-11.3582
▁ভয়েসেসের	-11.3583
▁বধ	-11.3588
▁বিছানায়	-11.359
▁পাঠিয়েছে	-11.3591
১৯৬৯	-11.3592
▁অসুখ	-11.3592
▁জগন্নাথ	-11.3597
▁পাল্কি	-11.3598
পুরা	-11.3598
▁হিটলার	-11.3598
ছিলো	-11.3599
মধ্য	-11.36
▁খ্রীষ্টানরা	-11.36
▁নিশান	-11.3601
ীম	-11.3602
▁টিকেট	-11.3602
▁জলাভূমি	-11.3602
▁বন্যপ্রাণী	-11.3603
▁ক্রুশ	-11.3606
▁হায়দার	-11.3607
▁সরবরাহকারী	-11.3608
▁কলেজটি	-11.3609
▁আবহ	-11.3611
▁ডুব	-11.3613
▁দফতর	-11.3615
▁কুসংস্কার	-11.3617
▁একটিভিস্ট	-11.3621
▁ঘটানো	-11.3622
▁পৌছে	-11.3622
▁বোধগম্য	-11.3625
▁লাভজনক	-11.3626
▁হাঁটু	-11.3627
▁আইল্যান্ড	-11.3631
▁বেড়েছে	-11.3633
▁তল	-11.3634
▁জাদুঘরে	-11.3638
ল্প	-11.364
▁শিখিয়েছিলেন	-11.3643
▁ঠাট্টা	-11.3643
▁লেবানন	-11.3644
▁সংশোধিত	-11.3644
▁২টি	-11.3644
তখন	-11.3644
▁বিশ্বজুড়ে	-11.3645
▁উর	-11.3646
▁ক্ষ	-11.3646
বাসীদের	-11.3649
▁উদ্বিগ্নতা	-11.365
▁রাজাকার	-11.3651
▁বিদ্রোহীদের	-11.3651
মানুষ	-11.3651
▁সীল	-11.3651
ফিলি	-11.3652
▁স্ট্রিং	-11.3653
▁পিরামিড	-11.3654
ব্রি	-11.3655
ম্বি	-11.3655
▁বরণ	-11.3657
▁রাজত্বকালে	-11.3659
▁সমর্থনের	-11.3661
▁বলছ	-11.3663
▁মেয়েটি	-11.3664
▁পুরু	-11.3664
▁রীতির	-11.3664
▁চুন	-11.3664
▁কার্যকারিতা	-11.3666
▁নিস্তারপর্ব	-11.3666
▁বনাঞ্চল	-11.3667
▁সম্পাদনের	-11.3671
▁সবজি	-11.3676
মূর্তি	-11.3678
▁বোনকে	-11.368
▁মরিস	-11.368
ক্ল	-11.3682
ন্দে	-11.3682
▁আনবে	-11.3684
▁হাজারের	-11.3688
ুদ্দীন	-11.3689
▁ভেষজ	-11.3689
▁অপচয়	-11.3689
খালি	-11.3691
▁বিচ্ছেদ	-11.3692
ক্যাল	-11.3693
▁নিচ্ছি	-11.37
▁চ্যাম্পিয়নশীপ	-11.3703
▁পাননি	-11.3704
▁দেখছেন	-11.3706
▁গুটি	-11.3707
▁মরোক্কো	-11.3709
▁যৌক্তিক	-11.3712
▁গেরিলা	-11.3712
▁সাইপ্রাস	-11.3712
▁সক্ষমতা	-11.3713
খন্ড	-11.3715
হাসি	-11.3715
বিট	-11.3716
কান্ত	-11.3718
▁মেহ	-11.3719
ণি	-11.3721
▁প্রার্থীদের	-11.3722
▁গোয়া	-11.3723
▁করাচি	-11.3723
▁পোকা	-11.3723
ব্লগ	-11.3724
▁মিমি	-11.3725
▁তেজ	-11.3726
▁নির্মম	-11.3726
▁ছাত্রছাত্রীদের	-11.3727
▁মোল্লা	-11.3728
ুদ	-11.3732
▁ডকুমেন্ট	-11.3734
▁শুকিয়ে	-11.3735
▁দিতাম	-11.374
্ক	-11.374
▁শাস্ত্রপদগুলো	-11.3741
▁সালেহ	-11.3742
▁দশটি	-11.3743
▁দণ্ডে	-11.3745
▁১৯১৩	-11.3747
▁উগ্র	-11.3751
▁ক্র	-11.3751
▁নোয়া	-11.3751
▁পৌঁছেছে	-11.3752
▁এলি	-11.3753
▁সমান্তরাল	-11.3753
জেল	-11.3754
▁পৃষ্ঠপোষকতা	-11.3755
▁ইস্রায়েলে	-11.3756
▁রিজার্ভ	-11.3758
▁ওল্ড	-11.376
▁সবশেষে	-11.3762
স্ট্রি	-11.3765
▁সুরকার	-11.3766
▁সেভাবে	-11.3766
▁আর্মেনিয়া	-11.3767
▁অল্পবয়স্ক	-11.3768
▁শয়তানকে	-11.3771
ঘটিত	-11.3772
গুলোও	-11.3774
বহুল	-11.3775
মঙ্গল	-11.3776
▁স্বাভাবিকভাবেই	-11.3776
▁ধর্মকে	-11.3778
▁আবেগগত	-11.3779
▁আড়	-11.378
▁জম্মু	-11.3781
▁তিরস্কার	-11.3781
▁সেনানিবাস	-11.3781
স্থানে	-11.3782
১৯৮৫	-11.3783
ানুযায়ী	-11.3785
▁আরাকান	-11.3785
▁নিচ	-11.3785
▁পিছন	-11.3789
▁১৮০	-11.3789
▁সৌভাগ্য	-11.3794
▁কমাতে	-11.3796
▁এখনকার	-11.3797
▁সেইসময়	-11.3798
ণ্য	-11.3802
পল্লিবিদ্যুতায়ন	-11.3804
▁লঘু	-11.3805
▁রচয়িতা	-11.3806
▁পাঞ্জাবের	-11.3807
▁সখরিয়	-11.3807
▁ইটের	-11.3808
▁১২৫	-11.3809
▁স্নান	-11.381
▁ফক্স	-11.381
▁বোর	-11.381
েস্ট	-11.381
ন্ডে	-11.3812
িকো	-11.3815
▁উপাসক	-11.3817
▁অঙ্ক	-11.3821
▁অস্তিত্বে	-11.3821
▁হানা	-11.3822
▁সমর্থকরা	-11.3823
▁আসাদ	-11.3823
▁অ্যাট	-11.3824
▁প্রাচীনকালের	-11.3826
▁ধারাবাহিকে	-11.3827
▁আইডিয়া	-11.3827
াও	-11.3828
বাহ	-11.3828
দেশে	-11.3828
▁ছবিঃ	-11.383
▁বোঝেন	-11.3831
▁কর্মকাণ্ডের	-11.3831
▁কর্তৃপক্ষকে	-11.3831
চ্ছা	-11.3833
গুলা	-11.3833
জুন	-11.3835
নির্ধারিত	-11.3835
▁মেরু	-11.3836
▁টাকায়	-11.3837
▁পকেট	-11.3838
কলসীয়	-11.3839
দূতাবাস	-11.3839
▁কাহার	-11.3839
ভী	-11.3839
ট্টি	-11.384
ব্যবহার	-11.3841
▁সিডনি	-11.3842
▁১৯০৮	-11.3846
দৃষ্টি	-11.3848
▁চট	-11.385
▁পুনর্বাসন	-11.385
দানি	-11.385
▁দ্বিপাক্ষিক	-11.3851
▁ইন্	-11.3852
▁বরঞ্চ	-11.3852
▁রেডি	-11.3853
▁পৌঁছানো	-11.3853
▁সুজা	-11.3853
▁বিবিধ	-11.3854
▁শরণার্থীদের	-11.3855
▁প্রস্তাবনা	-11.3855
▁১৯১৫	-11.3856
▁উঠলো	-11.3858
▁স্থানটি	-11.3858
▁বইটির	-11.3858
▁বলিদানের	-11.386
▁সভাগুলো	-11.3861
সদস্য	-11.3862
▁বিচার্য	-11.3862
▁৭০০	-11.3865
▁অবিশ্বাস	-11.3865
▁ব্যর্থতার	-11.3867
▁ক্ষুব্ধ	-11.3876
▁নথিভুক্ত	-11.3878
▁সবকিছুর	-11.3878
▁প্যাকেট	-11.3878
মল	-11.3879
▁অস্থি	-11.388
▁ছবিটির	-11.3881
▁প্রক্রিয়াকরণ	-11.3883
ডিয়া	-11.3884
▁স্ত্রীদের	-11.3889
▁মৃদুতা	-11.3891
▁আনসার	-11.3892
্টা	-11.3893
▁লোগো	-11.3894
আরও	-11.3895
▁স্যুট	-11.3898
▁জমিদারদের	-11.3898
▁ঠোঁট	-11.3898
▁মহিমান্বিত	-11.3898
▁শ্রোতা	-11.3898
▁মেডিসিন	-11.3898
▁জব	-11.3899
▁খড়্গ	-11.3899
মিক	-11.3899
▁রেহাই	-11.39
▁কর্তা	-11.39
▁জোরপূর্বক	-11.3901
▁নিদর্শনাদি	-11.3901
▁স্থলে	-11.3902
▁গার্লস	-11.3902
▁ভাঁজ	-11.3906
▁ফরেস্ট	-11.3907
ভিস	-11.3908
▁গ্রীষ্মে	-11.3911
▁উদ্ভিদের	-11.3913
▁প্রতিরোধের	-11.3915
ছবি	-11.3919
▁সর্প	-11.392
▁উত্তপ্ত	-11.3922
▁লংঘন	-11.3922
▁পাঠ্যপুস্তক	-11.3922
কল্পে	-11.3922
▁সমাহিত	-11.3922
খাত	-11.3923
ডান	-11.3924
▁মোর	-11.3924
▁দন্ত	-11.3925
▁গোলাকার	-11.3926
▁থাকতো	-11.3927
▁সাও	-11.3928
▁সংঘর্ষে	-11.3928
▁শোধ	-11.3932
▁বিষয়টির	-11.3934
১৯৯২	-11.3934
শব্দ	-11.3935
▁বিনাশ	-11.3936
দাহ	-11.3937
▁পেলো	-11.3937
▁এতদিন	-11.3938
▁হুসাইন	-11.3941
▁এসআর	-11.3942
ফোন	-11.3944
▁পদমর্যাদা	-11.3944
▁আধিকারিক	-11.3946
▁বিধানাবলী	-11.3946
▁করিয়াছ	-11.3946
োত্তর	-11.3951
▁জিহ্বা	-11.3952
▁গুয়া	-11.3953
▁রিকো	-11.3954
▁সেইরকম	-11.3955
এমন	-11.3956
▁চলেছিল	-11.3961
ডাই	-11.3966
▁বদ্বীপ	-11.3966
▁১৯০৬	-11.3967
▁অনুষ্ঠানটি	-11.3969
▁আজীবন	-11.3969
▁সাবধানবাণী	-11.3969
▁স্টিল	-11.3971
▁পালনকর্তা	-11.3972
▁আশীর্বাদগুলো	-11.3972
▁গাধা	-11.3973
▁ব্যবসায়ীদের	-11.3973
▁প্রাণি	-11.3974
▁আন্ডার	-11.3975
বরণ	-11.3975
▁স্ট্যা	-11.3976
প্ত	-11.3978
▁ফারুক	-11.3978
▁হাবিব	-11.398
▁কোনরকম	-11.3984
▁দুরে	-11.3987
▁ডাকাতি	-11.399
▁পরপর	-11.3991
▁তিউনিশিয়া	-11.3992
▁হারা	-11.3992
▁ফোর	-11.3993
▁জনমত	-11.3993
▁রঙিন	-11.3995
▁বিস্তৃতি	-11.4
▁প্রহার	-11.4003
▁কূপ	-11.4005
বিশ্ব	-11.4005
▁আধ্যাত্মিকতা	-11.4006
▁গিরি	-11.4008
▁হিউ	-11.4015
▁অভিপ্রায়	-11.4017
▁সার্চ	-11.4018
▁ছাতা	-11.4018
াজ	-11.402
পোর্ট	-11.402
▁অসমর্থ	-11.402
জেড	-11.4021
বাণী	-11.4024
▁গল্পটি	-11.4028
▁বিষয়েও	-11.4029
▁অপরাধীদের	-11.4029
গর্ভ	-11.403
াদির	-11.4031
▁বান	-11.4031
সময়ে	-11.4034
▁ভ্যা	-11.4036
▁বাবামাদের	-11.4038
▁চিরকালের	-11.4038
▁একচেটিয়া	-11.404
▁পুনর্নির্ধারণ	-11.404
▁ক্লার্ক	-11.404
▁রহিম	-11.4041
▁যাচ্ঞা	-11.4041
▁দ্বাদশ	-11.4042
▁কনসার্ট	-11.4044
▁প্লাবনভূমি	-11.4044
▁ঘোরা	-11.4045
▁ইয়াহ	-11.4045
▁গ্রীষ্ম	-11.4046
▁থিম	-11.4047
▁চাননি	-11.4048
▁জুতো	-11.4051
ত্ম	-11.4051
ূন	-11.4054
ম্বু	-11.4055
▁নাগ	-11.4055
▁অন্তঃ	-11.4056
ন্দর	-11.4058
▁বাগানে	-11.4059
▁অস্বস্তি	-11.4063
লিঙ্গ	-11.4064
▁জর্জরিত	-11.4064
১৯৯১	-11.4065
▁উপাচার্য	-11.4065
▁আপ্রাণ	-11.4066
▁লঞ্চ	-11.4066
▁বেশীর	-11.4067
▁পানামা	-11.4068
সিও	-11.4068
▁গোর	-11.4069
বস্তু	-11.4071
▁ভো	-11.4072
াং	-11.4075
▁উপত্যকায়	-11.4083
কিয়া	-11.4083
▁সাইটের	-11.4083
▁ব্যাট	-11.4083
▁ঢুকিয়ে	-11.4085
▁বাস্তবিকই	-11.4087
▁স্তন্যপায়ী	-11.4088
▁ত্যাগস্বীকার	-11.4088
▁আসছিল	-11.4089
▁অগণিত	-11.4089
▁পরিহিত	-11.409
▁অর্পিত	-11.409
▁অস্বীকৃতি	-11.4091
▁যাকোবের	-11.4091
▁পালাতে	-11.4092
▁পার্কের	-11.4096
▁মহিলাকে	-11.4098
▁দিবসের	-11.4098
▁শিক্ষামূলক	-11.4098
পাট	-11.4101
▁মানি	-11.4103
▁অংশবিশেষ	-11.4103
▁মাঝ	-11.4104
▁মহানগর	-11.4105
▁উপনীত	-11.4105
▁বেদ	-11.4105
▁পত্রিকাগুলো	-11.4106
িরাজুল	-11.4107
মুরগি	-11.4109
করন	-11.4109
▁ঘোর	-11.4111
▁উম	-11.4111
▁আর্মেনীয়	-11.4112
▁অশোক	-11.4112
▁কেপলার	-11.4112
▁ব্যয়বহুল	-11.4113
▁ম্যানচেস্টার	-11.4113
▁জ্বালিয়ে	-11.4115
রির	-11.4115
▁সংস্করণের	-11.4116
দত্ত	-11.4117
হল	-11.4117
▁প্রণয়	-11.412
▁ইজি	-11.4124
▁চেন্নাই	-11.4126
▁মরিয়মের	-11.4127
▁ঘটনাকে	-11.4129
▁ডানহাত	-11.4131
▁চাচ্ছে	-11.4132
▁বাহিনীতে	-11.4133
▁ফিট	-11.4135
▁দর্শনে	-11.4135
▁সরানো	-11.4139
েয়ার	-11.414
▁ভাণ্ডার	-11.414
▁বিরোধীদের	-11.414
▁অসৎ	-11.4142
সম্মান	-11.4144
▁সংবাদে	-11.4147
ঝি	-11.4148
▁১৯১৬	-11.4149
▁দুবাই	-11.415
গালা	-11.415
▁নিবাস	-11.4154
াকা	-11.4154
▁উইমেন	-11.416
▁প্রথিত	-11.416
▁ইনপুট	-11.4161
▁যাঁর	-11.4161
▁স্বদেশ	-11.4162
▁শিকড়	-11.4162
▁স্ক	-11.4163
▁অবাধ	-11.4164
▁রান্নার	-11.4165
ত্তর	-11.4165
কুর	-11.4167
▁গণহত্যার	-11.4168
র্ভ	-11.4172
যেখানে	-11.4172
▁ঢ	-11.4173
গণকে	-11.4174
▁রন	-11.4174
আন	-11.4175
▁উইথ	-11.4175
▁আমিন	-11.4176
ফিল	-11.4176
▁পর্যটকদের	-11.4181
▁ভাবছি	-11.4183
▁কনভেনশন	-11.4184
▁স্থলাভিষিক্ত	-11.4184
▁সূর্যাস্ত	-11.4184
▁এনক্রিপশন	-11.4184
▁উঠিয়ে	-11.4186
▁শক্তিতে	-11.4186
▁স্টা	-11.4186
▁প্রতিস্থাপিত	-11.4186
▁দিব্য	-11.4186
▁পরিশোধক	-11.4187
▁যতটুকু	-11.4187
▁উপাসনাকে	-11.4187
▁হইলেন	-11.4187
▁শিক্ষিকা	-11.419
ম্বর	-11.4191
▁করণ	-11.4192
ত্যাগ	-11.4194
▁ভেড়া	-11.4194
▁ক্রেতা	-11.4196
বিসি	-11.4197
কাই	-11.4198
▁সমস্যাটা	-11.42
▁রাউন্ড	-11.4201
মার্কিন	-11.4203
▁মর্ম	-11.4204
▁এসেছ	-11.4206
▁পালটে	-11.4208
এনসাইক্লোপিডিয়া	-11.4208
▁টল	-11.421
চর্চা	-11.4213
▁নহিমিয়	-11.4214
▁ছি	-11.4216
▁এমএ	-11.4217
▁মৃত্যুকে	-11.4217
▁জাম্বিয়া	-11.4218
▁কথোপকথনের	-11.4218
▁অংশগ্রহণকারীদের	-11.4221
▁চ্যানেলের	-11.4221
▁ফলাফলের	-11.4221
লতা	-11.4226
শান্তি	-11.4231
▁ধরেই	-11.4231
▁ক্যাম্বোডিয়া	-11.4233
▁সচরাচর	-11.4233
▁কতটুকু	-11.4236
▁সাবান	-11.4236
▁নিবেদিত	-11.4237
▁ধারাবাহিকভাবে	-11.4238
▁গণনাপুস্তক	-11.4239
▁কার্যত	-11.4241
▁স্বচ্ছতা	-11.4246
▁সোয়া	-11.425
▁ক্লে	-11.425
▁কর্মকান্ডের	-11.4251
▁এজ	-11.4254
▁অকৃত্রিম	-11.4257
▁গণভোট	-11.4257
ক্ষমতা	-11.4258
▁১২৭	-11.4259
▁বিনিয়োগের	-11.4261
▁উদয়	-11.4261
৩০০	-11.4263
২০১৭	-11.4264
▁চলতি	-11.4267
▁ছাপাখানা	-11.4267
্রি	-11.4272
▁প্রত্য	-11.4273
▁ঐতিহ্যগত	-11.4278
▁বাউল	-11.4281
▁ফিল্টার	-11.4282
▁ইঞ্জিনিয়ার	-11.4283
▁আজম	-11.4285
▁বক	-11.4285
▁পেরু	-11.4286
মন্ডল	-11.4287
▁খোঁজা	-11.4288
যো	-11.4289
▁বার্	-11.4289
মুন	-11.4289
▁সাধ্য	-11.4292
প্যা	-11.4292
ফরাসী	-11.4293
মোঃ	-11.4294
▁গ্যাসের	-11.4294
োতে	-11.4295
িংটন	-11.4297
ঁদ	-11.4297
শ্রেণী	-11.4299
▁আর্য	-11.43
▁মালয়	-11.4301
▁গমনাগমন	-11.4306
▁সুস্বাদু	-11.4306
▁মরক্কো	-11.4306
▁ছেলেটি	-11.4306
▁বর্ম	-11.4306
▁দিল্লিতে	-11.4306
হরি	-11.4307
▁কুর	-11.4307
▁প্রগতিশীল	-11.4307
▁চীফ	-11.4308
▁হয়রানি	-11.4308
▁শয্যা	-11.4309
পুত্র	-11.4309
▁ভেবেছিল	-11.4312
▁পুঁজি	-11.4313
▁প্রতিকৃতি	-11.4315
▁ভয়ের	-11.4316
মারী	-11.4319
▁পোস্টের	-11.4319
▁প্রয়োজনের	-11.4322
বেশ	-11.4322
▁রাবার	-11.4323
▁রক্তে	-11.4324
▁বাইবেলভিত্তিক	-11.4324
▁নাৎসি	-11.4325
▁শীতকালে	-11.4326
লোকেরা	-11.4329
▁অনি	-11.433
মনি	-11.433
▁প্রবৃদ্ধি	-11.4332
▁কঙ্গো	-11.4332
▁পারতো	-11.4333
▁পরোক্ষভাবে	-11.4335
▁রোজা	-11.4336
▁চড়	-11.4336
▁হারান	-11.4339
▁অনুরূপভাবে	-11.4342
▁প্লেয়ার	-11.4344
▁সোম	-11.4346
▁নামেই	-11.4347
সেফ	-11.4348
▁স্টিভেন	-11.4349
১৯৮৬	-11.4349
থো	-11.4351
▁মেটা	-11.4354
▁বিকেলে	-11.4355
▁পেঁপে	-11.4355
▁নিরূপিত	-11.4355
▁জনসাধারণ্যে	-11.4355
▁মেমরি	-11.4356
বন্ধন	-11.4357
▁অস্কার	-11.4358
▁সার্কাস	-11.4358
▁লিউ	-11.4359
▁লিখছেন	-11.4361
▁বলেননি	-11.4362
▁আরেকবার	-11.4362
▁গদ্য	-11.4364
▁ড্রাম	-11.4365
▁আউ	-11.4365
▁কাপুর	-11.4366
বেলা	-11.4369
রোধ	-11.4377
়	-11.4379
▁ফরৌণ	-11.438
▁সহজলভ্য	-11.438
▁মাহবুব	-11.438
▁রিভিউ	-11.438
▁স্টোর	-11.4381
সনের	-11.4382
▁তির	-11.4382
▁ইচ্ছাকৃতভাবে	-11.4383
ত্রী	-11.4387
▁ফৌজদার	-11.4388
▁যিহূদীদের	-11.4391
▁ম্যাক্স	-11.4391
▁অস্তিত্বের	-11.4392
▁পালের	-11.4392
ণ্ট	-11.4392
▁ট্রেনে	-11.4393
▁আলাদাভাবে	-11.4398
য়াত	-11.4399
▁অ্যানা	-11.44
▁ইম	-11.44
▁পরিণাম	-11.4401
▁জালাল	-11.4402
▁আমল	-11.4402
রেট	-11.4404
▁মতাদর্শ	-11.4404
▁প্রত্নসম্পদ	-11.4404
▁ক্যাডেট	-11.4404
▁সারসংক্ষেপ	-11.4404
▁নিবেদন	-11.4406
▁মরোক্কোর	-11.4408
▁পরিবর্তনগুলো	-11.441
▁ভারসাম্যপূর্ণ	-11.4412
▁শত্রুতা	-11.4413
▁শৌলের	-11.4414
▁যাঁরা	-11.4414
▁বুল	-11.4415
▁ওয়েবসাইটের	-11.4415
হ্যাঁ	-11.4418
▁সহায়তার	-11.4419
্দা	-11.442
▁অভিমত	-11.442
▁৮০০	-11.4421
▁সদস্যকে	-11.4424
▁কার্যাবলি	-11.443
▁গোপনীয়	-11.443
▁ইয়	-11.4431
▁এয়ারলাইন্স	-11.4431
▁ফেলছে	-11.4432
▁তাকায়	-11.4433
▁অ্যাম	-11.4433
য়ার্ড	-11.4435
▁অস্ট্রেলিয়ায়	-11.4435
▁ফেব্রুয়ারিতে	-11.4436
▁নিরপেক্ষতা	-11.4436
▁পশ্চিমের	-11.4436
▁মারে	-11.4437
▁সানা	-11.4439
বিশ্বাস	-11.4439
▁বলয়	-11.444
▁অযথা	-11.4441
▁ঘুরিয়ে	-11.4444
▁মেল	-11.4446
নদী	-11.4447
যশা	-11.4449
▁বাবিলের	-11.445
▁বার্লিন	-11.4453
▁কোয়ার্টার	-11.4454
▁উন্মোচিত	-11.4454
▁বিতাড়িত	-11.4454
▁কর্ত্তৃত্ব	-11.4455
▁স্পিকার	-11.4456
▁জুনে	-11.4458
▁থো	-11.4463
হৃদয়	-11.4463
▁বিচক্ষণতা	-11.4469
মার্চ	-11.447
▁নরক	-11.4477
▁অস্ট্রেলিয়ান	-11.4477
স্ত্রী	-11.4478
▁কিংবদন্তি	-11.4479
▁শতাধিক	-11.4479
▁অবিরত	-11.4481
▁হবক্কূক	-11.4481
▁মধ্যযুগের	-11.4483
▁টিউব	-11.4484
খো	-11.4485
▁তিনিও	-11.4485
▁ঝুঁকিপূর্ণ	-11.4486
দ্বীপ	-11.4488
▁হয়তোবা	-11.4489
▁আবহাওয়ার	-11.4489
পড়া	-11.449
▁উল্লাস	-11.4492
▁ঘুষ	-11.4495
▁যিহুদিরা	-11.4497
৬০০	-11.4498
▁গোপাল	-11.4498
োম	-11.4498
▁এরশাদ	-11.4498
▁থাকবো	-11.4499
র্স	-11.4501
▁প্রদর্শনীর	-11.4503
চ্ছেদ	-11.4503
▁মেদিনীপুর	-11.4504
▁গৌরবান্বিত	-11.4504
১৯৭০	-11.4505
▁চাইছে	-11.4508
বৈ	-11.4509
▁ইয়াহিয়া	-11.4514
▁টিন	-11.4515
▁কেয়ার	-11.4515
▁উপলব্ধ	-11.4516
▁স্বচ্ছন্দ	-11.4517
▁পড়ত	-11.4519
▁ফাইলে	-11.452
সাধারণ	-11.4523
▁ফাস্ট	-11.4524
গুপ্ত	-11.4526
▁কতো	-11.4529
▁তৎক্ষণাৎ	-11.4529
▁সাঈদ	-11.4529
▁ভিটামিন	-11.4529
▁স্ক্রীন	-11.4529
্রো	-11.4529
▁শূকর	-11.453
ষে	-11.4531
▁পেতাম	-11.4532
কল্প	-11.4533
▁ধরিয়া	-11.4535
্রে	-11.4536
▁তাইনা	-11.4538
▁আড়ালে	-11.4539
সিং	-11.4543
আইসি	-11.4543
▁তৈল	-11.4547
▁চিত্রশিল্পী	-11.4548
▁টুইটারের	-11.4548
▁পঞ্চাশত্তমী	-11.4554
▁ম্যালেরিয়া	-11.4554
▁হস্তে	-11.4554
▁খাতুন	-11.4555
▁মূলধারার	-11.4555
্প	-11.4556
▁প্রোগ্রামের	-11.4556
▁নগরী	-11.4557
মাতা	-11.4558
▁বিষণ্ণ	-11.4558
ুরি	-11.4559
▁জন্তু	-11.4561
▁সামন্ত	-11.4562
▁বাগানের	-11.4563
▁ভাইবোন	-11.4564
▁ফিল	-11.4565
▁প্রসাদ	-11.4565
▁গৃহের	-11.4565
▁খালেদ	-11.4569
▁মনোভাবকে	-11.4571
▁পবিত্রতা	-11.4572
▁শ্র	-11.4573
▁গাল	-11.4575
▁১০১	-11.4576
প্রবণ	-11.4576
▁আগস্টে	-11.4576
▁সেপিয়েন্স	-11.4579
▁ডিপ্লোমা	-11.4579
▁সংকুচিত	-11.4579
▁স্টিফেন	-11.4579
টাতে	-11.4579
োনা	-11.4579
▁হাঁটা	-11.4582
▁বংশা	-11.4585
▁গেয়ে	-11.4588
▁মণ্ডল	-11.4589
▁কাচ	-11.4592
▁১৩৯	-11.4592
▁দ্রব্যাদি	-11.4592
জেস	-11.4596
▁বেশ্যা	-11.4597
▁কমানোর	-11.4598
▁জন্মায়	-11.4599
▁কোনভাবে	-11.4599
▁গতানুগতিক	-11.4604
▁মওলানা	-11.4604
▁আপাতদৃষ্টিতে	-11.4604
▁জুয়া	-11.4604
▁হইবার	-11.4605
ূত	-11.4605
▁হুসেন	-11.4606
▁কয়িন	-11.4607
▁কনফারেন্স	-11.4607
ছোট	-11.4609
▁নামানুসারে	-11.4611
▁প্রচারাভিযান	-11.4614
▁ব্যবহারে	-11.4615
আমাকে	-11.4618
তাহলে	-11.4618
আইন	-11.4618
▁জিতেছে	-11.4619
▁করিলে	-11.462
▁ইংরেজদের	-11.4621
হাব	-11.4624
▁বাহক	-11.4624
▁সভাপতিত্ব	-11.4625
▁তীক্ষ্ণ	-11.4629
▁রওনা	-11.4629
▁প্রাণবন্ত	-11.4629
▁সিক্রেট	-11.463
▁নিম	-11.463
▁চলচিত্র	-11.4632
▁জ্ঞাপন	-11.4632
▁ইসরায়েলি	-11.4633
ানুসারে	-11.4633
▁পরিবর্তনশীল	-11.4633
▁পরামর্শের	-11.4635
▁মাস্টার্স	-11.4635
লেই	-11.4636
▁গৌর	-11.4636
▁রাইফেল	-11.4638
▁কর্	-11.4638
▁তিব্বত	-11.4641
▁এড়ানোর	-11.4642
ালা	-11.4643
▁অভ্যুত্থান	-11.4645
▁প্রতাপ	-11.4646
▁১৯০৯	-11.4648
▁ড্রাগ	-11.4652
▁খানকে	-11.4652
▁স্মরণার্থক	-11.4653
▁পর্যবেক্ষক	-11.4655
▁মোমবাতি	-11.4655
▁স্কাউট	-11.4655
▁কারাদন্ড	-11.4655
▁কর্পোরেট	-11.4655
▁১০৫	-11.4657
াবস্থায়	-11.4661
▁পিস্তল	-11.4661
▁পর্তুগাল	-11.4662
▁মন্ত্রীর	-11.4662
▁প্রেরিতরা	-11.4662
▁দাসকে	-11.4663
▁দণ্ডিত	-11.4664
▁বাক্যগুলি	-11.4664
ইজ	-11.4666
▁মৌজা	-11.4667
ল্ফ	-11.467
সন্তান	-11.4671
াধিকারসূত্রে	-11.4672
১৯৬২	-11.4673
▁সংহতি	-11.4674
১৯৬৭	-11.4675
▁তুল্য	-11.4675
▁অক্ষমতা	-11.4677
▁সুই	-11.4678
▁রহিত	-11.4678
▁রবীন্দ্র	-11.4679
▁অশ্বারোহী	-11.468
▁রেফারেন্স	-11.468
▁ফিল্মফেয়ার	-11.468
▁ইস্টার্ন	-11.468
▁হোল	-11.4682
▁বসার	-11.4683
▁আদা	-11.4683
▁এন্ট্রি	-11.4688
▁করিডোর	-11.469
▁মুহূর্তের	-11.4691
▁হাতির	-11.4691
▁খাওয়ানো	-11.4692
বস	-11.4695
▁গর	-11.4696
রস	-11.4699
খোলা	-11.4701
আখ	-11.4702
▁নিখিল	-11.4703
োভা	-11.4705
▁ক্ষেপণাস্ত্র	-11.4705
▁অরণ্য	-11.4706
▁সংলাপ	-11.4706
▁জলাধার	-11.4709
▁টেল	-11.471
▁পনেরো	-11.471
▁মালাখি	-11.4711
▁জিনিসের	-11.4711
▁ত্বক	-11.4712
▁উড়ান	-11.4713
▁মাউস	-11.4713
সদৃশ	-11.4715
▁কোণে	-11.4718
ফিলিপীয়	-11.4718
▁ছিলনা	-11.472
▁পারবেনা	-11.4722
বঙ্গ	-11.4723
▁অনুপস্থিতি	-11.4726
গার্ড	-11.4726
▁থিয়েটারে	-11.4727
উইন	-11.4729
▁সেরে	-11.473
▁দাপ্তরিক	-11.4731
▁পরিস্কার	-11.4731
▁পর্যায়ক্রমে	-11.4732
▁আনেন	-11.4732
ত্তি	-11.4733
▁করিন্থ	-11.4737
মুসলিম	-11.474
ঠিক	-11.474
সচিব	-11.4743
বিধানসভা	-11.4744
▁দ্বীপটি	-11.4744
দানিয়েল	-11.4745
▁রানার	-11.4747
▁সংগ্রামের	-11.4747
েইন	-11.4748
▁সারাজীবন	-11.4748
▁সনি	-11.4749
াতি	-11.4749
▁গোবিন্দ	-11.4751
ল্লাহ	-11.4752
▁বিশদ	-11.4752
▁সাগরে	-11.4752
োলজি	-11.4752
▁ধাঁধা	-11.4753
ল্যা	-11.4754
▁স্মৃতিসৌধ	-11.4756
▁শিয়ালদহ	-11.4756
▁পরীক্ষিত	-11.4757
▁চাবিকাঠি	-11.4757
িকে	-11.4757
▁চুক্তিবদ্ধ	-11.4759
▁মাঝেমধ্যে	-11.476
▁মিশিয়ে	-11.4763
▁ধরেছিলেন	-11.4764
▁বাড়িঘর	-11.4764
▁ধন্য	-11.4768
▁রানওয়ে	-11.4768
▁ঠা	-11.4768
▁প্রাইম	-11.477
▁১১৫	-11.477
▁রানি	-11.4773
▁গ্রেগর	-11.4774
▁চাহিদাগুলো	-11.4775
্যান্স	-11.4778
ঙ্কার	-11.4782
▁জংশন	-11.4783
▁তিউনিশিয়ার	-11.4784
▁উৎপাদনকারী	-11.4784
▁নিউজিল্যান্ডের	-11.4785
▁আইডি	-11.4785
▁আক্রমণে	-11.4786
এমএস	-11.4787
▁গ্রাহকদের	-11.4788
▁সম্রাটের	-11.4788
খি	-11.4789
▁উৎসাহের	-11.4791
▁বন্ধুত্বপূর্ণ	-11.4795
ডাব্লিউ	-11.4795
▁ক্লো	-11.4796
▁উচ্চতায়	-11.4799
▁স্টোরি	-11.4799
১৯৭৩	-11.4801
▁মুসলমানরা	-11.4802
১৯৭৬	-11.4805
▁সিনেমার	-11.4807
▁জিয়াউ	-11.4808
▁ভিক্টর	-11.4809
▁সুন্নি	-11.4809
▁স্তন	-11.4809
▁অধীর	-11.481
▁ফেটে	-11.481
▁গিটার	-11.4813
হানি	-11.4813
▁নাইজেরিয়া	-11.4816
জম	-11.4817
▁উদযাপনের	-11.4818
▁জগত	-11.4821
চন	-11.4822
▁পুলিশকে	-11.4822
▁খোল	-11.4826
▁নথির	-11.4828
▁লুসি	-11.4829
▁আত্মবিশ্বাস	-11.4833
▁ঈগল	-11.4834
▁গ্র্যাজুয়েট	-11.4834
রত্ন	-11.4835
▁আদিবাসীদের	-11.4836
▁পরম্পরাগত	-11.4839
▁অগ্রগতির	-11.4839
বর্ষ	-11.4843
▁তিউনিসিয়া	-11.4844
োহ	-11.4845
▁সড়কের	-11.4847
পরে	-11.4848
▁ফাঁক	-11.4849
▁ফেনী	-11.4849
শাল	-11.4852
১৯৯০	-11.4854
▁বার্মা	-11.4857
▁ব্রিটিশরা	-11.4859
ারস	-11.486
▁ফরওয়ার্ড	-11.486
সরকার	-11.486
▁সঞ্চিত	-11.4861
▁ঘনিষ্ঠভাবে	-11.4863
▁বৈঠকে	-11.4867
▁ধারন	-11.4868
▁আর্দ্র	-11.4868
▁জেট	-11.4869
▁জ্যাকসন	-11.487
গাছ	-11.4871
▁ব্রাহ্ম	-11.4871
▁জাতীয়তাবাদ	-11.4872
▁পড়েছিলাম	-11.4876
পাপ	-11.4876
▁লাসার	-11.488
▁উগান্ডা	-11.4881
▁বালু	-11.4883
▁অপবাদ	-11.4884
▁এনক্রিপ্ট	-11.4885
▁সিন্ডিকেট	-11.4885
▁শোকার্ত	-11.4885
▁জোগান	-11.4886
টিও	-11.4887
৮০০	-11.4889
▁হলেই	-11.4889
▁হবাকে	-11.4891
র্ষ	-11.4892
▁আঁক	-11.4893
▁পরদিন	-11.4894
▁কামরা	-11.4897
পালন	-11.4898
লেবীয়	-11.4899
▁১০টি	-11.4899
▁মোঃ	-11.49
▁এইমাত্র	-11.49
তৃ	-11.4901
▁বনে	-11.4902
হন	-11.4903
▁৬ষ্ঠ	-11.4903
নকে	-11.4906
১৯৬৪	-11.4906
নাইট	-11.4906
▁তাহাই	-11.4907
লং	-11.491
▁বাক্সটা	-11.4911
▁প্রশ্নটি	-11.4911
▁আতিথেয়তা	-11.4911
▁ভরণপোষণ	-11.4911
▁আহসান	-11.4912
▁অশুভ	-11.4913
▁মোস্তফা	-11.4913
▁কাহিনি	-11.4914
▁পরামর্শদাতা	-11.4916
▁পরিচর্যাকে	-11.4918
▁গিনি	-11.4918
▁নত	-11.4922
▁তাকান	-11.4923
▁অভাবের	-11.4923
▁চিঠির	-11.4924
▁মোটেই	-11.4925
▁চাকা	-11.4925
▁যোষেফের	-11.4926
▁অস্ট্রিয়া	-11.4928
▁সেতুর	-11.4929
আশাক	-11.4929
▁এখনি	-11.493
▁অন্যত্র	-11.493
কোনো	-11.4931
বক্স	-11.4932
▁মারার	-11.4935
▁মনোনিবেশ	-11.4937
▁সার্থক	-11.4938
▁বন্ধনে	-11.4938
▁পাটনা	-11.4938
▁প্রশিক্ষক	-11.4938
▁শাহী	-11.4939
▁সংযুক্তি	-11.4943
হয়	-11.4944
ঙ্গল	-11.4946
ুলা	-11.4946
▁অধ	-11.4946
▁১২টি	-11.4947
▁উদারতা	-11.4949
▁রাও	-11.4952
▁সংশোধনের	-11.4952
▁পকেটে	-11.4954
▁বী	-11.4955
▁আরবে	-11.4957
স্টে	-11.4959
▁১১৬	-11.4959
▁ধারণাকে	-11.4961
ভাস	-11.4962
▁যাত্রীদের	-11.4962
▁পাত্তয়া	-11.4963
▁গরীব	-11.4963
▁ষোড়শ	-11.4963
▁অনিশ্চয়তা	-11.4963
▁রুপি	-11.4964
▁হোটেলের	-11.4965
ক্রিয়া	-11.4967
▁উনার	-11.4967
হত	-11.4968
▁সিংহের	-11.497
▁গার্ল	-11.4971
ঘু	-11.4973
▁দেখেছ	-11.4976
▁ইভান	-11.4977
▁আখ্যা	-11.4982
ন্যা	-11.4982
▁রাজ্যকে	-11.4984
▁ভাতা	-11.4989
▁নাতি	-11.4989
ুজ্জামান	-11.499
▁বর্ডার	-11.499
▁টির	-11.4995
▁রক্ষায়	-11.4996
▁স্থাপত্যের	-11.4998
এসএস	-11.5
▁পুনর্নির্মাণ	-11.5
▁ডেনমার্ক	-11.5001
▁চ্যানেলে	-11.5001
▁বাক্সে	-11.5003
▁বন্ধুকে	-11.5004
▁ম্যাচের	-11.5005
▁অনেকদিন	-11.5005
▁কৌতূহল	-11.5006
▁মানচিত্রে	-11.5007
নব	-11.501
▁পদার্থের	-11.501
▁বাসনা	-11.501
▁ফের	-11.5012
▁উৎপাদনে	-11.5012
▁সার্বভৌমত্ব	-11.5014
টাউন	-11.5015
▁অনৈতিকতা	-11.5016
▁বোম্বে	-11.5017
▁দুর্দশার	-11.5018
▁অসম্পূর্ণ	-11.5018
▁নিরসন	-11.5022
▁আয়োজনের	-11.5023
▁দাড়ি	-11.5024
ব্ব	-11.5024
▁রচনায়	-11.5027
▁বিনয়ী	-11.5027
▁গ্রুপে	-11.5028
▁["	-11.5031
▁সহিংস	-11.5032
ঁত	-11.5033
▁বদলি	-11.5035
▁আকুল	-11.5035
শ্	-11.5036
▁ছাগ	-11.5037
▁গোঁড়া	-11.5037
▁ব্যক্তিটি	-11.5037
▁গতিপথ	-11.5039
▁এলোমেলো	-11.5042
▁সুড়ঙ্গ	-11.5042
▁শার্লক	-11.5042
▁মার্ভেল	-11.5043
▁কসম	-11.5045
গোল	-11.5047
▁দাঁড়ান	-11.5048
োরি	-11.505
▁আরবী	-11.505
▁নেতৃত্বের	-11.5052
▁মতবাদের	-11.5053
▁মান্য	-11.5054
▁অনুসারীরা	-11.5055
▁অধ্যয়নে	-11.5056
▁ফোনটা	-11.5057
▁বিলিয়ে	-11.506
▁কাপড়ের	-11.5062
▁মিথ্যাবাদী	-11.5064
দ্দা	-11.5066
▁নিরূপণ	-11.5069
▁হিব্রু	-11.5069
▁স্বায়ত্তশাসিত	-11.5069
▁বজ্র	-11.507
▁বসবাসের	-11.5071
▁পুরস্কারে	-11.5073
▁লিবিয়া	-11.5074
▁প্লেন	-11.5076
▁স্বাগতিক	-11.5077
▁মরিচ	-11.5077
▁বোল	-11.5079
▁ডেভ	-11.5081
▁বুঝেছি	-11.5081
বিদ্যার	-11.5085
ড্রি	-11.5086
▁উইকি	-11.5086
ধী	-11.5087
▁তিক্ত	-11.5088
দ্রা	-11.5089
পাশ	-11.5089
▁আনু	-11.509
টর	-11.5092
▁ক্যাট	-11.5092
▁১০২	-11.5093
▁লক্ষ্যগুলো	-11.5094
জ্য	-11.5094
ডাঙ্গা	-11.5094
▁ভুট্টো	-11.5095
▁প্রত্যক্ষদর্শী	-11.5095
আম	-11.5098
▁তুলুন	-11.5099
▁ঘুরতে	-11.51
▁ফাদার	-11.51
▁সিরাজ	-11.5101
▁সূ	-11.5102
▁ডেস্ক	-11.5102
িয়ো	-11.5104
▁ক্লাবে	-11.5106
▁টুলবার	-11.5106
▁পরাক্রম	-11.5109
▁আদেশে	-11.511
▁চিলির	-11.5114
১৯৮৪	-11.5116
▁ডেটা	-11.5116
▁যেগুলোকে	-11.5116
▁ছাড়তে	-11.5118
▁পাম	-11.5118
থার	-11.5119
▁রাষ্ট্রে	-11.5121
▁আব্দুল্লাহ	-11.5122
▁রাষ্ট্রসংঘ	-11.5122
▁ইয়ং	-11.5122
▁ভাসমান	-11.5123
ন্টা	-11.5124
▁ব্যাংকক	-11.5128
▁১১২	-11.5131
জন্য	-11.5132
▁সাং	-11.5134
সাত	-11.5134
▁স্কটল্যান্ড	-11.5134
▁চালনা	-11.5135
▁প্রদীপ	-11.5135
টিই	-11.5137
▁বিদ্বেষ	-11.5137
▁পার্ল	-11.5141
▁ট্যাঙ্ক	-11.5143
▁চাঁদের	-11.5145
▁ওহ্	-11.5145
শীপ	-11.5146
▁বেক	-11.5147
সিংহ	-11.5147
▁দিবো	-11.5148
▁ব্লার্ব	-11.5148
▁রমজান	-11.5148
▁তাকাও	-11.5148
▁ঘো	-11.5151
▁ব্যারি	-11.5153
হী	-11.5154
▁কেশ	-11.5156
▁জোগানো	-11.5159
▁বাঁচতে	-11.516
▁লোপ	-11.5162
▁বাসে	-11.5162
হারে	-11.5165
▁পালনে	-11.5169
সেরা	-11.517
▁আকা	-11.517
▁চরিত্রটি	-11.5172
▁বায়ুমণ্ডল	-11.5172
▁নিত	-11.5175
▁কলম্বিয়ার	-11.5175
▁শৈল্পিক	-11.5175
▁অপরাজিত	-11.5175
বিক	-11.5176
ন্টো	-11.5176
▁চিকিত্সা	-11.5176
▁পর্ব্বত	-11.5177
▁দুনিয়ার	-11.5177
▁সার্ভে	-11.5177
▁ঘট	-11.5178
▁শেষপর্যন্ত	-11.5178
▁ভিক্ষা	-11.5182
▁সুশীল	-11.5183
সাইট	-11.5184
▁ব্যক্তিবর্গ	-11.5185
▁সুইস	-11.5185
▁বিকেল	-11.5186
▁আইপি	-11.5186
রেক	-11.5187
▁বক্তৃতায়	-11.5187
▁বস্তি	-11.5188
▁রিভার	-11.5194
▁নৌকায়	-11.5196
প্লে	-11.5199
িক্স	-11.5199
▁কভার	-11.52
▁তলোয়ার	-11.5202
▁চিত্রকর্ম	-11.5203
▁দামেস্ক	-11.5203
▁বৈশিষ্ট্যাবলী	-11.5203
▁গীতিকার	-11.5203
▁পুড়ে	-11.5204
ফেল	-11.5204
▁পোলিশ	-11.5205
▁সর্ব্ব	-11.5206
▁মঙ্গলভাব	-11.5206
▁কীর্তি	-11.5208
▁সৌদ	-11.5209
▁যাহার	-11.5209
▁পরিভাষা	-11.521
▁টুর্নামেন্টে	-11.5211
▁মুবারক	-11.5218
লেক	-11.5218
▁কেন্দ্রস্থল	-11.5221
▁খি	-11.5222
স্য	-11.5223
▁আঘাতের	-11.5223
▁আসক্তি	-11.5228
▁কিন	-11.5228
▁শত্রুরা	-11.523
হাল	-11.523
▁কারখানায়	-11.5232
▁বুর	-11.5234
▁শ্রেণিতে	-11.5236
▁সনে	-11.5237
▁দক্ষিণপূর্ব	-11.5237
বিএস	-11.5237
▁কান্ড	-11.5237
▁প্রাচীনেরা	-11.5238
▁শেখায়	-11.5239
▁বিভেদ	-11.5239
▁লোম	-11.5242
▁চলাচলের	-11.5242
▁ছে	-11.5243
▁জর্দান	-11.5244
▁সমভূমি	-11.5246
▁১৯০৪	-11.5249
▁ব্লা	-11.525
১৯৬৮	-11.5251
▁ভাষ্য	-11.5253
▁কোরো	-11.5254
▁লাইব্রেরী	-11.5255
▁ভুট্টা	-11.5256
১৯৬৫	-11.5256
▁কেই	-11.5257
▁ডানদিকে	-11.5258
▁এশিয়াটিক	-11.5258
▁শৃঙ্গ	-11.5259
▁সালমান	-11.5259
▁দরিদ্রতা	-11.526
▁খাট	-11.526
পত্তি	-11.5262
▁চত্বর	-11.5265
▁বুশ	-11.5268
প্রাচীন	-11.5272
ন্দু	-11.5272
▁জাদুঘরের	-11.5272
▁মধ্যপ্রাচ্য	-11.5272
▁ত্র	-11.5273
▁ঢাক	-11.5275
▁মূলতঃ	-11.5275
ম্যানের	-11.5276
▁ষোল	-11.5276
ালো	-11.5278
▁কর্মক্ষেত্রে	-11.5279
১৯৬০	-11.5279
▁হইয়াছিল	-11.528
▁ত্রিনিদাদ	-11.5282
▁দূতেদের	-11.5282
▁যাজকদের	-11.5282
▁রাইজিং	-11.5282
▁সচিবালয়	-11.5283
▁চাপে	-11.5283
▁প্রত্নতত্ত্ব	-11.5285
▁আবাসন	-11.5286
▁ব্যাংকে	-11.5288
▁দাউদ	-11.5289
▁গ্রামাঞ্চলে	-11.529
▁ছড়ানো	-11.5293
▁চেন	-11.5296
▁চিফ	-11.5301
▁নমনীয়	-11.5301
▁বহি	-11.5302
▁কিছুজন	-11.5303
▁নিয়েও	-11.5306
▁পরিকল্পনায়	-11.5307
▁শাল	-11.5307
▁রেস্টুরেন্ট	-11.5308
▁অন্তরে	-11.5308
▁৭ম	-11.531
▁সম্পাদকের	-11.5314
টোর	-11.5317
▁ঘাড়	-11.5319
উক	-11.532
▁দখলের	-11.5323
▁সিদ্ধান্তগুলো	-11.533
▁ভাবেই	-11.5332
▁ড্রামা	-11.5335
▁টেলি	-11.5336
▁সর্বশ্রেষ্ঠ	-11.5337
▁চৌদ্দ	-11.5337
▁হাস্যকর	-11.5337
▁ঝলক	-11.5337
▁গম্ভীর	-11.5338
▁ফকির	-11.5338
▁অংশীদারিত্ব	-11.5339
▁রাজনীতিক	-11.5339
▁আন্দ্রে	-11.534
▁সাদ	-11.534
▁লোকটার	-11.5343
▁বস্ত্ত	-11.5343
সাইড	-11.5343
▁আশপাশ	-11.5345
▁পরিসরে	-11.5346
▁পাড়	-11.5348
▁দত্তক	-11.5349
▁মানগুলো	-11.535
জেনারেল	-11.5351
তৃতীয়াংশ	-11.5351
▁১৪৪	-11.5354
চরণ	-11.5354
▁গ্রন্থি	-11.5356
ানের	-11.536
১৯৮০	-11.5363
▁ফাঁসি	-11.5364
▁ক্ষতিগ্রস্থ	-11.5364
▁অবকাশ	-11.5366
▁ছিট	-11.5366
▁কঠোরভাবে	-11.5366
▁মূর্তির	-11.5367
▁রাজাকে	-11.5369
▁দিঘি	-11.5369
▁জোড়	-11.5373
▁ডিজাইনার	-11.5374
ক্রা	-11.5375
▁অমূল্য	-11.5376
পরীক্ষা	-11.5378
▁ভ্যালি	-11.538
▁শুটিং	-11.538
▁দানা	-11.538
রাশি	-11.5382
▁সার্ভারে	-11.5383
▁পরিশ্রমী	-11.5386
▁অনুবাদের	-11.5387
▁পুনরুজ্জীবিত	-11.5391
▁নামটা	-11.5391
ছু	-11.5391
▁রানা	-11.5392
▁জ্যা	-11.5393
▁দুর্গের	-11.5395
৪০০	-11.5396
▁বিক্রিয়া	-11.5398
▁নদীটি	-11.5398
▁ব্রো	-11.5398
▁ফৌজদারি	-11.5402
▁প্রকাশকরা	-11.5403
▁একাডেমীর	-11.5404
▁পলল	-11.5405
▁শিক্ষাকে	-11.5406
▁হেলেন	-11.5407
▁মশা	-11.5408
দায়	-11.5408
শক্তির	-11.541
▁তাকালো	-11.5411
▁সিনেট	-11.5411
▁বেবি	-11.5414
▁কোলা	-11.5414
১৯৮৮	-11.5414
▁স্যান্ড	-11.5414
▁পোল	-11.5414
পনা	-11.5415
▁ক্যাফে	-11.5417
▁অপর্যাপ্ত	-11.5418
▁নেতৃস্থানীয়	-11.5418
▁গতির	-11.5418
▁সমাজচ্যুত	-11.5419
▁পালনকর্তার	-11.5421
▁অনিয়মিত	-11.5422
▁বিশ্বস্ততার	-11.5422
@	-11.5422
▁চক্রান্ত	-11.5422
▁জ্যোতির্বিজ্ঞান	-11.5424
▁আকি	-11.5424
▁৬টি	-11.5425
▁রাজকুমার	-11.5425
▁আসব	-11.5429
কাহিনী	-11.5429
▁সার্ক	-11.5432
▁বিয়েতে	-11.5432
ার্ট	-11.5434
▁রাস	-11.5436
▁রোজকা	-11.5439
▁যৌবন	-11.544
▁অববাহিকা	-11.5443
ফার্সী	-11.5444
▁স্ট্র	-11.5445
▁অন্ত্যেষ্টিক্র	-11.5445
▁অভিভূত	-11.5447
▁স্পেনে	-11.5449
▁পাঠ্যাংশ	-11.545
ভোগ	-11.5451
▁মহারাজা	-11.5451
▁ডায়	-11.5451
কার্ড	-11.5453
▁জীবনযাত্রার	-11.5453
▁দলটির	-11.5456
▁বিশৃঙ্খল	-11.5457
ড়িয়ে	-11.5458
▁ঘটান	-11.5461
▁এসকল	-11.5461
▁রেই	-11.5462
▁সেসময়	-11.5462
▁কোলে	-11.5463
মেট	-11.5463
▁নিকাশ	-11.5464
্যাক্ট	-11.5465
▁দূতাবাসের	-11.5465
১৯৮৯	-11.5466
▁গাজার	-11.5469
তাহারা	-11.5472
▁ডিফেন্স	-11.5473
▁প্রশ্রয়	-11.5473
▁এলেন	-11.5473
▁ভিয়েনা	-11.5473
▁লৌহশিল্প	-11.5473
▁কুটির	-11.5473
▁আবাদ	-11.5474
প্পা	-11.5475
জিক	-11.5475
▁বাসভবন	-11.5476
▁লঙ্ঘনের	-11.5481
▁চিলি	-11.5481
▁জনবহুল	-11.5481
▁জিত	-11.5482
▁জিম্বাবুয়ে	-11.5482
▁লিখন	-11.5486
▁ভাসা	-11.5486
▁ভাজা	-11.5487
দূত	-11.5488
▁বনের	-11.5489
▁মিউনিখ	-11.5489
এমসি	-11.5494
▁কাঁদ	-11.5495
▁সন্তানদেরকে	-11.5495
▁উগান্ডার	-11.5496
▁কারণগুলো	-11.5498
োমা	-11.5498
▁এডুকেশন	-11.5499
▁অস্ত্রোপচার	-11.55
▁আণবিক	-11.55
▁স্ক্রিনশট	-11.55
▁পেট্রোলিয়াম	-11.5501
▁অবক্ষয়	-11.5502
▁কেপ	-11.5502
▁উপন্যাসের	-11.5504
তাল	-11.5505
▁দেশব্যাপী	-11.5505
▁ব্যবহারযোগ্য	-11.5505
▁ওডিআই	-11.5505
▁কাজগুলোর	-11.5508
▁মিরপুর	-11.5508
▁উইলসন	-11.5508
▁আলোয়	-11.5509
▁দরজাটা	-11.5509
▁দিনগুলোতে	-11.5509
পী	-11.551
▁ঊর্ধ্ব	-11.5511
▁ভন	-11.5513
▁শিকারী	-11.5514
▁লোহা	-11.5515
ঘণ্টা	-11.5516
▁বারান্দা	-11.5516
াতীত	-11.5516
▁যাইতে	-11.5519
▁কোনোরকম	-11.5519
▁দাড়াও	-11.552
আলা	-11.5521
▁জরিপে	-11.5521
্যাট	-11.5522
▁সাইড	-11.5524
▁ঘেরা	-11.5525
ব্রে	-11.5525
পাঁচ	-11.5527
গোষ্ঠী	-11.5527
▁হুমায়ুন	-11.5528
▁বিবেকানন্দ	-11.5529
▁বছরগুলিতে	-11.5529
ঁট	-11.5529
▁অবাস্তব	-11.5531
করে	-11.5533
েকশন	-11.5535
▁খ্রিস্টধর্ম	-11.5538
▁কম্বোডিয়া	-11.5538
▁হিসেবেই	-11.5539
▁উপজাতীয়	-11.5539
▁বুট	-11.5539
▁তরফ	-11.554
▁চাওয়ার	-11.5541
▁ক্রিকেটের	-11.5542
▁পরিস্থিতিগুলো	-11.5544
েত	-11.5545
▁সার্বভৌমত্বের	-11.5545
▁ফ্রম	-11.5547
১৯৮৭	-11.5552
পানি	-11.5552
▁ব্যাপী	-11.5554
▁আপাত	-11.5554
বর্ধন	-11.5557
▁ভালই	-11.5557
▁ফোকাস	-11.5557
আরবি	-11.5558
পূর্ব্বক	-11.556
▁শপিং	-11.5562
▁বিতরণের	-11.5563
▁হাজী	-11.5566
পুল	-11.5568
▁+	-11.5568
▁প্রতিপালন	-11.5568
টিভ	-11.5571
▁ধর্ষণের	-11.5571
▁উপনিবেশিক	-11.5572
▁ঘটিয়ে	-11.5574
▁পাড়ে	-11.5575
▁চ্যাম্পিয়নশিপে	-11.5576
শহরে	-11.5577
▁জোগানোর	-11.5577
▁অনুচ্ছেদে	-11.5578
▁কতগুলো	-11.558
১৯৭৪	-11.558
▁দৃঢ়সংকল্প	-11.5583
▁প্রায়শ্চিত্ত	-11.5584
▁সংক্রামক	-11.5584
▁পরিচালকগোষ্ঠী	-11.5586
▁ভারপ্রাপ্ত	-11.5587
▁ব্যঙ্গ	-11.5591
িগ	-11.5592
▁মগ	-11.5592
প্ট	-11.5594
▁মহাদেশ	-11.5595
▁মোশিকে	-11.5599
ন্তে	-11.5601
▁রেখেছি	-11.5602
▁দুইটা	-11.5604
▁সুগন্ধি	-11.5606
▁বাত	-11.5606
ম্বল	-11.5611
▁অকপট	-11.5611
▁টেকসই	-11.5611
▁আচ্ছন্ন	-11.5612
▁মৃত্যুদন্ড	-11.5613
▁ইমেজ	-11.5614
▁ঢোকার	-11.5614
▁ভারশন	-11.5615
▁আতঙ্কিত	-11.5616
▁যাদুঘর	-11.5617
▁বদর	-11.5619
▁মাঠের	-11.5619
ক্ষিত	-11.5619
▁নির্জন	-11.5623
▁অনাথ	-11.5623
▁টিভিতে	-11.5628
▁রিজ	-11.5631
▁বিরূপ	-11.5632
▁চ্যাম্পিয়নস	-11.5632
▁পূর্ববঙ্গ	-11.5633
স্টন	-11.5633
১৯৮১	-11.5634
▁গাইতে	-11.5634
▁অতিথিদের	-11.5637
▁থামা	-11.5638
গাম	-11.5638
▁অভিবাদন	-11.5639
▁লাগতে	-11.564
▁কুইন	-11.5642
▁প্রবেশদ্বার	-11.5646
স্যা	-11.5647
▁এধরনের	-11.5647
▁আভা	-11.565
▁ব্রু	-11.5651
▁সদয়ভাবে	-11.5651
▁সৈকত	-11.5652
কৃষ্ণ	-11.5654
নূতন	-11.5655
▁দর্শনীয়	-11.5658
▁মেঝে	-11.5661
▁দুপুরের	-11.5662
▁`	-11.5663
▁প্রযুক্ত	-11.5663
▁দোকানের	-11.5665
▁সাইমন	-11.5666
▁আশ্বস্ত	-11.5667
▁উত্থিত	-11.5667
▁চব্বিশ	-11.5667
▁ডিস্কের	-11.5667
▁সার্জেন্ট	-11.5667
▁মালামাল	-11.5668
েটর	-11.5669
▁পাদ্রি	-11.5669
▁তাজিক	-11.5671
▁ছেদ	-11.5672
▁তীমথিয়কে	-11.5675
▁ফাউন্ডেশনের	-11.5678
▁পেটার	-11.5679
গ্যা	-11.5687
▁জানতো	-11.5688
▁রুচি	-11.5689
১৯৮৩	-11.569
▁দীর্ঘকাল	-11.5691
▁খেলোয়াড়ের	-11.5694
▁পডকাস্ট	-11.5695
▁কেঁদে	-11.5695
▁তুরস্কে	-11.5696
▁প্রত্যুত্তর	-11.5697
▁সেন্সরশিপ	-11.5697
▁ডিভিডি	-11.5697
▁আবাসস্থল	-11.5698
▁উদাহরণগুলো	-11.5699
ক্রে	-11.57
ডিস	-11.5703
▁মেটানোর	-11.5705
▁মাসুদ	-11.5706
বাক	-11.5706
▁আসবো	-11.5708
▁বাদাম	-11.5708
▁শান	-11.5711
▁ক্ষমতাপ্রাপ্ত	-11.5713
▁বসিয়ে	-11.5714
চীন	-11.5717
▁শর্ট	-11.5719
▁আজকেও	-11.5719
▁ড্যা	-11.572
▁ক্রো	-11.5721
▁গুলির	-11.5722
▁ব্যক্তিদেরকে	-11.5723
ট্ট	-11.5724
▁বাফটা	-11.5724
▁জোগাড়	-11.5724
বই	-11.5724
▁আলীর	-11.5725
▁রাখছে	-11.5725
▁গ্রাফিক	-11.5726
▁রাখত	-11.5726
▁বাঁচা	-11.5727
▁স্কিম	-11.5734
▁বহির্ভূত	-11.5734
গণনা	-11.5735
▁আংশিকভাবে	-11.5736
▁দেশগুলির	-11.5736
▁বোনা	-11.5736
▁করলেই	-11.5738
যুগ	-11.5739
রহাট	-11.574
উত্তম	-11.574
টল	-11.5741
▁ইয়র্কে	-11.5743
▁যোহনের	-11.5743
নির্মিত	-11.5744
▁অ্যাপল	-11.5746
▁বাংলাদেশকে	-11.5749
তলী	-11.5749
১৯৭৭	-11.5749
▁করুণ	-11.5749
▁মানুষজন	-11.575
▁ফরম	-11.575
▁প্রতিজ্ঞার	-11.5751
▁আলফা	-11.5753
▁পিল	-11.5753
▁লরেন্স	-11.5753
▁শার	-11.5753
▁মেইন	-11.5753
▁ইক	-11.5754
▁দীর্ঘসময়	-11.5756
▁কারি	-11.5756
▁মদের	-11.5757
▁স্তব	-11.5757
▁কাজগুলি	-11.5758
সিরিয়া	-11.5759
নাশক	-11.5759
▁চিপ	-11.5766
মানুষের	-11.5767
▁ময়দা	-11.5767
▁ছত্রাক	-11.5769
▁চাকমা	-11.5769
▁সময়েও	-11.577
▁মানিক	-11.5775
▁মরা	-11.5775
▁ছাত্রছাত্রী	-11.5777
▁১টি	-11.5779
▁অনুশোচনা	-11.578
▁কীটপতঙ্গ	-11.578
▁নতুবা	-11.578
▁ডগলাস	-11.578
▁বিনোদনের	-11.578
▁কোরআন	-11.578
▁ওয়েস্টার্ন	-11.5781
▁অন্ততপক্ষে	-11.5781
▁সত্তর	-11.5782
▁সম্মানসূচক	-11.5785
▁বঙ্গোপসাগর	-11.5786
▁উপস্থিতিতে	-11.5792
রঞ্জন	-11.5793
▁চিড়িয়াখানা	-11.5797
▁কাতারের	-11.5798
▁সংবাদপত্রে	-11.5801
▁পারলো	-11.5804
১৯৪৭	-11.5806
▁ধূপ	-11.5809
▁ছুড়ে	-11.5809
▁আপনাদিগকে	-11.5809
▁গবাদি	-11.5809
▁লোহিত	-11.581
▁রোপণ	-11.5811
ান্বিত	-11.5816
▁রয়েছি	-11.5819
▁নিকোলাস	-11.5819
▁সোপান	-11.582
▁যাবেনা	-11.5821
▁বডি	-11.5823
স্বামী	-11.5824
▁কিছুতেই	-11.5824
থের	-11.5824
ইয়েমেন	-11.5825
ইসলাম	-11.5827
▁বর্তমানের	-11.5827
▁সমাজতন্ত্র	-11.5827
াইজ	-11.5828
▁পাম্প	-11.5831
▁জাদুকর	-11.5831
▁ঘটনাটা	-11.5833
▁প্রফুল্ল	-11.5837
▁হাফিজ	-11.5838
▁সিদ্দিকী	-11.5838
▁খাদ্যশস্য	-11.5838
▁আত্মহত্যার	-11.584
▁নিশ্চিতরূপে	-11.584
▁সেহেতু	-11.5842
▁নাট্যকার	-11.5843
▁জর্ডানের	-11.5844
▁নাচের	-11.5846
▁বিস্ফোরণের	-11.5847
▁কাঁ	-11.5847
▁রক্ষাকারী	-11.5848
হোম	-11.5849
ষ্টা	-11.585
▁ন্যায়বিচারের	-11.5852
▁পরিষ্কারভাবে	-11.5853
▁উর্বর	-11.5858
▁স্বার্থের	-11.5858
াকে	-11.5858
▁পরোক্ষ	-11.586
▁বরেন্দ্র	-11.586
পাশে	-11.5862
▁দুপুর	-11.5864
▁অ্যানিমেশন	-11.5866
▁সফ্টওয়্যার	-11.5866
▁আবিস্কার	-11.5866
▁প্রাসাদের	-11.5867
▁হাওয়ার্ড	-11.5867
▁মাল্টি	-11.5872
▁হবেনা	-11.5872
▁ফশে	-11.5873
▁পিসি	-11.5873
▁ফেডারেশনের	-11.5874
▁প্রথার	-11.5874
▁শৈল	-11.5875
▁পোর্টাল	-11.5877
▁বেশকিছু	-11.5878
রম	-11.5879
▁কাহিনীর	-11.5881
▁গ্রাম্য	-11.5883
এখানে	-11.5886
▁ধৈর্য্য	-11.5886
▁যোনি	-11.5887
▁কলঙ্ক	-11.5887
▁আক্রমণকারী	-11.5888
▁১৯০৭	-11.5889
িন্স	-11.589
ফিক	-11.589
▁ফিস	-11.5892
▁ইউনিভার্স	-11.5892
▁ডাব্লিউডাব্লিউই	-11.5894
▁পাচ্ছ	-11.5894
▁প্রতিমাপূজা	-11.5894
▁সফরকারী	-11.5894
▁টার্গেট	-11.5894
▁জিম্মি	-11.5895
রুদ্ধ	-11.5895
▁পিতামহ	-11.5896
▁ব্যাটিং	-11.5897
ক্ষু	-11.5898
▁দৃঢ়প্রত্যয়ী	-11.5899
▁সহকর্মীদের	-11.5901
শ্বর	-11.5902
▁সিস্টেমে	-11.5903
▁পরী	-11.5904
▁দখলদার	-11.5906
▁বাঁক	-11.5907
দুঃখ	-11.591
▁দুর্গা	-11.5911
▁প্যান্ট	-11.5914
ংস	-11.5915
▁পাপপূর্ণ	-11.5916
াধ্যক্ষ	-11.5919
োনি	-11.592
▁মোহাম্মাদ	-11.5923
▁শমরীয়	-11.5923
▁নির্ভুল	-11.5923
▁কোটা	-11.5924
▁ড্রোন	-11.5924
▁গেয়েছিলেন	-11.5924
▁নিরীক্ষণ	-11.5924
▁দেখেনি	-11.5925
▁নাসির	-11.5925
▁বিলোপ	-11.5926
উদ	-11.5927
▁শব	-11.5928
▁ওস্তাদ	-11.5928
▁দেশগুলিতে	-11.5933
▁সেনাদের	-11.5934
খার	-11.5934
মায়	-11.5936
▁বুঝা	-11.5936
▁ভিত	-11.5936
▁মিশেল	-11.5939
▁যাচ্ছিলেন	-11.594
্সে	-11.5942
নেল	-11.5943
▁জানলে	-11.5943
▁ভ্যাটিকান	-11.5944
▁জাই	-11.5946
ক্রো	-11.5947
মেলা	-11.595
▁মেটাতে	-11.595
াহ্	-11.5951
▁সিগন্যাল	-11.5952
▁সোহরাওয়ার্দী	-11.5952
▁আম্মু	-11.5952
▁গর্ভধারণ	-11.5952
▁সম্প্রদায়কে	-11.5953
▁জিনোম	-11.5953
▁উদ্ধত	-11.5956
▁আর্মেনিয়ার	-11.5957
▁ধ্রুপদী	-11.5958
▁চাচ্ছেন	-11.5958
হাদ	-11.5961
▁বিচক্ষণ	-11.5962
▁টেন	-11.5963
▁শারীরিকভাবে	-11.5965
▁ধরিয়ে	-11.5966
যেন	-11.5966
ীকরণের	-11.5966
▁গুর	-11.5967
▁তদ	-11.5967
▁পাবো	-11.5968
▁ইরাকি	-11.5973
▁সুলতানি	-11.5975
▁ঘটার	-11.5977
▁পোষ্ট	-11.5978
▁অন্ধকারের	-11.5979
▁অবিশ্বস্ত	-11.5979
▁মৌমাছি	-11.5981
▁কেনাকাটা	-11.5981
▁দিচ্ছিল	-11.5982
যু	-11.5983
সালে	-11.5987
▁পৌঁছেছিল	-11.5988
▁সন্ধি	-11.5989
▁সচল	-11.5989
▁ক্লেশ	-11.599
▁জোন্স	-11.5992
▁সারিতে	-11.5994
েন্ড	-11.5995
বৃক্ষ	-11.5997
▁লী	-11.6001
েশ্বরী	-11.6001
▁প্রচেষ্টাকে	-11.6002
▁গ্যারি	-11.6003
▁আবেদনের	-11.6003
▁জাতীয়তা	-11.6004
▁তথ্যাদি	-11.6009
▁পটভূমির	-11.601
▁সাহচর্য	-11.601
▁স্পীকার	-11.601
▁সাংহাই	-11.601
াইজেশন	-11.601
▁সামান্যই	-11.6011
▁শুনলাম	-11.6011
▁কুষ্টিয়া	-11.6011
▁অফলাইন	-11.6011
▁মনুষ্যদের	-11.6016
▁জনগণনা	-11.6017
▁কমানো	-11.6018
বাসি	-11.6019
পৃথিবীর	-11.6021
▁পরিশোধিত	-11.6022
▁অংশকে	-11.6022
▁কেও	-11.6023
▁ইউনেস্কো	-11.6025
▁বন্ধুত্বের	-11.6026
▁সাঁ	-11.603
▁অভিজ্ঞতাগুলো	-11.6036
▁টিপ	-11.6036
▁তের	-11.6039
▁অবাঞ্ছিত	-11.6039
▁জীবাশ্ম	-11.6039
▁দার্জিলিং	-11.6039
▁উরুগুয়ে	-11.6039
▁সর্বমহান	-11.6039
▁গীতা	-11.604
▁ব্যাকটেরিয়া	-11.604
▁অবসরপ্রাপ্ত	-11.6043
রক্ত	-11.6043
▁অশুচি	-11.6043
সর্ব	-11.6045
ীয়া	-11.6045
ডিন	-11.6047
কণ্ঠ	-11.6048
▁১৩৩	-11.6049
▁চুলের	-11.6049
▁অস্থিরতা	-11.6051
▁বাড়ে	-11.6053
▁নেটওয়ার্কে	-11.6054
ষ্	-11.6054
▁বেচে	-11.6056
টনের	-11.6064
ইনি	-11.6064
িক্যাল	-11.6065
▁১০৯	-11.6067
▁টুর্নামেন্টের	-11.6067
▁সজাগ	-11.6068
▁সম্মিলন	-11.6068
▁বাল্যবিবাহ	-11.6068
▁বিধিনিষেধ	-11.6068
▁ট্যাংক	-11.6068
▁কারাবন্দী	-11.6069
▁অঙ্গরাজ্য	-11.6071
▁লিচু	-11.6072
▁রশ্মি	-11.6072
ক্ক	-11.6074
▁নির্দেশে	-11.6075
▁মাও	-11.6077
▁লিগে	-11.6078
▁নৃশংস	-11.6079
▁চারা	-11.6082
▁ফেলেছিলেন	-11.6082
▁বান্ধবী	-11.6085
▁মরিয়া	-11.6085
▁অবতার	-11.6086
▁ডেন	-11.6087
▁গোড়া	-11.6087
মাস্টার	-11.609
▁সেটিকে	-11.6091
স্পা	-11.6092
▁কামার	-11.6092
▁বাজা	-11.6092
▁প্রাঙ্গণে	-11.6093
কুয়া	-11.6094
▁বৃক্ষের	-11.6095
১৯৭৮	-11.6098
▁ঢেলে	-11.6098
▁কলার	-11.6099
▁প্রাচুর্য	-11.6099
▁উপত্যকার	-11.61
ত্রিশ	-11.6101
▁ঢিবি	-11.6102
গুলিও	-11.6103
▁কর্মকর্তাকে	-11.6105
▁ব্রাজিলে	-11.6106
▁নিবদ্ধ	-11.6107
▁বলছো	-11.6107
ভর	-11.6109
কামী	-11.6109
▁জুরি	-11.6109
▁মজুরী	-11.6111
্কি	-11.6112
▁পিঠ	-11.6113
▁জামিন	-11.6114
▁এড়ানো	-11.6115
▁ইন্দ্র	-11.6116
▁রোডের	-11.6117
▁তাৎক্ষণিক	-11.6118
▁ধার্মিকতার	-11.6119
▁গেমসের	-11.6119
▁উদাসীন	-11.612
তিক	-11.6122
▁কাঁধ	-11.6123
▁দুর্ভাগ্য	-11.6124
ঢ়	-11.6125
▁নির্ম্মাণ	-11.6127
▁পীলাত	-11.6127
▁উৎখাত	-11.6127
▁চলাফেরা	-11.6127
▁ক্যামারলেনগো	-11.6127
▁সাহারা	-11.6127
▁তীব্রতা	-11.6127
▁বিরাজমান	-11.6129
▁ফেরি	-11.6131
▁হাকিম	-11.6142
প্রসাদ	-11.6144
অফ	-11.6144
▁ধার্ম্মিক	-11.6145
▁শেখে	-11.6146
▁শাসনব্যবস্থা	-11.6148
ধন্য	-11.6148
খ্রিস্টপূর্বাব্দ	-11.6149
▁আইটি	-11.615
▁খুল	-11.615
দহ	-11.6151
▁আঁশ	-11.6151
▁অসহযোগ	-11.6152
স্বাধীনতা	-11.6154
খেলা	-11.6156
▁অলাভজনক	-11.6156
▁ফুসফুস	-11.6156
▁সম্ভাষণ	-11.6156
▁কুর্দি	-11.6157
রীতি	-11.6159
ড্র	-11.6161
▁ধর্মনিরপেক্ষ	-11.6163
▁অভিবাসীদের	-11.6163
▁ডিসি	-11.6163
▁সম্ভাবনার	-11.6166
▁বৌদ্ধধর্ম	-11.6167
▁পোপের	-11.617
▁রক্ষক	-11.6171
▁ডায়া	-11.6172
র্যা	-11.6172
▁রুল	-11.6175
▁জিভি	-11.6176
▁বিষয়াদি	-11.6177
▁লাওস	-11.6178
▁কনিষ্ঠ	-11.6183
তাহাদের	-11.6183
▁কতজন	-11.6183
▁বলেছিলে	-11.6183
ুতে	-11.6184
▁উমর	-11.6185
িচ	-11.6185
▁অর্থোডক্স	-11.6185
▁ডেমোক্রেটিক	-11.6185
▁ফোঁটা	-11.6185
▁ব্যাটালিয়ন	-11.6185
▁ডারউইন	-11.6186
▁খাত্তয়া	-11.6186
▁ডেঙ্গু	-11.6187
▁আড়াই	-11.6188
েটেড	-11.6189
▁মধ্যপ্রাচ্যের	-11.6191
▁আশ্চর্য্য	-11.6191
▁সংযোগের	-11.6191
▁ধারক	-11.6195
গঠন	-11.6196
▁দানিয়েলের	-11.6197
▁লোকজনের	-11.6198
▁শেখেন	-11.62
▁নার্সিং	-11.6202
চলচ্চিত্র	-11.6202
▁সমকামিতা	-11.6204
▁কালকে	-11.6207
▁উৎপাদক	-11.6211
▁মেরী	-11.6212
▁ওষুধের	-11.6213
▁সম্প্রসারণের	-11.6213
▁খালাস	-11.6213
▁একটুও	-11.6214
▁অচিরেই	-11.6215
▁অবিচ্ছেদ্য	-11.6215
▁অষ্টাদশ	-11.6215
▁ক্যান্টনমেন্ট	-11.6215
▁সাংকেতিক	-11.6215
▁চর্বি	-11.6216
▁ডুমুর	-11.6216
▁সীমানার	-11.6216
▁অর্জনে	-11.6217
▁১৯০১	-11.6217
নিষ্ঠ	-11.6217
ীক	-11.622
▁নিবে	-11.622
আইস	-11.622
▁খোলাখুলিভাবে	-11.6221
▁গুজরাট	-11.6222
▁১২৮	-11.6222
▁বোঝে	-11.6229
▁ফাটল	-11.6232
অনুষ্ঠান	-11.6232
▁এমএস	-11.6234
▁ভাস	-11.6235
▁গণেশ	-11.6235
স্থানীয়	-11.6235
আনন্দ	-11.6235
▁কাপে	-11.6237
▁চিনে	-11.6238
ঘন্টা	-11.6239
বিধ	-11.6239
▁ব্রুনাই	-11.624
▁মূল্যরূপ	-11.6241
▁বোনেরা	-11.6241
▁উইন	-11.6243
▁এমপি	-11.6244
▁প্রতিক্রিয়ায়	-11.6244
▁কায়রো	-11.6244
▁ঊনবিংশ	-11.6245
▁পুনর্স্থাপন	-11.6245
্কা	-11.6245
▁মরুভূমি	-11.6246
▁সময়ও	-11.6246
▁শহরতলি	-11.6246
▁ডিজনি	-11.6247
গোলা	-11.6252
▁পাওলো	-11.6253
ঙ্কা	-11.6256
▁বিশ্বকে	-11.6259
▁এপি	-11.626
▁সেক্স	-11.6262
▁জলদস্যু	-11.6263
▁প্রবৃত্তি	-11.6263
▁পাঠ্যক্রম	-11.6264
কাট	-11.6266
▁গাজায়	-11.6267
দাম	-11.6267
১৯৮২	-11.6267
▁কার্লোস	-11.6268
সিত	-11.6268
মাংস	-11.6271
মাকে	-11.6273
▁মণি	-11.6274
▁প্রাদুর্ভাব	-11.6274
▁হিষ্কিয়	-11.6274
▁স্মার্ট	-11.6275
▁বিক্রম	-11.6275
▁কারবার	-11.6275
▁নানাবিধ	-11.6277
▁রূৎ	-11.6277
▁প্রকট	-11.6278
▁সিন্দুক	-11.6278
▁বারাক	-11.6279
▁তাড়নার	-11.628
▁পার্টিতে	-11.6281
েলের	-11.6281
রামপুর	-11.6281
▁সেইসাথে	-11.6283
াগ	-11.6283
▁মিয়ানমারের	-11.6284
▁জনসন	-11.6288
ওলা	-11.6288
▁প্রাচ্যের	-11.629
▁সৈন্যদল	-11.6291
▁১০৭	-11.6294
▁অসিদ্ধতা	-11.6295
মাটি	-11.6297
বিস্তর	-11.6298
মৃত	-11.6299
ফ্যা	-11.6301
▁স্রষ্টা	-11.6301
▁আচার্য	-11.6301
▁লেবু	-11.6301
ালে	-11.6302
ঁক	-11.6302
▁মর্যাদার	-11.6303
▁অনুতাপ	-11.6304
▁হেপবার্ন	-11.6304
▁বিশ্লেষক	-11.6304
▁মৃৎপাত্র	-11.6304
▁দুগ্ধ	-11.6305
▁প্রত্যন্ত	-11.6305
▁টেক্সটাইল	-11.6305
১৯৭৫	-11.6307
▁সংশয়	-11.6307
▁ধর্মভ্রষ্ট	-11.6307
▁বংশধরদের	-11.6308
▁রানার্স	-11.6309
▁অন্যভাবে	-11.6311
সকে	-11.6311
▁বুকের	-11.6312
▁পেতেন	-11.6313
কানো	-11.6313
▁আগ্রা	-11.6314
▁কুম	-11.6315
▁বিপ	-11.6316
▁কিংস	-11.6318
▁প্রতিযোগিতামূলক	-11.632
▁পেরুর	-11.6322
▁আর্মেনিয়ান	-11.6324
▁ফিলিস্তিন	-11.6327
▁গ্রেফতারের	-11.6329
▁সমাবেশে	-11.6329
▁তামা	-11.633
▁নখ	-11.6331
▁হংকংয়ে	-11.6331
▁অক্ষরের	-11.6333
▁ছিলে	-11.6334
▁সতেরো	-11.6334
▁অগ্রণী	-11.6335
▁যেটাতে	-11.6335
▁ইয়ু	-11.6335
▁পেশী	-11.6335
▁অম্ল	-11.6336
▁শেষবার	-11.6337
▁তোরা	-11.6338
শির	-11.6338
বক	-11.6339
▁বাউ	-11.6339
দ্বারা	-11.6343
▁কং	-11.6346
▁গালি	-11.6347
▁মানতে	-11.6349
▁রোহিঙ্গা	-11.635
▁দয়ার	-11.635
বিষয়টা	-11.6351
▁অনুভূত	-11.6352
▁উপবাস	-11.6352
▁ইতি	-11.6352
▁শুরুতেই	-11.6352
▁ব্রুস	-11.6353
▁শাক	-11.6355
▁১১৮	-11.6359
্রু	-11.636
▁অনুরোধে	-11.636
▁হতাশার	-11.6361
▁ওয়াক	-11.6363
▁সংগঠনটি	-11.6364
▁পতঙ্গ	-11.6364
▁ফেইসবুক	-11.6364
▁অনিবার্য	-11.6364
▁নির্বিশেষে	-11.6364
▁আকাঙ্ক্ষী	-11.6365
▁গিয়েছি	-11.6365
▁স্লাইড	-11.6365
▁ডিনার	-11.6365
▁ভুলভাবে	-11.6365
▁কৌশলে	-11.6367
▁বৃত্তাকার	-11.6367
▁নগরীর	-11.6369
▁চেয়েছেন	-11.6369
▁চেইন	-11.6373
▁রিয়েল	-11.6374
ুরা	-11.6376
▁পাঞ্জাবি	-11.6377
জেন্ট	-11.6377
▁দেবীর	-11.6382
জুর	-11.6383
▁৩৫০	-11.6385
বিষয়ে	-11.6387
▁চাইনি	-11.6387
িনের	-11.6388
▁সেকেন্ডের	-11.6392
▁কার্ডিনাল	-11.6394
▁সন্দেহভাজন	-11.6395
▁কার্যবিধি	-11.6395
বলা	-11.6399
▁অচল	-11.6401
লগ্ন	-11.6402
প্রদর্শন	-11.6403
▁আয়ারল্যান্ডের	-11.6404
▁দুবছর	-11.6404
ুজ	-11.6405
▁বন্ধের	-11.6405
পাক	-11.6406
▁অংক	-11.6406
▁অলিম্পিকের	-11.6406
▁রাখব	-11.6407
▁শেখানোর	-11.6407
দেবী	-11.641
▁পরিচ্ছন্ন	-11.641
▁সহায়	-11.6413
▁মাগ	-11.6414
▁পুরুষরা	-11.6415
▁রাজধানীর	-11.6416
▁দীপ	-11.6416
▁ব্রিটেনে	-11.6419
্যাস	-11.6419
▁আপেল	-11.6419
▁ভাবছেন	-11.642
▁মালিকদের	-11.6421
▁মম	-11.6423
▁সঙ্গেই	-11.6424
▁উপস্থাপক	-11.6426
▁হেন	-11.6428
রিয়াল	-11.6429
▁বেয়ে	-11.6431
▁বিষম	-11.6431
▁লিখা	-11.6431
▁সুস্থির	-11.6431
▁উপকূলের	-11.6432
▁পীড়িত	-11.6432
▁সিরিয়ায়	-11.6434
▁খর্ব	-11.6435
বিবাহ	-11.6437
▁এলাকাতে	-11.6437
▁ভঙ্গি	-11.6438
▁কুই	-11.6443
সমৃদ্ধ	-11.6445
▁মিউ	-11.6446
▁প্রত্ন	-11.6451
▁বাঁকা	-11.6453
▁সুইডিশ	-11.6455
▁স্বর্ণশিল্প	-11.6456
▁লতা	-11.6457
▁ডেনিস	-11.6457
▁অ্যালেন	-11.6459
▁শস্যের	-11.6459
▁মনসুর	-11.6459
▁জনস্বাস্থ্য	-11.646
▁সুদানের	-11.6461
▁মন্ত্রিসভা	-11.6461
▁ইউক্রেন	-11.6462
▁ধৈর্যের	-11.6463
▁সিটিজেন	-11.6463
▁পরিদর্শনের	-11.6464
▁একাত্মতা	-11.6465
▁খাঁজ	-11.6466
থিয়া	-11.6467
ছড়ি	-11.6467
মুক্তি	-11.6471
ন্তা	-11.6471
▁জৈবিক	-11.6474
!'	-11.6479
▁বিবেকের	-11.6479
▁সল	-11.648
▁গাছে	-11.6483
▁করপোরেশন	-11.6485
▁লজ্জিত	-11.6485
▁মিথ	-11.6486
▁রামকৃষ্ণ	-11.6486
▁অ্যান্ড্রু	-11.6487
সূত্র	-11.6487
▁পূর্বপুরুষদের	-11.6487
্যাপ	-11.6488
ানুষ্ঠান	-11.6489
▁খুলিয়া	-11.649
▁মশীহের	-11.6491
▁ভেবেছিলেন	-11.6491
য়ং	-11.6492
ড়ো	-11.6492
▁ভ্রমন	-11.6494
▁তেহরান	-11.6494
ক্ষম	-11.6497
▁মিডিয়ায়	-11.6499
নিরীক্ষা	-11.6501
▁দোহা	-11.6501
▁যিহূদীরা	-11.6503
▁পরাগ	-11.6504
▁বাক্যকে	-11.6504
▁প্রতিও	-11.6505
▁পরিসর	-11.6506
▁বিক্ষোভে	-11.6507
▁প্রকাশনাগুলো	-11.6508
▁ফেরা	-11.6508
▁শিরা	-11.6511
১৯৭৯	-11.6512
▁ওজনের	-11.6512
▁মেষের	-11.6513
▁অট্টালিকা	-11.6516
▁অজস্র	-11.6516
▁মজুদ	-11.6516
▁পশ্চাৎ	-11.6516
▁যতদূর	-11.6518
▁উত্তরপূর্ব	-11.6519
▁লিটল	-11.6519
ব্যয়	-11.6522
▁পাপুয়া	-11.6523
টিস	-11.6523
▁ফেয়ার	-11.6523
▁আকাশমণ্ডল	-11.6523
▁রাষ্ট্রভাষা	-11.6524
▁পাতাল	-11.6525
িকার	-11.6527
পাতা	-11.6529
▁ধর্ম্ম	-11.6531
▁চালের	-11.6531
▁উন্মাদ	-11.6532
▁বাস্তবিক	-11.6532
▁প্যারিসের	-11.6534
▁রেন	-11.6535
▁১০৮	-11.6535
▁মিলি	-11.6535
▁ধার্মিকতা	-11.6539
দির	-11.654
▁ওয়াল্টার	-11.6542
▁কারিগর	-11.6543
শ্ব	-11.6543
▁নেতৃবৃন্দ	-11.6544
▁জবাবে	-11.6546
▁এখতিয়ার	-11.6546
▁স্বায়ত্তশাসন	-11.6546
▁দূর্নীতি	-11.6546
▁ওড়িশা	-11.6547
▁প্রতিষ্ঠানসমূহ	-11.6548
▁কার্যনির্বাহী	-11.6549
▁শাসনকর্তা	-11.6549
▁শত্রুর	-11.6553
▁পর্দার	-11.6556
পৃষ্ঠা	-11.6556
র্চ	-11.6557
▁রসিকতা	-11.6559
রানী	-11.6564
▁শফিক	-11.6564
▁ঘি	-11.6567
নাদ	-11.6569
▁পাশেই	-11.6572
পোল	-11.6572
ক্লি	-11.6572
সারা	-11.6573
▁কাশ্মীরের	-11.6574
▁ছু	-11.6574
▁তাড়িত	-11.6574
▁বাপ	-11.6575
▁২৫শে	-11.6575
▁স্বাধীনতাকে	-11.6577
ক্রী	-11.6577
▁ধূলি	-11.6577
▁অতিক্রান্ত	-11.6578
উইক	-11.6578
ওয়াত	-11.6579
জ্	-11.6581
▁ইভ	-11.6583
▁বলছিল	-11.6584
ুয়েল	-11.6586
▁হতাম	-11.6588
▁ইলিয়াস	-11.6589
নায়ক	-11.6592
▁ভাবেন	-11.6594
শিক্ষক	-11.6594
▁পদার্থবিজ্ঞান	-11.6594
▁ডানে	-11.6596
▁ব্রেক	-11.6597
▁কেরালা	-11.6598
▁ভেনেজুয়েলা	-11.6598
ণীয়	-11.6598
▁নেপালে	-11.6602
▁বিষয়গুলির	-11.6603
▁পদটি	-11.6603
▁লিটার	-11.6607
▁টয়লেট	-11.6608
▁ফাই	-11.6608
▁বিপথগামী	-11.6608
▁অভিমুখে	-11.6608
▁মঞ্জুর	-11.6608
▁মূর্খ	-11.6609
▁মিশনারী	-11.6609
▁প্লাবিত	-11.661
▁আব্বা	-11.6612
▁হোমো	-11.6615
▁সমস্যাটি	-11.6617
▁ধরি	-11.6617
▁ছাদে	-11.6622
পুন	-11.6626
▁কুমির	-11.663
▁বিবর্তনের	-11.6631
▁দিদি	-11.6632
▁বেস্ট	-11.6632
▁আমীর	-11.6632
াত্মা	-11.6632
▁অনুপস্থিতিতে	-11.6635
▁থ্রি	-11.6636
দেবতা	-11.6638
▁ক্রিয়াকলাপ	-11.6639
▁ফলপ্রসূ	-11.6639
▁মেমোরিয়াল	-11.6639
▁মেডেল	-11.664
▁পাঠাও	-11.6641
খাদ্য	-11.6642
▁খাস	-11.6642
▁কানাডায়	-11.6642
▁মৈত্রী	-11.6644
▁ভাষাভাষী	-11.6646
▁বিশ্বাসঘাতক	-11.6647
্নি	-11.6649
সম্পর্ক	-11.665
▁বিবৃতিতে	-11.6652
▁পাত্রে	-11.6652
সমাজ	-11.6656
▁লক্ষ্যবস্তু	-11.6657
▁ধোয়া	-11.6661
▁নৌকার	-11.6662
▁মুক্তিযুদ্ধে	-11.6664
▁বিহীন	-11.6664
▁অলৌকিকভাবে	-11.6666
কারা	-11.6669
▁বাক্যাংশ	-11.6669
গুল	-11.6669
▁অনিচ্ছুক	-11.667
▁বহিরাগত	-11.667
▁হরতাল	-11.667
▁আলবেনিয়া	-11.667
▁সৌ	-11.667
▁রেজিস্টার	-11.667
▁কাঁচামাল	-11.6671
▁লক্ষের	-11.6671
▁সাউন্ড	-11.6671
▁এনা	-11.6671
▁ছেলেবেলা	-11.6672
▁নাজিম	-11.6673
▁সফনিয়	-11.6673
▁উড়িষ্যা	-11.6674
▁আমোষ	-11.6674
▁পেশার	-11.6674
▁সংগ্রাহক	-11.6676
▁মুরগি	-11.6677
▁এরই	-11.6677
▁মধুপুর	-11.6678
▁যেরকম	-11.6679
▁হ্রদের	-11.6679
▁জেড	-11.6682
▁উইক	-11.6683
▁ঊ	-11.6685
▁স্কটল্যান্ডের	-11.6687
▁ঐতিহাসিকভাবে	-11.6687
▁ট্রাই	-11.6688
▁আমন্ত্রণপত্র	-11.6688
▁কমার্স	-11.6689
▁অনার	-11.6691
▁আঁচ	-11.6691
▁ব্রাউজ	-11.6692
▁বামে	-11.6694
মুল	-11.6695
▁নিতেন	-11.6695
▁আদিম	-11.6695
সেনা	-11.6696
▁কাউ	-11.6696
বাজি	-11.6697
▁ঘন্টায়	-11.6697
▁বইতে	-11.6698
▁জানু	-11.6699
▁নক	-11.67
▁অনুভূমিক	-11.6701
▁অব্যবহিত	-11.6701
▁নিমজ্জিত	-11.6701
▁ল্যাবরেটরি	-11.6701
▁শওকত	-11.6701
▁যোশিয়	-11.6701
▁উজবেকিস্তান	-11.6701
প্রার্থনা	-11.6701
▁স্কটিশ	-11.6701
▁শহরকে	-11.6701
▁অবয়ব	-11.6702
▁দেউলিয়া	-11.6702
▁ডায়াল	-11.6703
▁উৎসাহী	-11.6703
সরল	-11.6703
ডাম	-11.6704
▁ঈশ্বরে	-11.6704
▁খ্রিস্টকে	-11.6704
▁বাসিন্দারা	-11.6705
▁গ্রাহ্য	-11.6705
▁পারিশ্রমিক	-11.6706
▁মূলনীতি	-11.6707
▁নির্দিষ্টভাবে	-11.6708
▁কিছুকাল	-11.671
ডিপি	-11.6716
▁চমক	-11.6717
▁হাইতি	-11.6717
▁এসেছিলাম	-11.6719
সংস্কার	-11.6719
▁অনেককে	-11.6719
▁কার্যালয়ে	-11.672
▁কম্পিউটারে	-11.6722
▁হাওয়াই	-11.6725
ধূ	-11.6725
▁সৃষ্টিকারী	-11.6727
্যতা	-11.6728
▁প্রত্যা	-11.673
▁মতন	-11.673
▁বিদ্রূপ	-11.6732
▁মিড	-11.6732
▁ঔপন্যাসিক	-11.6732
▁ইন্দ্রিয়দমন	-11.6732
▁সম্পূরক	-11.6732
▁পুনর্বিবেচনা	-11.6732
▁ওবামার	-11.6733
পূর্বাঞ্চলীয়	-11.6734
▁লেগ	-11.6735
১৯৬৬	-11.6735
স্পি	-11.6742
▁হত্যাকারী	-11.6742
▁শুনেছিল	-11.6743
▁চ্যান্সেলর	-11.6743
লেখা	-11.6743
বাসীর	-11.6745
▁নয়টি	-11.6747
▁কোনদিন	-11.6748
ত্রা	-11.6749
▁ঘটেনি	-11.675
▁বহিঃ	-11.6751
▁সারির	-11.6751
▁প্লাজা	-11.6751
▁ফ্রেড	-11.6753
▁হলি	-11.6753
হিম	-11.6753
▁১২১	-11.6754
▁খ্যাত	-11.6756
▁জগ	-11.6757
পৃষ্ঠ	-11.6757
য়ানা	-11.6758
জাদ	-11.6761
▁মালাউই	-11.6764
▁সর্দার	-11.6764
▁কিশোরগঞ্জ	-11.6767
▁ভিন্নতা	-11.6767
▁কর্তৃত্বের	-11.6768
▁করোনা	-11.6769
রাজ্যের	-11.677
▁সমাজকে	-11.6772
▁মাজার	-11.6776
পরিবার	-11.6776
ওন	-11.6777
▁মেক্সিকোতে	-11.6777
▁ফ্রা	-11.6778
▁আমিরাতের	-11.6779
িস্তান	-11.678
▁টর	-11.6783
ল্যাণ্ড	-11.6783
হত্যা	-11.6783
▁মাংসিক	-11.6784
▁যাদু	-11.6785
ভূক্ত	-11.6786
▁চেয়েছে	-11.6787
▁বোঝাই	-11.6788
▁পালি	-11.6789
▁মুল্য	-11.6789
▁নাইজেরিয়ার	-11.679
▁অষ্ট	-11.679
নিম	-11.6792
▁দুর্যোগের	-11.6794
▁নির্ভীক	-11.6794
▁বয়কট	-11.6795
▁কোমর	-11.6795
▁গোসল	-11.6795
▁কাসা	-11.6797
োক	-11.6797
▁পৌঁছা	-11.6798
▁রেখো	-11.6798
▁স্বদেশী	-11.6799
আজ	-11.6802
কর্ষ	-11.6802
▁চায়ের	-11.6806
▁অধ্যক্ষদের	-11.6807
ূল	-11.6808
▁কাণ্ড	-11.681
য়াম	-11.6812
▁১৮৯৭	-11.6812
▁গৃহহীন	-11.6813
▁খোলো	-11.6813
▁পরিশ্রমের	-11.6816
▁ঘৃণার	-11.6816
চ্চ	-11.6818
স্ট্রা	-11.6819
১৯৬১	-11.6819
▁বঙ্গোপসাগরে	-11.6819
যুগের	-11.6819
▁নিষেধাজ্ঞার	-11.6819
▁সিলেটের	-11.6821
▁সেইরূপ	-11.6821
▁ইউক্রেনের	-11.6823
▁পার্থ	-11.6823
▁অ্যানি	-11.6823
ীয়দের	-11.6823
▁জনসাধারণ	-11.6824
▁চালাচ্ছে	-11.6824
▁বেআইনি	-11.6826
▁১১৩	-11.6827
▁দৃশ্যের	-11.6827
▁কাজাখস্তান	-11.6827
▁উৎসুক	-11.6827
▁স্বীকৃতিস্বরূপ	-11.683
▁দিগন্ত	-11.683
▁সামি	-11.683
খন	-11.6834
▁জুলাইয়ে	-11.6834
লেম	-11.6834
▁প্রতিযোগীতা	-11.6835
উয়ি	-11.6835
▁জ্বল	-11.6836
প্রে	-11.684
▁প্রতিবাদকারীদের	-11.6841
▁শেখাতে	-11.6842
পুস্তক	-11.6842
▁ভাঙন	-11.6842
▁গোম	-11.6843
▁টায়	-11.6844
▁সদস্যরূপে	-11.6844
ঐ	-11.6845
▁ইন্ডাস্ট্রি	-11.6845
▁করিতেছ	-11.6848
▁ক্রমাগতভাবে	-11.6848
▁সর্বদাই	-11.6848
▁বিলের	-11.685
কুন	-11.685
▁লুকানো	-11.6851
াধ	-11.6852
ুলি	-11.6854
▁সঙ্ঘ	-11.6857
▁সেনেগাল	-11.6857
▁যাহোক	-11.6858
▁জানালার	-11.686
বর্ত	-11.686
▁সংগে	-11.686
▁শাসকের	-11.6861
নীর	-11.6861
▁প্রিয়জনদের	-11.6866
▁সামার	-11.6867
▁অজ্ঞান	-11.6872
▁সাপের	-11.6874
▁এএফসি	-11.6876
প্রচার	-11.6876
▁অপ্রত্যাশিতভাবে	-11.6876
▁বিশ্বযুদ্ধে	-11.6877
▁লোভী	-11.6881
▁গৃহকর্তা	-11.6883
বিন্দু	-11.6884
মেষ	-11.6885
অর্থ	-11.6885
▁গলার	-11.6885
প্রান্ত	-11.6888
▁মাওলানা	-11.6889
▁সাঁওতাল	-11.6889
পাঠিকাদের	-11.6889
▁মেলবোর্ন	-11.6889
▁প্রতীক্ষা	-11.6889
▁উৎকীর্ণ	-11.6889
▁দুর্গন্ধ	-11.689
▁গ্রেইল	-11.689
▁ইভেন্টে	-11.6893
▁নামকে	-11.6893
▁পরতে	-11.6893
▁বোট	-11.6893
▁প্রশ্নসকল	-11.6895
দ্বয়	-11.6897
▁পৌঁছান	-11.6899
▁পড়লো	-11.6901
ইতিহাস	-11.6901
▁অভ	-11.6904
▁তন্ত্র	-11.6906
মুখে	-11.6908
▁উল্লেখযোগ্যভাবে	-11.691
▁সরা	-11.6912
বৎস	-11.6913
▁স্বর্গের	-11.6913
▁নম্রতার	-11.6916
▁প্রক্রিয়াটি	-11.6918
▁সন্ত	-11.6921
▁অলঙ্করণ	-11.6921
▁ফ্লোরিডা	-11.6921
▁সপ্তা	-11.6921
▁দুর্লভ	-11.6921
▁রসূল	-11.6921
▁সেনগুপ্ত	-11.6921
▁অফিসারদের	-11.6923
▁বসো	-11.6923
▁বোনদের	-11.6927
▁অপ্র	-11.693
▁মিনা	-11.693
▁সম্মানজনক	-11.6931
▁সুলতানের	-11.6931
▁অনুযোগ	-11.6933
▁বিক্ষোভকারী	-11.6935
▁মূলক	-11.6935
▁হত্যাকাণ্ডের	-11.6936
।'"	-11.6936
▁স্ট্যান্ড	-11.6937
▁কাঁচ	-11.6939
▁এদেশের	-11.694
ব্রো	-11.694
চী	-11.6941
দলীয়	-11.6942
সাং	-11.6943
▁গার্	-11.6944
▁বাসার	-11.6944
প্রেস	-11.6945
▁সাইটটি	-11.6945
▁ষ্ট	-11.6946
▁সুরমা	-11.6947
▁বছরই	-11.695
▁পরিজন	-11.695
▁প্রেমকে	-11.6951
▁রক্ষণ	-11.6952
▁গায়	-11.6953
▁বাঙ্গালী	-11.6953
▁স্যামুয়েল	-11.6953
▁নিষ্ফল	-11.6953
▁যাবজ্জীবন	-11.6954
▁টার্	-11.6954
▁অবক্ষেপ	-11.6955
▁মতবিরোধ	-11.6955
▁বলতাম	-11.6958
▁ডার্ক	-11.6961
চের	-11.6961
▁জোনস	-11.6962
গরি	-11.6964
▁বাস্তবতার	-11.6965
▁উপমহাদেশে	-11.697
▁বলিনি	-11.697
▁জিতেছেন	-11.697
কুয়ে	-11.697
নুর	-11.6972
▁কেন্দ্রবিন্দু	-11.6973
ধার্ম্মিক	-11.6973
বিশ	-11.6975
ত্যা	-11.6975
▁তফসিল	-11.6975
▁অন্তরঙ্গ	-11.6977
▁বিএনপি	-11.698
▁পাগলা	-11.6981
চাল	-11.6983
▁চর্চার	-11.6983
▁চাঁদা	-11.6983
ঁধ	-11.6984
▁অপসারিত	-11.6985
▁মেগাওয়াট	-11.6985
▁চুপচাপ	-11.6985
▁আংটি	-11.6985
▁পারেনা	-11.6986
▁মস	-11.6986
▁বিজ্ঞাপনের	-11.6987
▁শামসুল	-11.6988
▁বেঞ্চ	-11.6988
▁জীবনযাত্রা	-11.6989
▁ঘে	-11.699
▁ম্যাস	-11.699
▁জেনি	-11.6992
▁কুয়াশা	-11.6992
▁বহর	-11.6993
▁ভিন	-11.6995
▁হইতেছে	-11.6996
▁তৈরীর	-11.6996
▁অভিনেত্রীর	-11.6997
▁জ্বলে	-11.6998
▁কর্মশালা	-11.6998
▁মেগা	-11.7
▁বৈষম্যের	-11.7001
নালী	-11.7002
সৃষ্টি	-11.7002
খ্যাত	-11.7002
▁সান্ত্বনার	-11.7005
▁সাক্ষর	-11.7008
▁ভারতীয়দের	-11.701
▁লেখাটি	-11.701
▁আত্মজীবনী	-11.7015
▁হেম	-11.7016
▁আলোচ্য	-11.7017
▁লুণ্ঠন	-11.7017
▁নিঃসঙ্গ	-11.7017
▁সিয়েরা	-11.7017
▁অলঙ্কৃত	-11.7017
▁জ্বলন্ত	-11.7017
▁পরিচর্য্যা	-11.7018
য়ত	-11.7018
যুবতীরা	-11.702
নিস	-11.7022
কার্য্য	-11.7023
মিত	-11.7025
▁গবেষকরা	-11.7027
বেগ	-11.7029
▁খাও	-11.7031
▁দূরত্বে	-11.7031
▁৪ঠা	-11.7033
▁লোট	-11.7037
▁মেঝেতে	-11.7037
▁কতদিন	-11.704
▁কলি	-11.7042
▁রাজকুমারী	-11.7044
▁১৯০২	-11.7044
▁গুলোর	-11.7045
▁সামগ্রীর	-11.7045
▁বলেছ	-11.7049
▁পূরণের	-11.7051
গ্	-11.7052
সিডি	-11.7053
▁ব্রায়ান	-11.7053
▁ত্রিত্ব	-11.7054
▁দৃঢ়তা	-11.7058
▁দিল্লী	-11.7058
▁ফুটিয়ে	-11.7065
খণ্ড	-11.7067
চিকিৎসা	-11.7069
▁জীববিজ্ঞান	-11.7069
▁মেয়াদের	-11.707
▁পোড়ানো	-11.7071
▁পাদরি	-11.7071
পার্ট	-11.7072
লেখ	-11.7072
▁ইং	-11.7073
[...]
