.	-3.19341
▁the	-3.21771
,	-3.25763
▁of	-3.6796
▁and	-3.96388
s	-3.97779
▁to	-3.99168
▁in	-4.13885
▁a	-4.27941
'	-4.63089
▁is	-4.84438
▁that	-5.04177
-	-5.0931
▁for	-5.10169
▁was	-5.14712
▁"	-5.19418
▁The	-5.28623
▁on	-5.34808
▁I	-5.40419
▁(	-5.43514
▁with	-5.4452
▁as	-5.48355
?	-5.48494
▁you	-5.53212
▁by	-5.55417
▁be	-5.57765
▁are	-5.63503
)	-5.64391
▁it	-5.66011
:	-5.66501
▁his	-5.69047
▁from	-5.70321
▁not	-5.77831
▁he	-5.88467
▁have	-5.88483
▁or	-5.90618
▁-	-5.91588
▁at	-5.92226
▁this	-5.96225
t	-6.0174
▁an	-6.03203
ing	-6.03727
▁we	-6.06691
"	-6.07736
▁In	-6.17612
▁will	-6.19894
▁has	-6.2272
▁were	-6.2405
▁their	-6.24774
ed	-6.24779
▁	-6.30017
▁who	-6.32257
▁can	-6.35543
▁one	-6.37137
;	-6.37833
▁they	-6.3839
▁He	-6.39908
▁Jehovah	-6.40594
!	-6.41427
▁had	-6.41596
▁all	-6.41989
▁God	-6.44459
."	-6.47741
▁which	-6.50996
▁It	-6.5448
d	-6.55616
▁about	-6.59607
▁also	-6.61132
▁but	-6.62694
▁our	-6.63087
▁A	-6.63432
▁do	-6.63699
▁people	-6.64054
▁your	-6.65316
a	-6.67529
▁been	-6.67955
▁him	-6.73556
▁what	-6.75304
▁time	-6.76034
▁them	-6.77162
▁me	-6.77338
▁her	-6.77964
▁us	-6.81405
▁other	-6.83094
▁when	-6.85052
▁my	-6.8556
▁out	-6.86069
m	-6.87051
▁up	-6.87904
▁more	-6.90006
▁first	-6.90584
▁would	-6.91363
▁What	-6.92646
▁so	-6.95857
ly	-6.96552
▁there	-6.97006
▁You	-6.97167
▁may	-7.01202
▁Bangladesh	-7.01738
▁some	-7.02414
▁such	-7.03521
▁This	-7.04566
e	-7.05703
▁no	-7.05745
▁Jesus	-7.06238
▁[	-7.07611
▁its	-7.08113
▁'	-7.08211
▁Bible	-7.08753
er	-7.0932
▁into	-7.09688
re	-7.10818
▁We	-7.1155
▁life	-7.13123
▁any	-7.13886
▁than	-7.14049
▁two	-7.14494
▁if	-7.17434
▁under	-7.17918
▁over	-7.18496
▁many	-7.19391
▁like	-7.19438
▁only	-7.20096
▁years	-7.20273
y	-7.20429
▁she	-7.21547
▁after	-7.21942
]	-7.23128
▁did	-7.23868
▁work	-7.29935
▁made	-7.30222
i	-7.30766
▁those	-7.31934
▁these	-7.32989
▁world	-7.33448
▁But	-7.33626
...	-7.34228
▁said	-7.36785
▁know	-7.37116
▁India	-7.37374
▁1	-7.38169
th	-7.38828
▁could	-7.39393
▁how	-7.39595
▁new	-7.42525
▁should	-7.42784
▁They	-7.42956
▁And	-7.43334
▁now	-7.4402
▁government	-7.45292
▁How	-7.45681
▁most	-7.46823
▁way	-7.46857
▁make	-7.47346
es	-7.47589
▁good	-7.47912
▁2	-7.49378
▁being	-7.50307
▁man	-7.50563
▁then	-7.51331
▁day	-7.52015
▁No	-7.53085
al	-7.53855
▁where	-7.53921
▁through	-7.55017
▁She	-7.55022
▁just	-7.55791
in	-7.56078
▁against	-7.56119
▁As	-7.56271
▁used	-7.56369
▁well	-7.56426
▁help	-7.57294
▁even	-7.58199
▁part	-7.59694
▁If	-7.59697
▁see	-7.60417
r	-7.60471
/	-7.61357
▁country	-7.61714
I	-7.62571
▁get	-7.62682
,"	-7.63274
▁between	-7.6409
▁because	-7.6425
▁during	-7.65471
▁family	-7.65588
ll	-7.65889
▁go	-7.65908
▁right	-7.6596
▁take	-7.66275
▁before	-7.66704
),	-7.67101
▁very	-7.67537
n	-7.6846
▁need	-7.69544
▁use	-7.70397
▁here	-7.71716
▁name	-7.72465
▁back	-7.74331
▁On	-7.74434
▁year	-7.7444
S	-7.74458
▁There	-7.74997
▁love	-7.75203
▁three	-7.75685
▁When	-7.75872
▁does	-7.76214
▁For	-7.76637
▁come	-7.77175
▁Bengal	-7.77276
▁want	-7.79381
b	-7.79552
▁So	-7.80005
▁Indian	-7.82045
▁children	-7.82441
the	-7.82456
▁down	-7.83166
▁own	-7.83856
o	-7.84844
▁number	-7.85915
▁others	-7.85977
The	-7.86728
▁must	-7.8736
▁same	-7.88312
▁things	-7.88761
▁don	-7.89019
▁place	-7.8956
▁That	-7.90396
▁state	-7.90753
▁3	-7.91082
▁person	-7.91587
▁much	-7.9194
ve	-7.92356
▁called	-7.93697
▁known	-7.93785
▁became	-7.94735
▁found	-7.96162
▁shall	-7.96517
an	-7.97049
▁long	-7.97192
▁while	-7.97297
▁After	-7.97301
▁another	-7.97483
c	-7.98694
▁death	-7.99439
▁city	-7.99492
▁film	-7.99717
▁At	-7.99899
▁women	-7.99977
▁water	-8.01894
▁Dhaka	-8.02292
▁Pakistan	-8.02348
▁human	-8.02738
▁system	-8.02814
▁To	-8.03372
▁home	-8.03382
▁Why	-8.03393
▁University	-8.03893
▁both	-8.03994
▁New	-8.04139
▁each	-8.04241
▁later	-8.04437
▁district	-8.04789
▁say	-8.05167
▁still	-8.05293
A	-8.0557
▁different	-8.06429
▁give	-8.0731
▁become	-8.07955
▁page	-8.08317
▁Paul	-8.08566
▁His	-8.08589
).	-8.09122
▁took	-8.09146
▁came	-8.09827
▁Kingdom	-8.09835
▁men	-8.10516
▁end	-8.10578
▁think	-8.10688
▁Christian	-8.10703
▁World	-8.10843
▁including	-8.10858
▁example	-8.11385
▁Do	-8.12082
▁last	-8.13168
▁power	-8.13388
▁One	-8.13487
▁School	-8.13488
▁population	-8.13818
▁10	-8.13854
▁service	-8.1393
▁However	-8.14639
▁6	-8.14664
▁never	-8.15468
▁century	-8.15771
▁important	-8.15827
▁un	-8.1627
▁5	-8.16394
▁C	-8.16404
▁All	-8.16961
▁every	-8.17126
▁book	-8.17158
▁around	-8.17332
▁since	-8.1757
▁4	-8.17588
▁great	-8.17673
▁find	-8.1777
▁father	-8.17815
▁order	-8.17849
▁John	-8.17983
▁days	-8.18049
▁says	-8.1843
.-	-8.1911
▁15	-8.19728
▁got	-8.20009
▁school	-8.20236
▁area	-8.20585
▁public	-8.20782
▁without	-8.20795
▁set	-8.20796
▁too	-8.21474
E	-8.23638
▁United	-8.2372
▁going	-8.23819
▁E	-8.23974
▁Khan	-8.24344
▁show	-8.2483
▁S	-8.24864
man	-8.25134
▁means	-8.25483
▁among	-8.25764
▁following	-8.26016
▁land	-8.26774
▁earth	-8.268
k	-8.26986
▁off	-8.27559
▁Christ	-8.27966
▁second	-8.28224
▁war	-8.28678
▁national	-8.29125
▁group	-8.29145
."-	-8.29351
or	-8.29493
▁again	-8.29493
▁Witnesses	-8.29936
▁might	-8.29945
▁political	-8.30132
▁few	-8.30558
▁why	-8.3076
▁20	-8.31194
C	-8.3127
▁news	-8.31292
▁local	-8.3135
▁times	-8.31437
▁away	-8.31481
▁am	-8.31489
▁National	-8.31513
▁four	-8.31554
▁study	-8.31776
▁heart	-8.31792
▁spirit	-8.31805
▁today	-8.32117
▁re	-8.32122
able	-8.32423
▁left	-8.32433
ar	-8.32584
▁started	-8.32856
▁law	-8.33524
ers	-8.33798
▁won	-8.33873
▁Some	-8.34012
▁began	-8.34217
▁B	-8.35062
▁12	-8.35127
▁Al	-8.35523
pur	-8.3563
▁17	-8.3565
▁information	-8.35734
▁words	-8.36294
▁high	-8.36374
▁old	-8.36555
▁young	-8.36562
▁wrote	-8.36659
▁given	-8.36963
h	-8.37001
▁case	-8.37067
▁language	-8.37388
▁house	-8.37915
to	-8.37951
▁faith	-8.38443
▁put	-8.38682
▁Christians	-8.39083
▁keep	-8.39404
▁until	-8.3944
▁age	-8.39524
▁members	-8.39576
▁son	-8.39589
▁May	-8.3977
▁16	-8.3995
▁true	-8.40076
▁social	-8.40305
▁English	-8.40312
▁early	-8.40504
▁million	-8.40781
▁7	-8.40839
▁congregation	-8.40937
▁little	-8.40943
▁#	-8.40958
▁de	-8.41018
▁education	-8.41127
▁...	-8.4113
▁something	-8.41174
▁live	-8.41326
▁hand	-8.41644
ness	-8.41835
ul	-8.41877
▁often	-8.42369
▁College	-8.42541
▁spiritual	-8.43218
▁Act	-8.43371
▁course	-8.43614
▁Government	-8.43923
▁March	-8.4419
▁period	-8.44332
▁himself	-8.4451
▁born	-8.44563
▁several	-8.4476
ic	-8.45404
▁km	-8.46124
?"	-8.46212
ur	-8.46516
▁8	-8.46644
▁let	-8.4671
▁support	-8.46736
▁held	-8.46901
▁British	-8.47282
▁mother	-8.47394
▁Muslim	-8.47756
▁These	-8.48377
",	-8.4862
g	-8.48782
na	-8.49244
▁read	-8.49335
▁look	-8.49464
▁small	-8.49865
▁within	-8.50085
▁South	-8.50389
▁making	-8.50538
▁9	-8.50677
▁My	-8.50691
▁14	-8.50848
▁(1	-8.50916
▁18	-8.51124
▁money	-8.5143
▁non	-8.51431
▁full	-8.51476
▁food	-8.51543
▁five	-8.5157
▁parents	-8.51834
▁feel	-8.51897
▁large	-8.52087
on	-8.52092
▁religious	-8.52191
▁next	-8.52196
▁Peter	-8.52215
▁child	-8.52231
▁along	-8.52241
▁11	-8.52374
ra	-8.52709
▁countries	-8.52846
▁went	-8.53005
▁member	-8.53289
▁able	-8.53452
▁best	-8.53512
▁told	-8.53551
▁result	-8.53664
▁December	-8.53683
l	-8.53907
▁An	-8.53963
▁media	-8.54063
B	-8.54096
▁truth	-8.54344
▁history	-8.54634
▁doing	-8.54778
▁present	-8.54846
▁upon	-8.55225
▁team	-8.55411
▁East	-8.55486
▁West	-8.55553
▁January	-8.55672
▁With	-8.56024
▁development	-8.56026
▁received	-8.56229
▁though	-8.56632
▁word	-8.56718
en	-8.5672
▁War	-8.56941
".	-8.56973
▁U	-8.5715
▁message	-8.57164
▁International	-8.57309
▁13	-8.57332
▁always	-8.57346
▁published	-8.57434
u	-8.57503
▁having	-8.57638
▁taken	-8.57668
▁April	-8.57811
▁established	-8.57854
ta	-8.57886
M	-8.58019
▁free	-8.58327
▁mind	-8.58808
▁form	-8.58888
▁thought	-8.59219
▁High	-8.59338
▁By	-8.59366
▁really	-8.59841
ity	-8.60229
▁open	-8.60333
▁students	-8.60342
▁far	-8.60845
▁video	-8.61533
▁M	-8.61566
la	-8.6181
▁body	-8.61995
▁rate	-8.62168
▁wife	-8.62293
▁woman	-8.62907
▁however	-8.62933
▁post	-8.6298
▁From	-8.63213
▁view	-8.63617
▁police	-8.64331
▁role	-8.6447
▁died	-8.64494
▁together	-8.64535
▁head	-8.64547
▁living	-8.64607
▁ever	-8.64741
▁gave	-8.65115
le	-8.65236
▁August	-8.6528
▁Then	-8.65332
▁done	-8.65361
▁tell	-8.65393
▁various	-8.65852
▁According	-8.66122
▁less	-8.66193
▁@	-8.66256
▁During	-8.66319
▁special	-8.66531
▁better	-8.66546
▁June	-8.66814
▁side	-8.66875
ism	-8.6703
▁change	-8.6713
▁face	-8.67336
▁Now	-8.67645
▁T	-8.68107
▁international	-8.68186
▁named	-8.68227
▁cannot	-8.6884
▁call	-8.68959
▁believe	-8.69052
▁October	-8.69388
▁President	-8.69502
▁Many	-8.69696
▁fact	-8.69746
▁based	-8.69761
▁night	-8.69794
▁brother	-8.69961
▁19	-8.70025
▁O	-8.70348
▁July	-8.70386
▁due	-8.70491
▁Yes	-8.70542
▁using	-8.70855
▁ones	-8.70883
▁main	-8.71196
▁D	-8.71326
▁learn	-8.71398
▁February	-8.71495
▁Israel	-8.71877
▁killed	-8.71895
▁States	-8.72196
▁played	-8.72313
▁American	-8.72621
▁30	-8.72654
▁brothers	-8.72678
▁King	-8.72888
▁near	-8.72955
▁November	-8.7311
▁point	-8.73128
▁K	-8.73394
ation	-8.7362
▁hope	-8.73733
▁rights	-8.74195
▁village	-8.74227
▁asked	-8.74245
▁League	-8.7431
▁general	-8.74394
▁Be	-8.74886
▁include	-8.75009
▁Award	-8.75117
▁September	-8.75407
▁Let	-8.75444
▁Minister	-8.75457
▁seen	-8.75554
▁located	-8.76261
▁control	-8.76289
▁Word	-8.76317
▁knowledge	-8.7648
▁themselves	-8.76633
▁activities	-8.76776
▁David	-8.76875
▁community	-8.76906
▁Our	-8.77108
▁possible	-8.7732
p	-8.77743
▁close	-8.77798
▁already	-8.77849
li	-8.77959
▁company	-8.77964
▁Ali	-8.78224
▁ministry	-8.78446
▁report	-8.78516
▁per	-8.78655
▁areas	-8.79249
▁kind	-8.7932
▁major	-8.79338
T	-8.79889
▁saw	-8.79901
▁health	-8.79977
▁thing	-8.79997
▁army	-8.80075
st	-8.80137
▁building	-8.80143
▁P	-8.80558
▁&	-8.80909
▁matter	-8.81074
▁list	-8.8111
▁average	-8.81287
▁reason	-8.81427
▁min	-8.81604
▁former	-8.81612
at	-8.81636
▁future	-8.81754
▁whole	-8.81776
▁Your	-8.81802
▁China	-8.81896
▁mean	-8.82189
▁common	-8.82271
us	-8.82296
ist	-8.82491
▁F	-8.82571
▁personal	-8.8272
ion	-8.82781
▁s	-8.82849
▁office	-8.82985
born	-8.83057
▁bring	-8.83117
▁female	-8.83274
▁Go	-8.83274
▁once	-8.83393
▁Not	-8.8357
▁District	-8.83614
▁care	-8.8378
▁sent	-8.84204
▁yet	-8.84261
▁peace	-8.84363
▁light	-8.84507
▁field	-8.84537
▁self	-8.84692
▁account	-8.84694
▁marriage	-8.84697
▁region	-8.84721
ma	-8.84722
▁line	-8.84886
▁G	-8.85217
▁real	-8.8528
▁written	-8.85321
▁freedom	-8.85354
▁talk	-8.85386
▁question	-8.85501
▁business	-8.85537
▁series	-8.85595
▁share	-8.8582
▁Ministry	-8.85924
▁military	-8.85945
ment	-8.85955
▁led	-8.86016
▁created	-8.86069
▁situation	-8.86327
ia	-8.86656
▁hard	-8.86729
▁25	-8.86786
▁understand	-8.86803
▁capital	-8.86972
▁Can	-8.87075
▁sure	-8.87186
▁file	-8.87384
▁anything	-8.874
▁months	-8.87435
▁brought	-8.87683
K	-8.87717
▁Are	-8.8786
▁six	-8.88018
▁purpose	-8.88241
▁movement	-8.88358
▁working	-8.88374
▁modern	-8.88975
▁society	-8.88988
▁taking	-8.89016
▁total	-8.89052
D	-8.89412
less	-8.89597
▁north	-8.8981
▁short	-8.89952
▁lost	-8.90077
▁dead	-8.90142
▁town	-8.90145
▁Cup	-8.90257
il	-8.90597
▁fine	-8.9072
▁General	-8.91011
▁nothing	-8.91123
▁level	-8.91282
▁Who	-8.91424
▁start	-8.91453
▁21	-8.91681
ri	-8.91715
▁worship	-8.91788
▁play	-8.91888
▁etc	-8.92047
▁lives	-8.92119
▁sub	-8.92122
▁party	-8.92132
de	-8.92163
▁rule	-8.92419
▁ask	-8.92432
▁Re	-8.92444
▁meeting	-8.92809
▁bad	-8.92863
▁considered	-8.92909
f	-8.93138
da	-8.93161
▁built	-8.93242
▁soon	-8.9356
▁Islam	-8.93837
▁Even	-8.93919
▁literacy	-8.94214
▁past	-8.94311
▁leave	-8.94319
▁someone	-8.94335
▁project	-8.9438
▁interest	-8.94499
ya	-8.9459
2	-8.94683
▁Father	-8.94778
▁provide	-8.94781
▁reading	-8.94834
▁Langdon	-8.94918
▁river	-8.95066
N	-8.95092
▁ancient	-8.9514
te	-8.9517
▁story	-8.95178
▁especially	-8.95228
▁served	-8.95369
▁Satan	-8.95387
▁Asia	-8.9542
▁didn	-8.956
▁eyes	-8.95835
▁While	-8.96095
▁music	-8.96189
▁Bengali	-8.96295
▁whom	-8.96423
▁Is	-8.96423
▁serve	-8.96433
▁Don	-8.96732
▁Best	-8.96742
▁Africa	-8.96763
▁Since	-8.96833
▁coming	-8.97041
▁State	-8.97243
▁article	-8.97251
▁Corinthians	-8.97585
▁popular	-8.97674
▁al	-8.97746
up	-8.97764
▁blood	-8.97937
▁least	-8.98158
▁24	-8.98484
▁problems	-8.98509
▁Mr	-8.98521
▁single	-8.98807
▁cause	-8.99044
▁Lord	-8.99064
▁works	-8.99214
▁half	-8.99232
▁appointed	-8.99243
▁continue	-8.99302
▁Where	-8.99431
▁available	-8.99511
▁List	-8.99527
▁further	-8.99687
▁saying	-8.99869
▁husband	-8.99967
▁released	-8.99995
per	-9.00001
▁(2	-9.00063
▁Day	-9.00113
▁problem	-9.00212
▁moved	-9.00259
▁week	-9.00474
▁wrong	-9.00693
7	-9.00731
▁Well	-9.00768
▁position	-9.00881
▁research	-9.00932
▁road	-9.01196
▁temple	-9.01298
-19	-9.0139
▁court	-9.01653
▁return	-9.01714
▁experience	-9.01731
▁questions	-9.01736
▁1,	-9.01746
▁US	-9.01877
▁issue	-9.02028
▁felt	-9.02119
ry	-9.02145
▁ago	-9.02165
▁America	-9.0217
▁institutions	-9.02189
▁Although	-9.02454
▁blog	-9.02464
5	-9.02482
▁turn	-9.02623
▁needed	-9.02657
▁act	-9.02934
▁People	-9.03036
▁friends	-9.03124
z	-9.03471
▁whether	-9.03651
▁lead	-9.03706
▁Shah	-9.03718
▁certain	-9.03823
▁Oh	-9.03823
▁final	-9.03866
▁apostle	-9.03903
▁run	-9.04014
▁Because	-9.04037
ka	-9.04066
▁according	-9.04177
▁Matthew	-9.04235
am	-9.04257
▁almost	-9.04278
▁married	-9.04344
▁king	-9.04434
no	-9.0455
▁books	-9.04573
as	-9.04712
▁outside	-9.04826
▁career	-9.04866
▁upazila	-9.05008
▁Bangla	-9.05062
▁co	-9.05152
▁stop	-9.05189
▁formed	-9.05199
▁enough	-9.05542
▁class	-9.05787
▁R	-9.05877
▁North	-9.06024
▁male	-9.06264
▁Union	-9.06345
▁joined	-9.06448
▁similar	-9.06771
▁training	-9.06963
▁Council	-9.07128
3	-9.07149
▁religion	-9.07451
▁station	-9.0751
▁election	-9.07531
Picture	-9.07725
▁official	-9.07754
ni	-9.07783
▁move	-9.07841
▁image	-9.07856
G	-9.07863
▁security	-9.07996
▁current	-9.08015
▁event	-9.08078
▁wanted	-9.08119
▁ways	-9.08153
▁friend	-9.08239
▁third	-9.0827
▁nation	-9.08326
▁Her	-9.08615
▁late	-9.0867
▁City	-9.08764
▁continued	-9.08823
▁consider	-9.0902
▁economic	-9.09057
▁attention	-9.09074
▁east	-9.09131
▁force	-9.09135
▁Of	-9.09259
▁23	-9.09286
▁Please	-9.09334
▁Upazila	-9.09504
P	-9.09505
▁foreign	-9.096
▁Law	-9.09627
▁provided	-9.09822
▁follow	-9.09882
0	-9.10116
▁strong	-9.10142
▁culture	-9.10304
▁Court	-9.10391
▁president	-9.10574
ne	-9.10659
▁respect	-9.1075
time	-9.10778
▁22	-9.10794
▁J	-9.10954
▁cricket	-9.11046
▁speak	-9.11063
▁across	-9.11523
▁Twitter	-9.11559
▁Hindu	-9.11685
and	-9.11757
▁involved	-9.11833
▁south	-9.11941
▁needs	-9.11948
▁e	-9.12009
▁fellow	-9.12036
O	-9.12045
▁rest	-9.12075
di	-9.12076
▁market	-9.12221
▁private	-9.12263
▁Commission	-9.1265
▁everything	-9.12761
▁L	-9.12762
▁Dr	-9.12849
el	-9.12867
▁holy	-9.12968
▁behind	-9.1301
▁action	-9.13239
▁heard	-9.13334
▁Europe	-9.13411
it	-9.13551
▁try	-9.1363
▁faithful	-9.13723
F	-9.13859
▁higher	-9.13971
▁month	-9.14045
▁fear	-9.14121
!"	-9.14262
▁Most	-9.14331
▁included	-9.14369
▁process	-9.14375
▁hear	-9.14449
▁Psalm	-9.14485
▁value	-9.14528
▁Timothy	-9.14601
20	-9.14655
▁fire	-9.14666
▁Man	-9.1472
▁giving	-9.14799
▁Congress	-9.14906
▁England	-9.14931
▁History	-9.14934
▁decision	-9.15043
▁knew	-9.15044
▁H	-9.1519
▁room	-9.15202
▁groups	-9.1524
▁organization	-9.15292
▁match	-9.15495
▁hours	-9.15644
▁Facebook	-9.15653
▁sense	-9.15656
rs	-9.15672
▁type	-9.15685
▁rather	-9.15701
4	-9.15719
▁season	-9.15793
▁clear	-9.15841
▁front	-9.16015
ian	-9.16056
▁French	-9.16413
ling	-9.1651
▁top	-9.16615
▁Chittagong	-9.1684
▁please	-9.16936
▁turned	-9.16936
▁above	-9.16953
▁happy	-9.17242
▁authority	-9.17249
▁access	-9.17309
▁Department	-9.1736
▁states	-9.17467
un	-9.17471
▁films	-9.17506
▁events	-9.17714
▁Un	-9.17783
▁lot	-9.17813
▁necessary	-9.17983
▁thus	-9.17984
▁Come	-9.17995
▁daughter	-9.18093
ate	-9.1815
ach	-9.18262
▁parts	-9.18565
▁literature	-9.1861
▁Bangladeshi	-9.18835
▁Chinese	-9.19003
▁p	-9.19013
▁developed	-9.19028
▁Bank	-9.19076
▁air	-9.19118
▁Calcutta	-9.19195
▁subject	-9.19201
est	-9.19225
▁student	-9.19238
▁section	-9.19297
▁term	-9.19317
ting	-9.1934
▁Egypt	-9.1936
▁date	-9.19391
ton	-9.19501
ary	-9.19925
▁York	-9.19972
▁First	-9.1998
▁relationship	-9.2
▁inside	-9.2014
▁either	-9.20221
▁meetings	-9.20292
day	-9.20361
▁central	-9.20424
▁Just	-9.20532
▁worked	-9.20568
▁material	-9.20626
▁idea	-9.20633
▁happened	-9.20731
▁source	-9.20784
▁services	-9.2081
▁elected	-9.20823
▁forces	-9.20849
▁workers	-9.20882
is	-9.20936
▁sea	-9.21047
▁helped	-9.2105
▁50	-9.21186
▁natural	-9.21195
▁Rahman	-9.21238
▁site	-9.21279
um	-9.21307
▁Party	-9.21429
▁Japan	-9.2146
▁shows	-9.21467
w	-9.2172
▁humans	-9.21788
▁ground	-9.21897
▁college	-9.21943
▁(18	-9.22169
▁pay	-9.22263
▁Yeah	-9.22363
▁disciples	-9.22381
▁answer	-9.22389
▁hold	-9.22441
▁trade	-9.22496
▁online	-9.22514
▁hands	-9.22536
▁art	-9.22601
▁N	-9.22696
▁De	-9.22729
▁prayer	-9.23046
▁car	-9.23237
▁preaching	-9.23324
▁toward	-9.23414
▁pre	-9.23473
▁visit	-9.23611
ive	-9.23705
ha	-9.23783
▁program	-9.23893
▁ten	-9.24171
▁difficult	-9.24201
▁Academy	-9.24205
▁Islamic	-9.24297
▁(1)	-9.24312
▁addition	-9.24335
▁poor	-9.24465
▁selected	-9.24617
▁attack	-9.24791
6	-9.24834
▁big	-9.24839
▁morning	-9.25002
▁40	-9.25132
ru	-9.25278
▁comes	-9.25289
ti	-9.25294
▁mentioned	-9.25307
▁followed	-9.25354
▁learned	-9.25434
▁evidence	-9.25727
▁Board	-9.25755
▁beginning	-9.25885
▁policy	-9.26013
▁seven	-9.26093
▁whose	-9.26109
▁largest	-9.2617
▁Jerusalem	-9.26225
▁teaching	-9.26246
co	-9.26251
▁Song	-9.26389
▁meet	-9.26604
ish	-9.2667
▁2016	-9.26703
▁sister	-9.26711
▁university	-9.26852
▁construction	-9.26881
▁Kolkata	-9.26906
H	-9.27002
▁0	-9.27054
▁Institute	-9.27068
▁languages	-9.27186
▁passed	-9.27231
W	-9.27339
▁girl	-9.2739
year	-9.27413
▁River	-9.27413
Matthew	-9.27481
▁production	-9.27666
▁Population	-9.27668
You	-9.27763
▁Son	-9.2781
▁writing	-9.27834
▁data	-9.28162
▁bank	-9.28188
age	-9.28204
▁stay	-9.28238
▁receive	-9.28353
▁door	-9.28381
▁usually	-9.2849
▁black	-9.2865
8	-9.28893
▁getting	-9.29008
▁conduct	-9.29072
▁joy	-9.29072
▁remain	-9.29113
▁text	-9.29145
▁gonna	-9.29196
▁officer	-9.29341
▁leaders	-9.29368
▁28	-9.29554
▁effect	-9.29555
▁television	-9.29568
▁Could	-9.29597
▁create	-9.29705
▁reported	-9.29711
▁percent	-9.29804
▁Committee	-9.29866
▁entire	-9.30033
▁European	-9.30068
▁makes	-9.30149
▁London	-9.30168
▁campaign	-9.30182
▁yourself	-9.30227
▁See	-9.30229
▁key	-9.30456
▁stand	-9.30463
▁Australia	-9.30983
▁trying	-9.31017
▁original	-9.31034
▁throughout	-9.31085
▁decided	-9.31113
▁Ahmed	-9.31337
▁job	-9.31416
ch	-9.31609
▁remember	-9.31821
ous	-9.31837
▁m	-9.32036
▁recent	-9.3205
be	-9.32134
▁La	-9.32184
▁conditions	-9.32321
▁26	-9.32322
do	-9.32598
▁letter	-9.32897
▁boy	-9.32997
▁Division	-9.33007
▁changed	-9.33078
▁servants	-9.33208
▁Those	-9.33346
j	-9.33364
▁tried	-9.33403
▁rural	-9.33433
▁related	-9.33477
▁thinking	-9.33529
▁record	-9.33627
▁offer	-9.33662
▁Yet	-9.3373
▁Prime	-9.33764
▁Or	-9.33836
ro	-9.33924
▁anyone	-9.33986
▁(19	-9.34018
▁2011	-9.34089
▁basis	-9.34096
▁kept	-9.34156
▁Good	-9.34157
▁violence	-9.34242
▁Get	-9.34309
▁James	-9.34341
▁St	-9.34438
▁Main	-9.34446
▁science	-9.34509
▁itself	-9.34692
▁Women	-9.35096
▁legal	-9.35476
▁opened	-9.35579
▁Muhammad	-9.35614
▁famous	-9.35635
out	-9.35658
▁W	-9.35698
▁else	-9.35862
▁game	-9.36062
ir	-9.36105
▁Internet	-9.36355
▁Thus	-9.3644
▁100	-9.36541
▁longer	-9.36566
▁industry	-9.36582
▁Sir	-9.36622
9	-9.36676
▁Me	-9.36833
ful	-9.36837
▁likely	-9.36879
▁Test	-9.36909
▁(2)	-9.36922
R	-9.36941
▁nations	-9.37096
▁looking	-9.37109
▁user	-9.37116
▁trust	-9.37166
▁leader	-9.37177
▁fight	-9.37382
▁Today	-9.37502
▁practice	-9.37519
▁alone	-9.37699
me	-9.37841
▁species	-9.37865
▁produced	-9.37877
▁Society	-9.37952
▁die	-9.38029
▁cases	-9.38077
▁leading	-9.38111
ad	-9.38126
▁allowed	-9.38165
▁physical	-9.38188
▁accept	-9.38205
va	-9.38299
▁El	-9.38358
▁spread	-9.38399
▁serving	-9.38464
▁2014	-9.38494
▁met	-9.38536
x	-9.38606
▁changes	-9.38796
▁Will	-9.38956
▁appeared	-9.39044
▁Here	-9.39058
▁described	-9.3909
▁avoid	-9.39269
▁caused	-9.39285
▁families	-9.39401
▁sin	-9.39408
▁earlier	-9.39431
▁Sri	-9.39468
▁Mo	-9.39589
vi	-9.39681
ty	-9.39715
We	-9.39751
▁daily	-9.3976
▁Like	-9.39829
▁Luke	-9.39926
▁Cricket	-9.39973
▁reports	-9.39976
▁benefit	-9.40004
▁towards	-9.40127
▁debut	-9.40144
▁Later	-9.40273
1	-9.40407
▁matters	-9.40421
ie	-9.40436
▁west	-9.40444
▁low	-9.40474
▁complete	-9.4056
▁census	-9.406
▁rules	-9.40605
lo	-9.40624
▁primary	-9.40726
▁c	-9.40861
▁loving	-9.40878
▁deep	-9.4098
▁THE	-9.41032
▁everyone	-9.41046
▁write	-9.41063
▁enjoy	-9.41254
▁increase	-9.41321
▁director	-9.41338
▁returned	-9.41368
ized	-9.41424
▁centre	-9.41442
▁medical	-9.41515
▁Greek	-9.41544
▁opportunity	-9.41599
▁Scriptures	-9.41639
▁Did	-9.4173
▁announced	-9.41743
▁mankind	-9.41846
▁27	-9.41931
▁taught	-9.41935
▁degree	-9.41994
▁desire	-9.42093
▁Muslims	-9.42328
V	-9.42352
▁regular	-9.42393
▁2017	-9.42423
▁minister	-9.42435
▁plan	-9.42435
▁Russian	-9.42491
▁address	-9.42559
ja	-9.42661
▁Cor	-9.42764
▁contact	-9.42767
▁influence	-9.42821
▁allow	-9.42832
▁Arab	-9.42915
▁places	-9.42955
▁nature	-9.43146
▁actually	-9.43256
▁sir	-9.43296
▁required	-9.43328
▁voice	-9.43332
▁lack	-9.43495
▁oil	-9.435
John	-9.43505
▁Film	-9.4351
▁efforts	-9.43746
▁opposition	-9.43847
ce	-9.43899
▁issues	-9.43912
▁individual	-9.43985
▁Global	-9.44039
▁title	-9.44089
ted	-9.4414
▁traditional	-9.44167
▁Another	-9.44288
▁Education	-9.44296
▁elders	-9.44344
▁authorities	-9.44382
▁Their	-9.44415
▁studies	-9.44441
▁writer	-9.44544
se	-9.44566
▁Iran	-9.44592
▁Watchtower	-9.44723
▁sometimes	-9.44765
▁amount	-9.44875
men	-9.45044
▁civil	-9.4508
▁serious	-9.45108
id	-9.45145
▁Central	-9.45171
▁nearly	-9.45198
▁build	-9.45332
▁birth	-9.45381
▁nor	-9.4543
▁AD	-9.45522
▁Isaiah	-9.45532
▁save	-9.45654
▁instead	-9.45735
▁feet	-9.45744
▁seems	-9.45907
▁29	-9.45912
▁Abdul	-9.45955
▁counsel	-9.46019
▁lived	-9.46057
▁gives	-9.461
▁raised	-9.46158
▁song	-9.46337
ant	-9.46458
▁response	-9.46463
▁chief	-9.46488
▁Service	-9.46549
▁ourselves	-9.46562
▁Army	-9.46606
▁added	-9.46801
▁stage	-9.4683
nd	-9.46847
▁anti	-9.46882
▁Such	-9.46978
▁Two	-9.4699
▁Republic	-9.47006
▁TV	-9.47068
▁Saudi	-9.47075
▁Mosque	-9.47075
▁send	-9.47161
▁Other	-9.47264
com	-9.47307
▁sound	-9.47322
▁Acts	-9.47346
▁meaning	-9.47354
▁greater	-9.47434
▁failed	-9.4744
▁financial	-9.47465
(	-9.47521
▁II	-9.47598
ent	-9.4765
▁fall	-9.47678
ter	-9.4778
▁wisdom	-9.47983
old	-9.48029
he	-9.48141
▁Association	-9.48208
▁protest	-9.48316
▁simply	-9.48369
im	-9.48403
▁success	-9.48403
▁eight	-9.48589
▁although	-9.48669
▁blogger	-9.4869
▁urban	-9.48911
▁sign	-9.49013
▁laws	-9.49035
▁Proverbs	-9.49133
▁2013	-9.49141
▁songs	-9.49177
▁V	-9.4925
▁powerful	-9.49314
▁31	-9.49322
▁constituency	-9.49582
land	-9.4959
▁kill	-9.49628
▁Photo	-9.49656
▁individuals	-9.49888
▁deal	-9.49905
▁terms	-9.49973
▁Afghanistan	-9.50016
▁facilities	-9.50045
▁effort	-9.50119
ba	-9.50134
▁computer	-9.50239
▁sexual	-9.50417
▁heaven	-9.50475
▁independent	-9.50482
▁France	-9.50497
▁couple	-9.50515
▁regarding	-9.50532
▁Delhi	-9.50616
▁German	-9.50705
▁Asian	-9.50956
▁declared	-9.50982
▁ready	-9.5102
▁release	-9.51137
L	-9.51144
▁arrested	-9.5122
▁phone	-9.51254
et	-9.51369
▁g	-9.51402
▁Assembly	-9.51446
_	-9.51562
▁reach	-9.51702
tic	-9.5186
▁educational	-9.51894
▁speech	-9.51979
ies	-9.51981
▁responsibility	-9.52053
▁cities	-9.52228
▁active	-9.5233
ca	-9.52331
▁Hey	-9.52433
In	-9.52877
▁cultural	-9.52897
▁prison	-9.53133
▁quite	-9.53178
▁magazine	-9.53457
▁space	-9.53513
It	-9.53516
▁stories	-9.53518
▁Under	-9.53566
▁Have	-9.53719
▁Great	-9.53781
▁San	-9.53801
▁reached	-9.53816
▁perhaps	-9.53829
▁folder	-9.53928
▁quality	-9.54113
▁white	-9.54191
▁b	-9.54209
▁union	-9.54262
▁moment	-9.54263
▁principles	-9.54282
son	-9.5434
ak	-9.54433
ah	-9.5446
▁eat	-9.54634
▁website	-9.54651
▁completed	-9.54714
▁Life	-9.54725
▁mosque	-9.54795
ke	-9.54824
▁introduced	-9.54836
▁Moses	-9.54871
v	-9.54919
▁growth	-9.54923
▁results	-9.55136
▁command	-9.55285
▁direction	-9.55507
▁showed	-9.55709
▁writes	-9.5574
go	-9.55778
▁2010	-9.5581
▁relations	-9.5581
▁minutes	-9.55887
▁2.	-9.5597
U	-9.56035
▁window	-9.56039
▁management	-9.56272
▁gold	-9.56375
▁elections	-9.56451
▁strength	-9.56454
▁remained	-9.56551
▁Show	-9.56565
▁status	-9.56794
▁Chief	-9.56846
▁rich	-9.56859
▁cost	-9.56889
▁win	-9.569
▁Russia	-9.56928
▁Year	-9.56954
▁Mark	-9.56988
em	-9.57057
ga	-9.57064
▁Ma	-9.57147
▁particular	-9.57307
▁Voices	-9.57348
▁therefore	-9.57474
▁increased	-9.57493
sh	-9.57497
▁sex	-9.57554
▁stated	-9.57576
▁d	-9.57583
▁fully	-9.57599
▁thousands	-9.57667
▁teach	-9.57794
▁forward	-9.57867
▁wise	-9.57969
▁railway	-9.57973
▁Jews	-9.58181
kar	-9.5822
▁recorded	-9.58287
▁direct	-9.58351
▁Revelation	-9.58375
▁Hall	-9.58531
ine	-9.58646
▁Parliament	-9.58801
▁energy	-9.58876
▁reasons	-9.59036
▁sq	-9.59157
▁justice	-9.59218
▁carry	-9.59237
▁kingdom	-9.59255
▁hospital	-9.59267
▁activity	-9.59353
▁branch	-9.59363
▁protect	-9.59402
os	-9.59468
▁agricultural	-9.59499
amp	-9.5957
▁version	-9.59717
▁below	-9.59778
based	-9.59888
▁2012	-9.59956
▁users	-9.59956
▁commercial	-9.59986
▁responsible	-9.60036
▁believed	-9.60129
▁character	-9.60151
▁administration	-9.60369
▁schools	-9.60381
▁train	-9.60384
▁territory	-9.60403
▁listen	-9.60409
▁directed	-9.60498
▁pro	-9.60512
▁Director	-9.6052
▁includes	-9.60585
▁doubt	-9.60607
▁Would	-9.60706
ence	-9.6087
▁independence	-9.60963
▁spent	-9.61031
▁particularly	-9.61057
▁animals	-9.61125
pa	-9.61165
▁attitude	-9.61297
▁2015	-9.61336
▁suffering	-9.61379
▁Okay	-9.61446
▁highest	-9.61482
▁disease	-9.61524
▁easy	-9.61585
▁goal	-9.61662
▁condition	-9.61704
▁lower	-9.61705
▁search	-9.61706
bar	-9.61719
pe	-9.61723
▁beautiful	-9.61755
Psalm	-9.61883
one	-9.61904
▁Sa	-9.61913
▁Roman	-9.61917
▁thousand	-9.61942
▁comments	-9.61983
▁doesn	-9.62072
▁politics	-9.62125
▁Bar	-9.62127
▁centuries	-9.62185
▁feelings	-9.62186
▁Name	-9.62189
▁followers	-9.6222
▁environment	-9.62293
▁pain	-9.62327
▁carried	-9.62369
▁finally	-9.62388
fa	-9.6248
▁Job	-9.6249
ating	-9.62567
▁provides	-9.62624
▁heavenly	-9.62737
▁maintain	-9.62782
▁offered	-9.62822
▁middle	-9.62859
led	-9.62918
▁false	-9.62957
ated	-9.62996
▁limited	-9.63026
▁red	-9.63032
▁wicked	-9.63219
▁showing	-9.63274
▁citizens	-9.63343
▁application	-9.6336
▁teacher	-9.63622
▁transport	-9.63634
▁tree	-9.63721
▁More	-9.63773
har	-9.63855
▁communication	-9.63867
▁pressure	-9.64004
▁circumstances	-9.64129
▁inspired	-9.6421
▁concerned	-9.64308
▁Development	-9.6434
▁looked	-9.64368
▁display	-9.64381
▁households	-9.64553
ana	-9.64605
▁Look	-9.6461
▁Pakistani	-9.64817
▁points	-9.64839
▁Human	-9.64874
ge	-9.64957
J	-9.65024
▁bloggers	-9.6505
▁develop	-9.65183
▁Professor	-9.65187
▁shown	-9.65215
▁break	-9.65217
▁o	-9.65296
▁females	-9.653
▁Germany	-9.65305
▁founded	-9.65319
▁beyond	-9.65413
▁perfect	-9.65543
▁center	-9.65582
▁stone	-9.65586
mo	-9.65635
▁discussion	-9.65672
▁playing	-9.65687
▁Israelites	-9.65746
▁property	-9.6577
▁walk	-9.6578
▁watch	-9.65868
▁happiness	-9.65917
▁gone	-9.66008
▁2009	-9.66027
▁probably	-9.66039
▁anointed	-9.66055
▁wait	-9.66203
▁teachers	-9.66224
▁officers	-9.66277
▁proper	-9.66342
▁wide	-9.66377
▁takes	-9.66402
za	-9.66481
▁messages	-9.66494
ganj	-9.66522
▁i	-9.66609
▁draw	-9.66636
▁church	-9.66641
▁Early	-9.66663
Acts	-9.66706
▁immediately	-9.66731
▁test	-9.66783
▁African	-9.66836
▁Ram	-9.66896
▁importance	-9.66937
▁paper	-9.66956
ally	-9.67103
▁cover	-9.67106
▁mass	-9.67122
▁4.	-9.67189
▁creation	-9.67219
▁Does	-9.67243
▁Sheikh	-9.67258
▁picture	-9.67271
▁quickly	-9.67301
▁Jewish	-9.67372
▁Solomon	-9.67442
▁code	-9.67468
▁2008	-9.67501
ji	-9.67502
▁accepted	-9.67502
▁simple	-9.67649
▁gain	-9.67709
▁successful	-9.67719
▁significant	-9.67744
▁manner	-9.67941
▁fish	-9.67953
▁shared	-9.67968
▁talking	-9.68023
▁parties	-9.68058
▁content	-9.68096
▁myself	-9.68168
▁accounts	-9.68193
▁sons	-9.68285
▁happen	-9.68292
▁wants	-9.68311
▁round	-9.68318
ki	-9.68341
▁size	-9.68348
▁mainly	-9.68361
sha	-9.68539
▁demand	-9.68551
▁majority	-9.68607
▁northern	-9.68632
▁Before	-9.68725
▁Adam	-9.68745
▁Science	-9.68912
▁understanding	-9.68943
▁Co	-9.69163
▁House	-9.69213
▁persons	-9.69284
▁western	-9.69332
ize	-9.69367
▁technology	-9.69397
uddin	-9.6941
▁separate	-9.69481
▁wall	-9.69526
der	-9.69571
▁Club	-9.69635
▁apply	-9.69635
▁soul	-9.69645
▁cut	-9.69684
▁plant	-9.69705
▁Ka	-9.6972
▁recently	-9.6973
▁older	-9.69937
▁determined	-9.70004
▁Mary	-9.70332
▁sources	-9.7035
▁supply	-9.70372
▁step	-9.70432
▁Literacy	-9.70444
▁Open	-9.70471
▁ability	-9.70501
▁supported	-9.70506
▁statement	-9.70597
▁style	-9.70606
▁Read	-9.70682
▁network	-9.70686
▁Image	-9.70771
▁grow	-9.70795
▁currently	-9.70822
▁Awards	-9.70842
▁Tom	-9.71029
▁press	-9.71081
con	-9.7112
ab	-9.71177
He	-9.71224
▁provisions	-9.71398
▁professional	-9.71531
▁runs	-9.71601
▁60	-9.71612
ial	-9.71623
▁opening	-9.71735
▁Romans	-9.71744
▁girls	-9.71749
ci	-9.71828
▁soldiers	-9.71867
▁battle	-9.71895
▁Su	-9.71897
▁eye	-9.72017
What	-9.72062
▁becoming	-9.72163
▁Nations	-9.72236
▁dis	-9.72275
▁treatment	-9.72304
▁club	-9.72311
▁choose	-9.72364
▁presence	-9.72372
▁noted	-9.72391
▁worldwide	-9.72425
▁Empire	-9.72455
▁goes	-9.72455
▁Company	-9.72496
▁Consider	-9.72501
▁Road	-9.72543
iya	-9.72551
▁honor	-9.72581
▁border	-9.72584
ud	-9.72586
▁newspaper	-9.72646
▁sacrifice	-9.72687
▁Bo	-9.72724
▁charge	-9.72755
▁income	-9.72781
▁progress	-9.72891
▁port	-9.72928
▁global	-9.72984
▁2018	-9.73111
wa	-9.7313
▁Con	-9.73145
▁focus	-9.73163
▁running	-9.73176
▁Abraham	-9.73206
▁secret	-9.73319
▁pages	-9.73342
▁divided	-9.73407
▁3.	-9.73445
▁gas	-9.7349
▁Water	-9.73565
▁learning	-9.7357
▁Sam	-9.73615
▁price	-9.73706
▁companies	-9.73706
▁hundred	-9.73709
▁placed	-9.73712
▁positive	-9.7379
▁specific	-9.73833
bi	-9.73934
▁Only	-9.74065
▁About	-9.74094
▁associated	-9.74095
▁Syria	-9.74175
▁author	-9.74179
▁structure	-9.74193
▁sector	-9.74238
▁Western	-9.74262
▁tax	-9.74295
▁Though	-9.74353
▁weeks	-9.7436
▁Among	-9.74384
▁Church	-9.74424
Luke	-9.74448
▁Japanese	-9.74478
▁loss	-9.74507
ut	-9.74554
▁referred	-9.74557
▁matches	-9.74569
▁generally	-9.74634
▁promise	-9.74642
▁officials	-9.74677
▁33	-9.74741
▁complex	-9.7475
▁expression	-9.74796
▁eventually	-9.74811
ang	-9.74845
▁bodies	-9.75016
▁check	-9.75023
▁board	-9.75027
▁Over	-9.75034
▁heavy	-9.75104
▁spoke	-9.75182
▁launched	-9.75281
▁award	-9.75314
▁join	-9.7537
▁Ni	-9.75438
▁football	-9.75464
▁location	-9.7549
▁Daniel	-9.75521
"?	-9.75531
bo	-9.75576
▁bar	-9.7558
▁pass	-9.7562
▁forms	-9.75625
▁paid	-9.75643
ck	-9.75683
▁document	-9.75741
▁witness	-9.7582
▁tournament	-9.7584
mi	-9.75853
▁basic	-9.75867
▁Public	-9.759
▁model	-9.75909
▁radio	-9.75933
▁seem	-9.75945
cha	-9.7596
▁fast	-9.76086
▁island	-9.76099
▁Buddhist	-9.76194
▁sorry	-9.76257
ner	-9.76274
▁resources	-9.76313
▁protection	-9.76324
▁constitute	-9.7635
▁journalist	-9.76424
ization	-9.7662
ance	-9.76636
▁Soviet	-9.76698
▁feeling	-9.76787
▁annual	-9.76816
▁plays	-9.76861
nagar	-9.769
▁names	-9.76901
▁youth	-9.76993
▁server	-9.7702
▁alive	-9.77092
▁hour	-9.77105
▁districts	-9.77119
▁sisters	-9.77225
▁Samuel	-9.7734
▁standard	-9.77426
▁Thank	-9.77487
▁hit	-9.77632
▁interests	-9.77644
▁till	-9.77658
▁certainly	-9.77708
▁directly	-9.77713
▁interested	-9.77822
▁previous	-9.77857
▁Health	-9.78126
▁en	-9.78198
▁eastern	-9.78238
.*	-9.78247
▁remains	-9.78331
▁Bazar	-9.7835
▁appropriate	-9.78435
▁completely	-9.78481
▁operation	-9.7861
▁t	-9.78642
▁clean	-9.7865
▁Chandra	-9.78811
▁Park	-9.78847
▁baptized	-9.78878
▁evening	-9.78911
▁%	-9.78914
▁pioneer	-9.7908
▁divine	-9.79095
▁Time	-9.79143
▁speaking	-9.7918
▁surface	-9.79239
▁produce	-9.7959
▁awarded	-9.79652
▁sun	-9.79708
▁actions	-9.79715
▁Sabha	-9.79727
▁attend	-9.79918
▁miles	-9.79921
▁Pak	-9.79984
▁Persian	-9.80009
▁task	-9.80032
▁province	-9.80109
▁Chowdhury	-9.80119
ph	-9.80192
▁moral	-9.8025
▁committee	-9.80259
▁seat	-9.80282
▁pray	-9.80283
▁Mar	-9.80383
▁economy	-9.80433
▁sheep	-9.80464
▁Se	-9.80503
▁dwelling	-9.80533
▁forced	-9.80684
▁Joseph	-9.80694
▁Mohammad	-9.80735
▁32	-9.80754
▁assembly	-9.80846
den	-9.80869
ov	-9.80909
▁clearly	-9.80927
▁goods	-9.80931
▁Egyptian	-9.81001
▁products	-9.81024
▁attended	-9.81042
▁concern	-9.81052
▁Love	-9.81191
▁box	-9.81321
▁despite	-9.8138
▁types	-9.81406
ina	-9.81463
▁loved	-9.81671
▁(@	-9.81959
▁Memorial	-9.82017
▁issued	-9.82057
▁arrived	-9.82062
▁gift	-9.8208
▁truly	-9.82108
▁prophet	-9.82117
▁explains	-9.82126
▁expressed	-9.82134
ran	-9.82215
▁permission	-9.82289
▁Despite	-9.82291
▁prepared	-9.82293
▁Take	-9.82393
▁via	-9.8242
▁standing	-9.82492
▁southern	-9.82566
lu	-9.82632
▁1980	-9.8264
▁George	-9.82783
▁studied	-9.82841
ol	-9.82882
▁powers	-9.82895
▁affected	-9.829
ier	-9.82969
▁Games	-9.82975
▁electricity	-9.82985
▁bit	-9.82992
▁images	-9.83023
▁entered	-9.83028
▁discovered	-9.83128
▁contains	-9.83249
▁safe	-9.83267
No	-9.83292
▁opinion	-9.83306
▁2,	-9.83307
▁features	-9.83353
▁block	-9.83654
▁crops	-9.83694
▁Earth	-9.83723
▁begin	-9.83765
▁inter	-9.83814
Do	-9.83939
▁color	-9.83961
▁risk	-9.83969
▁visited	-9.83976
▁convention	-9.8399
▁destroyed	-9.83997
▁wish	-9.83998
▁existence	-9.84107
▁2004	-9.84135
▁wonderful	-9.84207
Y	-9.84233
▁Spanish	-9.8433
▁ahead	-9.84394
▁instance	-9.84402
line	-9.84421
class	-9.84471
dy	-9.84476
▁Sea	-9.84484
▁establishment	-9.84557
ex	-9.84773
▁rise	-9.84774
▁slave	-9.84828
▁Air	-9.84907
▁except	-9.85026
ler	-9.85075
▁rice	-9.85094
gi	-9.85111
▁Research	-9.85331
of	-9.85369
▁enter	-9.85381
ities	-9.85406
▁Singh	-9.85499
▁square	-9.85554
▁trial	-9.85561
▁occasion	-9.85577
▁Demographics	-9.85592
▁growing	-9.85594
▁Iranian	-9.85671
▁calendar	-9.85686
▁object	-9.85711
ley	-9.85727
▁mostly	-9.85756
▁Robert	-9.85805
▁signed	-9.85821
ko	-9.85933
▁(3)	-9.86094
ik	-9.86136
▁protests	-9.86142
▁street	-9.8624
▁forever	-9.86286
▁collection	-9.86331
▁conflict	-9.86415
▁master	-9.86417
▁Ar	-9.86438
▁equal	-9.86621
for	-9.86623
▁vital	-9.86639
ten	-9.86682
▁Hebrews	-9.86698
▁Group	-9.86783
▁designed	-9.86823
▁seek	-9.86851
▁error	-9.8687
▁experienced	-9.86871
▁rivers	-9.86882
▁standards	-9.86895
▁administrative	-9.86926
▁prove	-9.86946
▁qualities	-9.86972
▁range	-9.86984
▁effective	-9.87023
▁chapter	-9.87052
▁association	-9.87101
▁killing	-9.87154
▁crime	-9.87156
by	-9.87202
▁performed	-9.87225
▁editor	-9.87242
like	-9.87254
▁choice	-9.8729
▁regularly	-9.8731
▁evil	-9.87327
▁houses	-9.87328
que	-9.8735
▁huge	-9.87359
▁performance	-9.87397
▁notice	-9.87399
▁Police	-9.8741
▁domestic	-9.875
▁defeated	-9.87553
▁proved	-9.87596
▁leaving	-9.87597
▁appear	-9.87737
op	-9.87744
▁crowd	-9.87763
▁exist	-9.87767
▁explained	-9.87871
▁Nepal	-9.87887
-18	-9.879
▁mid	-9.87907
▁thoughts	-9.87945
▁sleep	-9.87947
If	-9.87971
▁table	-9.88109
▁copy	-9.88115
▁nine	-9.88208
▁systems	-9.88248
▁soil	-9.88273
▁greatest	-9.88477
▁billion	-9.88491
▁lands	-9.88528
▁composed	-9.8863
▁Mughal	-9.88742
▁theory	-9.88775
▁photo	-9.88813
▁Red	-9.88984
▁holding	-9.89046
▁forest	-9.89163
ite	-9.89272
▁Canno	-9.89309
▁righteous	-9.89438
Matt	-9.8947
▁Genesis	-9.89506
▁Am	-9.89538
▁division	-9.89702
▁Kumar	-9.89719
▁Creator	-9.89841
▁request	-9.89842
▁design	-9.89853
▁mail	-9.89873
▁agreement	-9.9004
▁Eastern	-9.90099
▁con	-9.90111
▁praise	-9.90146
▁70	-9.90232
▁X	-9.90298
▁examples	-9.903
▁organisation	-9.90528
▁Awami	-9.90546
ists	-9.90561
▁poet	-9.90563
▁Corporation	-9.90583
▁communities	-9.90583
▁Li	-9.90676
▁appears	-9.90695
▁historical	-9.90911
section	-9.90933
▁Hat	-9.90938
▁comfort	-9.9098
▁posted	-9.91072
▁steps	-9.91113
▁Bi	-9.91142
▁tradition	-9.91226
du	-9.91246
▁prevent	-9.91253
ber	-9.91269
▁measures	-9.91278
▁actress	-9.91328
▁Secretary	-9.91395
▁firm	-9.91397
▁fell	-9.91422
▁exchange	-9.91441
ey	-9.9152
▁okay	-9.91532
▁Rights	-9.91532
▁articles	-9.91551
▁race	-9.916
▁Sylhet	-9.91639
tra	-9.91722
▁bear	-9.9179
ani	-9.91885
▁5.	-9.91948
▁knows	-9.91988
▁expected	-9.92105
▁Every	-9.92187
▁decisions	-9.92188
▁animal	-9.92258
▁Still	-9.92291
ship	-9.92318
▁Instead	-9.9232
▁chance	-9.92329
▁Abu	-9.92346
▁lose	-9.92447
▁politician	-9.92473
▁1972	-9.92529
▁ex	-9.92721
▁Lanka	-9.92749
▁buy	-9.92815
▁Watch	-9.92821
▁hearts	-9.92865
▁shot	-9.92867
▁factory	-9.92887
▁Canada	-9.92909
▁2006	-9.92977
▁publication	-9.93019
▁Sultan	-9.93036
▁regard	-9.93059
▁behalf	-9.93085
▁Whether	-9.93103
▁Korea	-9.93181
▁assigned	-9.93242
▁Middle	-9.93254
ology	-9.93284
po	-9.93357
hu	-9.93364
▁calls	-9.93367
▁files	-9.93391
▁base	-9.93481
▁calling	-9.93515
30	-9.93564
hi	-9.93608
▁camp	-9.93675
▁purposes	-9.93718
▁confidence	-9.93728
▁90	-9.93744
▁UN	-9.93865
▁Ho	-9.93893
▁ideas	-9.93957
▁Hebrew	-9.94024
▁presented	-9.94071
▁Through	-9.94081
▁ill	-9.9413
▁asking	-9.94166
war	-9.94377
▁connection	-9.94407
▁advice	-9.94433
▁length	-9.94491
▁Tim	-9.94515
▁generation	-9.9452
ram	-9.94536
min	-9.94586
▁meant	-9.94589
▁whatever	-9.94592
▁forget	-9.94605
▁sit	-9.94756
▁regime	-9.94953
▁destruction	-9.95054
▁News	-9.9511
▁Vi	-9.95151
▁dark	-9.95175
▁normal	-9.95199
▁Ha	-9.95228
▁Ra	-9.95279
▁millions	-9.95293
▁2001,	-9.95316
work	-9.95373
Read	-9.95394
▁aid	-9.95458
▁explain	-9.9549
▁mobile	-9.95576
▁unique	-9.95637
▁discuss	-9.95645
▁activists	-9.95668
▁tea	-9.95716
▁represented	-9.95719
▁2001	-9.95729
if	-9.95778
▁drama	-9.959
rd	-9.95909
▁secretary	-9.95911
▁spiritually	-9.95952
▁judge	-9.95964
▁approach	-9.96011
▁method	-9.9603
▁providing	-9.96046
▁acting	-9.96073
▁35	-9.96121
▁baby	-9.96155
▁audience	-9.96156
▁ship	-9.96159
▁victory	-9.96208
▁covered	-9.9626
ee	-9.96276
▁Ne	-9.96341
▁feature	-9.96374
▁dance	-9.96389
▁hair	-9.96392
25	-9.96509
▁Arabic	-9.96517
▁session	-9.96577
▁Second	-9.96581
▁moving	-9.96583
▁practical	-9.9659
▁:	-9.96659
▁2007	-9.96734
10	-9.96741
40	-9.96763
▁Authority	-9.96843
ise	-9.9685
▁floor	-9.96867
▁Roy	-9.9691
▁Le	-9.96912
▁1960	-9.96917
▁band	-9.96927
▁seemed	-9.96997
▁organized	-9.97052
▁committed	-9.97105
▁functions	-9.97113
▁Liberation	-9.97156
▁helping	-9.97163
▁path	-9.97238
▁highly	-9.97249
dar	-9.97387
les	-9.97512
▁widely	-9.97548
▁challenge	-9.97563
▁secondary	-9.97635
▁Rather	-9.977
▁Medical	-9.97744
▁waiting	-9.97746
▁actor	-9.97777
▁1.	-9.97787
▁Land	-9.97811
▁continues	-9.97817
▁airport	-9.97832
▁occurred	-9.9785
▁mouth	-9.97872
▁numerous	-9.98008
ard	-9.98026
ong	-9.98064
▁claim	-9.98071
▁Both	-9.98097
ho	-9.98115
▁prepare	-9.98182
▁Lu	-9.98194
▁survey	-9.98245
▁era	-9.98293
▁Ba	-9.98421
▁institution	-9.98423
▁di	-9.98501
▁ran	-9.98562
her	-9.98585
▁express	-9.98626
▁spend	-9.98741
▁cricketer	-9.98747
▁fruit	-9.98763
▁planning	-9.98766
▁Ja	-9.98823
▁Therefore	-9.98876
▁Its	-9.98906
▁Bureau	-9.98922
▁strike	-9.98978
▁Study	-9.99084
▁note	-9.99126
▁easily	-9.99192
▁ended	-9.99263
▁revealed	-9.9931
▁struggle	-9.99444
yan	-9.99459
▁credit	-9.9947
▁Besides	-9.99481
▁Pro	-9.99525
para	-9.99541
▁Home	-9.99646
▁Myanmar	-9.99688
▁prophecy	-9.99735
▁variety	-9.99735
▁Pa	-9.99743
▁Arabia	-9.99827
▁Center	-9.99917
▁channel	-10.0002
▁projects	-10.0006
▁prayers	-10.0009
ron	-10.0009
▁Hossain	-10.0017
▁promised	-10.0019
▁invited	-10.002
▁Ki	-10.0023
▁links	-10.0023
▁Use	-10.0024
▁games	-10.0025
▁William	-10.0027
▁exercise	-10.0027
▁cold	-10.0056
▁unit	-10.0062
▁sort	-10.0062
▁wood	-10.007
▁Sha	-10.007
▁elder	-10.0075
▁lies	-10.0085
shi	-10.0101
▁add	-10.0101
▁Da	-10.0103
▁worth	-10.0109
▁claimed	-10.0119
▁Catholic	-10.0119
▁dedicated	-10.0125
▁Information	-10.0129
▁lines	-10.0146
▁travel	-10.0149
▁privilege	-10.015
▁details	-10.0161
▁additional	-10.0166
▁software	-10.0172
▁1950	-10.0175
▁doctor	-10.0177
chi	-10.0177
▁stopped	-10.0178
▁encouraged	-10.018
▁conducted	-10.0183
Proverbs	-10.0186
12	-10.0187
tu	-10.0191
▁assistance	-10.0194
▁carrying	-10.0197
▁Make	-10.0198
▁1990	-10.0201
▁situated	-10.0205
▁correct	-10.0208
▁encourage	-10.0228
▁Local	-10.0233
▁hot	-10.0237
▁setting	-10.0241
▁organizations	-10.0243
▁grew	-10.0244
▁acts	-10.0245
▁constitution	-10.0248
si	-10.0251
▁buildings	-10.0255
▁fighters	-10.0257
▁Select	-10.0259
▁becomes	-10.0267
▁sharing	-10.0268
19	-10.0277
▁keeping	-10.0278
▁Following	-10.0287
00	-10.0295
▁Hi	-10.0299
▁trees	-10.03
▁Moreover	-10.03
▁observed	-10.0304
off	-10.0305
▁values	-10.0308
▁ha	-10.0308
▁victims	-10.0311
50	-10.0316
▁expect	-10.0319
▁rent	-10.0321
▁activist	-10.0324
▁distance	-10.0329
▁remove	-10.0331
▁impact	-10.0335
▁7.	-10.0335
ised	-10.0337
▁respond	-10.0342
▁Book	-10.0343
▁poverty	-10.0351
▁YouTube	-10.0356
▁staff	-10.0358
▁stood	-10.0362
▁answers	-10.0364
▁conversation	-10.0365
▁Technology	-10.0368
▁imitate	-10.0373
▁route	-10.0378
▁scored	-10.0381
lan	-10.0382
▁plants	-10.0384
▁movie	-10.0387
▁commission	-10.039
▁goals	-10.0399
▁la	-10.0402
▁Governor	-10.0404
▁Mother	-10.0415
▁publishers	-10.0418
▁Line	-10.0426
▁prominent	-10.0427
▁Chairman	-10.0427
▁Also	-10.0429
▁Devil	-10.0435
▁sold	-10.0438
This	-10.0438
▁reality	-10.0442
▁cross	-10.0445
▁attacks	-10.0445
▁star	-10.0456
▁everlasting	-10.0459
▁Keep	-10.0461
▁judgment	-10.047
▁web	-10.0471
▁willing	-10.0475
▁increasing	-10.0479
▁Cultural	-10.0482
▁sacred	-10.0483
▁Mexico	-10.0483
▁numbers	-10.0486
▁indeed	-10.0488
▁Give	-10.0494
▁Raj	-10.0494
ble	-10.0494
▁improve	-10.0501
▁Statistics	-10.0505
ative	-10.0508
▁fair	-10.051
▁loyal	-10.0512
han	-10.0521
▁reign	-10.0543
▁obtained	-10.0544
▁Singapore	-10.0544
▁green	-10.0559
▁streets	-10.0571
▁Sen	-10.0571
▁establish	-10.0582
▁murder	-10.0583
▁hall	-10.0587
▁teams	-10.0587
▁department	-10.0588
▁corruption	-10.0594
gu	-10.0595
▁capacity	-10.0598
▁refused	-10.0603
▁god	-10.0607
▁citizen	-10.0609
▁agree	-10.0612
▁parent	-10.0613
▁2000	-10.0616
▁headquarters	-10.062
Genesis	-10.0625
▁internet	-10.0632
tan	-10.0638
▁initiative	-10.0639
well	-10.064
▁minute	-10.0642
▁Ben	-10.0642
▁resurrection	-10.0644
▁Na	-10.0644
▁industrial	-10.0646
▁appreciate	-10.0647
▁attempt	-10.0649
▁anger	-10.0651
▁competition	-10.0658
▁Lo	-10.0666
▁Retriev	-10.0667
My	-10.0673
▁dream	-10.0674
▁Perhaps	-10.0679
▁faced	-10.068
▁appreciation	-10.0684
▁crisis	-10.069
▁nominated	-10.0698
uk	-10.0704
▁flag	-10.0708
▁disc	-10.071
*	-10.0721
▁arrest	-10.0721
▁bed	-10.0732
▁villages	-10.0741
▁favor	-10.0743
▁Royal	-10.0744
▁Others	-10.0751
▁Males	-10.0753
▁player	-10.0756
▁foot	-10.0759
▁traffic	-10.0773
▁FIFA	-10.0778
we	-10.0788
▁Kong	-10.0797
▁card	-10.0804
▁cell	-10.0804
▁fourth	-10.081
▁Help	-10.0816
▁Hong	-10.0822
▁difference	-10.0825
▁afraid	-10.0826
▁incident	-10.0834
▁sites	-10.0834
▁estimated	-10.0835
▁brain	-10.0836
▁realize	-10.0838
pi	-10.0842
▁Census	-10.0849
▁lie	-10.085
▁coverage	-10.0857
▁Sub	-10.0858
▁relief	-10.0861
▁spoken	-10.0863
▁recognition	-10.0867
God	-10.0868
▁recognized	-10.0868
▁sports	-10.087
gan	-10.0874
▁perform	-10.0875
▁materials	-10.0877
▁Scriptural	-10.0879
▁professor	-10.088
▁Peace	-10.0881
▁Right	-10.0881
▁sick	-10.0886
ING	-10.0888
mer	-10.0893
▁map	-10.0897
▁appearance	-10.0898
▁extended	-10.0904
▁Three	-10.0904
▁identified	-10.0906
▁Holy	-10.091
▁Children	-10.091
▁ensure	-10.0919
▁figure	-10.0921
▁saved	-10.0924
▁drinking	-10.0927
▁memory	-10.0927
▁6.	-10.0929
▁Rajshahi	-10.094
▁removed	-10.0942
▁Spain	-10.0964
▁host	-10.0967
ow	-10.0968
▁1970	-10.0969
▁translation	-10.0972
▁chosen	-10.0973
▁drink	-10.0984
▁promises	-10.0984
▁adopted	-10.0994
▁liberation	-10.1
14	-10.1002
▁critical	-10.1007
▁wonder	-10.1009
▁Port	-10.1011
▁rain	-10.1016
▁potential	-10.1032
▁tells	-10.1032
▁proposed	-10.1038
▁busy	-10.1042
▁vote	-10.105
▁ban	-10.1058
▁apostles	-10.1058
▁ruling	-10.106
▁empty	-10.106
▁TO	-10.1063
▁Brother	-10.1064
▁academic	-10.1066
▁raise	-10.1069
▁Airport	-10.1078
▁studying	-10.108
▁rock	-10.1091
▁revenue	-10.1102
▁entitled	-10.1102
▁Railway	-10.1107
io	-10.1115
pt	-10.1116
▁Pra	-10.1117
▁Pet	-10.1117
▁Once	-10.1119
way	-10.1122
▁flesh	-10.113
century	-10.1132
▁starting	-10.1133
tar	-10.1134
▁Indonesia	-10.1139
▁closed	-10.114
▁blessing	-10.1141
▁Civil	-10.1163
▁practices	-10.1164
▁wind	-10.1165
▁benefits	-10.1166
▁neither	-10.1169
▁Source	-10.1182
▁videos	-10.1185
▁exactly	-10.1187
▁behavior	-10.1188
izing	-10.1195
▁3,	-10.1196
▁Paris	-10.12
▁marked	-10.1206
▁Centre	-10.1207
▁silver	-10.1213
▁guy	-10.1215
▁reflect	-10.1215
▁conscience	-10.1219
▁Family	-10.1219
ek	-10.1222
▁origin	-10.1222
▁Was	-10.1223
▁Indeed	-10.1225
▁filled	-10.1225
▁leadership	-10.1226
Z	-10.1233
▁36	-10.1236
▁photos	-10.1244
▁blessings	-10.1245
▁programme	-10.1245
▁2005	-10.1247
▁integrity	-10.1249
▁Up	-10.1256
▁dangerous	-10.1256
▁milk	-10.1257
▁piece	-10.126
▁aware	-10.126
▁plans	-10.1262
]:	-10.1267
▁arms	-10.1267
▁industries	-10.1268
ura	-10.1271
▁identity	-10.1274
▁journey	-10.1274
law	-10.1276
▁Last	-10.1279
▁helps	-10.1283
▁younger	-10.1285
▁damage	-10.1288
▁cast	-10.1291
▁executive	-10.1293
ors	-10.1296
▁originally	-10.1296
▁mere	-10.13
▁Ahmad	-10.1301
▁approval	-10.1305
▁welfare	-10.1305
▁Social	-10.1307
▁recognize	-10.131
▁isn	-10.131
▁45	-10.1311
▁examination	-10.1315
▁courage	-10.1318
▁Grand	-10.1324
▁Hence	-10.1329
▁digital	-10.1329
▁decades	-10.1332
tro	-10.1336
▁abuse	-10.1336
▁80	-10.1339
▁Ko	-10.1343
▁nuclear	-10.1343
▁assignment	-10.1346
▁Free	-10.1358
▁ethnic	-10.1367
▁squad	-10.1367
▁glory	-10.1368
▁organisations	-10.1369
▁Raja	-10.1369
▁suffer	-10.1373
▁Rome	-10.1374
▁Museum	-10.138
bari	-10.1381
▁2011.	-10.1382
▁Area	-10.1383
▁affairs	-10.1389
▁accused	-10.1389
▁Jeremiah	-10.1392
▁preach	-10.1398
▁safety	-10.14
13	-10.1403
▁seeing	-10.1403
▁bill	-10.1405
▁Week	-10.1423
▁uses	-10.1426
▁mental	-10.143
▁affect	-10.1433
▁precious	-10.1438
▁8.	-10.1441
▁scientific	-10.1443
▁Young	-10.1455
▁15,	-10.1461
▁congregations	-10.1469
▁chairman	-10.147
▁Zealand	-10.1475
▁Street	-10.1475
▁theatre	-10.1476
my	-10.1484
▁Miss	-10.149
▁38	-10.1502
▁causes	-10.1504
▁Ex	-10.1507
▁Latin	-10.1508
How	-10.1509
▁Mal	-10.1509
▁Any	-10.1511
▁occur	-10.1524
▁extent	-10.1526
▁Pe	-10.1528
▁bridge	-10.1529
▁Ro	-10.1533
▁lay	-10.1545
mar	-10.1547
▁subjects	-10.1549
80	-10.1551
▁joint	-10.1555
▁newly	-10.156
▁records	-10.156
che	-10.1561
▁Fa	-10.1563
▁Per	-10.1563
▁2011,	-10.1563
▁walls	-10.1572
▁employment	-10.1572
▁novel	-10.1577
red	-10.1577
▁fighting	-10.1579
▁Black	-10.1579
▁promote	-10.158
18	-10.1581
▁finished	-10.1583
▁Twenty	-10.1589
▁Tu	-10.1592
▁festival	-10.1597
▁summer	-10.1599
▁Dad	-10.1601
▁publications	-10.1606
▁mode	-10.1615
Jehovah	-10.1615
▁net	-10.1619
▁distribution	-10.1621
▁revolution	-10.1622
▁destroy	-10.1623
▁Old	-10.1624
▁suffered	-10.1628
▁Mi	-10.1629
▁Championship	-10.163
▁severe	-10.1637
▁mark	-10.1642
▁Times	-10.1649
▁Engineering	-10.1651
▁earned	-10.1651
▁opportunities	-10.1653
▁Syrian	-10.1659
▁34	-10.1662
▁4,	-10.1667
▁Total	-10.1669
▁Assam	-10.1669
▁Justice	-10.1674
▁relative	-10.1675
▁multi	-10.1676
▁Supreme	-10.1679
11	-10.1684
▁True	-10.1688
house	-10.1696
▁guard	-10.1698
▁regions	-10.1704
▁hundreds	-10.1705
▁arrangement	-10.1709
▁existing	-10.1711
▁experiences	-10.1713
▁mill	-10.1717
ff	-10.1724
gar	-10.1724
ator	-10.1727
▁initial	-10.1728
▁criminal	-10.1736
▁servant	-10.1736
▁Pradesh	-10.1738
▁Car	-10.1742
▁track	-10.1743
▁developing	-10.1745
▁programs	-10.1746
▁enjoyed	-10.1746
▁Art	-10.1748
▁notes	-10.1749
ver	-10.1749
▁deeply	-10.1751
▁Australian	-10.1751
ung	-10.1753
▁notable	-10.1761
known	-10.1761
▁treat	-10.1763
▁provision	-10.1771
▁scholars	-10.1776
▁applied	-10.1777
▁harm	-10.1778
▁walking	-10.1784
▁200	-10.1784
▁drawn	-10.1785
▁garden	-10.1789
▁personality	-10.1791
▁Men	-10.181
nath	-10.1811
▁trouble	-10.1812
▁Thailand	-10.1816
▁ruler	-10.1819
▁principal	-10.182
▁principle	-10.1821
▁function	-10.1822
▁engaged	-10.1825
▁negative	-10.1826
▁literary	-10.1829
▁armed	-10.1845
▁w	-10.1848
▁Hospital	-10.1849
▁climate	-10.1849
▁quick	-10.1854
▁Star	-10.1856
▁operations	-10.1861
▁Library	-10.1862
ari	-10.1865
▁Ya	-10.1865
▁parliament	-10.1867
▁singer	-10.1868
▁failure	-10.1869
%	-10.1873
▁Administration	-10.1875
▁wild	-10.1877
▁semi	-10.1878
▁larger	-10.1881
▁duties	-10.1882
▁wealth	-10.1888
▁harmony	-10.1888
▁Kings	-10.1905
▁BC	-10.1911
▁measure	-10.1927
▁translated	-10.1932
all	-10.1936
▁Awake	-10.1941
▁1971	-10.1941
▁fields	-10.1941
75	-10.1942
▁Foreign	-10.1948
▁contain	-10.1948
▁Po	-10.1949
▁review	-10.1953
▁Festival	-10.1954
▁laid	-10.1957
az	-10.1965
▁pictures	-10.1966
▁documents	-10.1967
▁Major	-10.1968
▁Work	-10.1971
▁wasn	-10.1972
▁Constitution	-10.1973
▁enemies	-10.1974
▁senior	-10.1974
▁Olympic	-10.1976
▁forth	-10.1979
▁wear	-10.1983
▁views	-10.1985
▁Stop	-10.1985
▁Brazil	-10.1987
▁Foundation	-10.1988
▁sweet	-10.1988
our	-10.1991
mon	-10.1992
▁homes	-10.1995
▁replaced	-10.1996
▁realized	-10.2
▁sight	-10.2006
▁specified	-10.2007
▁Mir	-10.2008
▁hearing	-10.201
▁En	-10.2011
▁philosophy	-10.2014
▁methods	-10.2016
▁slow	-10.2018
▁Britain	-10.2021
▁Sun	-10.2027
▁library	-10.2027
15	-10.2031
ical	-10.2038
▁remaining	-10.204
ita	-10.2041
q	-10.2047
▁offering	-10.2048
▁compared	-10.2048
▁Punjab	-10.2052
▁hurt	-10.2054
▁regional	-10.206
ullah	-10.2061
")	-10.2063
▁otherwise	-10.2064
▁overseer	-10.2065
▁effects	-10.2069
-17	-10.207
▁transfer	-10.2075
▁enemy	-10.2081
iv	-10.2085
▁obtain	-10.2089
ster	-10.2089
▁discipline	-10.2094
°	-10.2097
▁contrast	-10.2102
tor	-10.2103
ac	-10.2107
▁sides	-10.2107
wan	-10.211
▁danger	-10.2112
▁Force	-10.2117
▁council	-10.212
ze	-10.212
▁2012,	-10.212
▁Province	-10.2122
▁relatives	-10.2135
▁speed	-10.2144
ning	-10.2149
▁Char	-10.2151
▁rose	-10.2153
▁medicine	-10.2154
▁agreed	-10.2158
▁requires	-10.2161
▁mine	-10.2162
▁native	-10.2162
▁indigenous	-10.2162
▁kindness	-10.2167
▁unless	-10.2173
▁Prayer	-10.2173
▁mountain	-10.2176
ig	-10.2179
▁registered	-10.2179
05	-10.2182
▁Ray	-10.2183
▁foundation	-10.2183
▁Special	-10.2184
▁double	-10.2189
▁8,	-10.2195
▁Project	-10.2196
▁10.	-10.22
▁receiving	-10.221
▁levels	-10.221
▁Te	-10.2218
▁contained	-10.2223
.'"	-10.2227
▁vision	-10.2234
▁impossible	-10.2237
▁gun	-10.2239
▁Noah	-10.2248
▁background	-10.2248
▁Har	-10.2249
bu	-10.2256
▁Out	-10.2258
▁reference	-10.2259
▁appeal	-10.2263
For	-10.2267
07	-10.2269
▁symbol	-10.2273
▁duty	-10.2279
▁protesters	-10.2283
▁aspects	-10.2286
▁gods	-10.229
▁accurate	-10.2291
▁height	-10.2293
▁strengthen	-10.2296
▁folk	-10.2296
▁Di	-10.2297
▁closer	-10.2299
▁Du	-10.2299
▁warm	-10.23
▁imagine	-10.2305
▁context	-10.2306
▁telling	-10.231
▁Prize	-10.2313
▁album	-10.2314
▁Master	-10.2315
▁prime	-10.2317
▁elements	-10.2321
▁determine	-10.2321
▁connected	-10.2322
▁refer	-10.2323
▁Chi	-10.2324
abad	-10.2326
▁*	-10.2334
▁mate	-10.2335
▁weight	-10.2338
▁touch	-10.2354
▁contract	-10.236
▁worker	-10.2362
Ps	-10.237
▁Without	-10.2373
▁boys	-10.2377
▁skin	-10.2379
▁gained	-10.238
▁broke	-10.2382
▁describes	-10.2382
▁store	-10.2394
▁Malaysia	-10.2395
▁Nawab	-10.2397
▁drive	-10.24
▁household	-10.2402
▁believers	-10.2404
▁engineering	-10.2407
▁Bay	-10.2409
▁Far	-10.2424
▁View	-10.2427
ries	-10.243
▁warning	-10.243
▁Iraq	-10.2432
▁dry	-10.2434
▁granted	-10.2443
▁stars	-10.2443
▁dear	-10.2445
When	-10.2447
▁labor	-10.2453
▁banks	-10.2453
▁residents	-10.2459
▁platform	-10.2462
▁Bethel	-10.2465
▁twenty	-10.2466
▁jail	-10.2467
▁pure	-10.2471
▁refers	-10.2471
▁lesson	-10.2471
▁stations	-10.2472
▁hell	-10.2474
▁unable	-10.2484
▁offence	-10.2488
▁attacked	-10.2489
▁essential	-10.2492
Let	-10.2503
▁tour	-10.2506
Romans	-10.2514
end	-10.2514
▁Order	-10.2515
▁Eve	-10.2521
▁Sunday	-10.2522
▁Z	-10.2524
ham	-10.2527
▁beliefs	-10.2528
▁fill	-10.2536
▁flow	-10.2539
▁Pre	-10.254
▁boat	-10.2541
▁1947	-10.2541
▁exists	-10.2544
▁55	-10.2545
17	-10.2545
▁Jordan	-10.2548
▁Syed	-10.2549
▁cinema	-10.2549
▁traveling	-10.2551
▁roles	-10.2553
▁advantage	-10.2554
▁approved	-10.2555
▁vast	-10.256
▁respectively	-10.2561
▁Hill	-10.2562
▁Ga	-10.2564
Isaiah	-10.2566
▁Soon	-10.2566
▁candidate	-10.2576
▁scene	-10.2576
▁posts	-10.2578
▁prior	-10.2582
▁letters	-10.2582
▁unity	-10.2582
ip	-10.2584
▁blue	-10.2585
▁Das	-10.2586
▁link	-10.2588
▁Witness	-10.2592
▁42	-10.2593
See	-10.2595
▁Ke	-10.2603
▁appointment	-10.2612
▁machine	-10.2613
▁violent	-10.2619
▁1997	-10.2624
ng	-10.2626
lin	-10.2627
▁couldn	-10.2629
▁employees	-10.2638
▁Prince	-10.2651
▁bus	-10.2651
▁worry	-10.2653
▁5,	-10.2656
▁IN	-10.2657
▁successfully	-10.2658
▁interview	-10.2659
06	-10.2659
kh	-10.2659
▁Say	-10.2659
▁abroad	-10.2662
▁belief	-10.2663
▁ICC	-10.2672
▁escape	-10.2677
▁weak	-10.2681
28	-10.2686
▁discussed	-10.2689
▁royal	-10.2691
▁Afghan	-10.2695
▁founder	-10.2697
▁password	-10.2698
▁9.	-10.2703
▁Michael	-10.2706
90	-10.2707
ped	-10.2709
▁leaves	-10.2713
▁Golden	-10.2713
▁Media	-10.2716
▁Remember	-10.2722
▁managed	-10.2724
▁k	-10.2726
▁punishment	-10.2727
▁37	-10.2731
▁Matt	-10.2731
▁Charles	-10.2734
▁Kar	-10.2741
▁broken	-10.2755
▁Hindi	-10.2758
▁seeking	-10.2762
▁Power	-10.2765
istic	-10.2766
mp	-10.2767
▁Sanskrit	-10.2771
▁illegal	-10.2775
▁items	-10.2775
▁Par	-10.2776
▁Google	-10.2778
▁priest	-10.2781
▁ransom	-10.2784
▁trials	-10.2792
▁sitting	-10.28
60	-10.2802
▁classes	-10.2804
ions	-10.2805
▁knowing	-10.2808
▁challenges	-10.2818
▁Olympics	-10.2819
ping	-10.2821
▁mis	-10.2821
▁Has	-10.2825
▁stock	-10.283
▁looks	-10.2831
▁formation	-10.2838
▁brings	-10.2838
▁beauty	-10.2842
22	-10.2843
▁scale	-10.2847
▁Noted	-10.2853
▁closely	-10.2855
▁threat	-10.2859
▁orders	-10.2859
▁constructed	-10.2863
▁prescribed	-10.2865
▁Pat	-10.2868
au	-10.2871
nt	-10.2873
ap	-10.2877
▁ka	-10.2878
04	-10.2879
▁da	-10.2897
▁influenced	-10.2897
▁nice	-10.2899
▁highway	-10.2902
▁("	-10.2904
▁Hu	-10.2904
mal	-10.2904
▁sat	-10.2906
▁adult	-10.2907
ot	-10.291
▁rulers	-10.2914
▁creating	-10.2915
▁2013,	-10.2919
▁teachings	-10.292
▁39	-10.2921
▁universe	-10.2922
▁upper	-10.2923
▁ruled	-10.2927
▁export	-10.2927
ible	-10.2927
▁blind	-10.293
▁Gaza	-10.2933
▁secular	-10.2935
▁guidance	-10.2937
ring	-10.2937
▁namely	-10.2941
▁treated	-10.2944
▁factors	-10.2944
▁caught	-10.2944
▁righteousness	-10.2949
▁governor	-10.2951
ini	-10.2953
▁Similarly	-10.2954
▁grown	-10.2955
▁permanent	-10.2964
▁Really	-10.297
▁primarily	-10.2974
Be	-10.2974
26	-10.2978
▁heavens	-10.2984
▁consideration	-10.2987
▁fixed	-10.2992
▁wickets	-10.2993
▁Pan	-10.2995
To	-10.3006
08	-10.3006
▁bin	-10.3009
▁zone	-10.3013
▁labour	-10.3016
▁journalists	-10.3016
▁thank	-10.3017
▁shut	-10.3022
▁examine	-10.3026
▁Ta	-10.3035
▁interesting	-10.3036
king	-10.304
▁Security	-10.3047
▁sins	-10.3047
▁previously	-10.3049
▁technical	-10.3053
▁Finally	-10.3059
▁latter	-10.3063
fi	-10.3066
▁mention	-10.3067
▁Post	-10.3068
▁Music	-10.3069
▁Mount	-10.307
Ma	-10.307
▁description	-10.3072
fe	-10.3073
▁handle	-10.308
-16	-10.3081
▁godly	-10.3089
ku	-10.3098
▁clothes	-10.3099
▁valuable	-10.3099
▁bringing	-10.3099
▁storm	-10.3101
▁import	-10.3101
▁winter	-10.3102
▁demonstrate	-10.3103
▁ball	-10.3108
▁resulted	-10.3108
▁Movement	-10.3108
ns	-10.3108
▁nearby	-10.3109
▁represent	-10.3114
▁Tell	-10.3114
▁survive	-10.3115
▁sky	-10.3116
09	-10.3123
▁writers	-10.3123
▁approximately	-10.3124
▁seats	-10.3124
▁Language	-10.3125
▁humble	-10.3129
▁f	-10.314
▁Tower	-10.3145
16	-10.315
▁mission	-10.3151
▁chose	-10.3155
gram	-10.3155
▁Press	-10.3157
▁Y	-10.3159
▁medium	-10.316
▁disaster	-10.3162
▁comment	-10.3163
▁park	-10.3166
▁Jacob	-10.3167
▁baptism	-10.3174
jan	-10.3174
There	-10.3183
▁regulations	-10.3185
▁artist	-10.3186
▁horse	-10.319
▁2002	-10.319
▁Pacific	-10.3191
▁drug	-10.3199
▁carefully	-10.3199
▁missionary	-10.3213
ft	-10.3218
▁format	-10.3221
▁magazines	-10.3225
responsibilities	-10.3227
▁suggested	-10.3235
▁ca	-10.3241
rat	-10.3245
▁twice	-10.3249
▁Temple	-10.3249
▁Actress	-10.3251
▁earthly	-10.3254
▁reform	-10.326
▁captain	-10.3261
▁fruits	-10.3266
▁commonly	-10.3269
▁gradually	-10.3274
01	-10.3275
ile	-10.3275
▁players	-10.3278
▁figures	-10.3279
▁2019	-10.3281
▁Office	-10.3282
▁circuit	-10.3288
▁obey	-10.329
▁brief	-10.3301
ika	-10.3307
▁tomb	-10.3314
▁missing	-10.3315
ny	-10.3317
▁concept	-10.3325
ward	-10.3331
▁waste	-10.3332
▁counter	-10.3334
▁unknown	-10.3336
▁Krishna	-10.3339
▁Nevertheless	-10.334
tha	-10.3342
▁2014,	-10.3346
▁balance	-10.335
▁Death	-10.3351
▁solution	-10.3362
▁Korean	-10.3367
▁Density	-10.3371
▁1930	-10.3376
▁Captain	-10.338
▁happens	-10.3384
ium	-10.3387
▁41	-10.3391
Re	-10.3393
▁Ri	-10.3394
▁understood	-10.3394
esh	-10.3397
▁ma	-10.34
▁planned	-10.3402
▁Saul	-10.3402
▁wedding	-10.3406
▁Bad	-10.3408
▁iron	-10.3417
▁pleasure	-10.3417
66	-10.3423
▁Sar	-10.3424
ash	-10.3425
▁Ephesians	-10.343
▁root	-10.344
▁2003	-10.3441
▁captured	-10.3442
▁super	-10.3448
▁consists	-10.3448
▁investigation	-10.3449
wi	-10.3449
▁offers	-10.346
▁centres	-10.3461
▁scholar	-10.3461
33	-10.3463
▁Female	-10.3463
▁sad	-10.3477
▁participate	-10.348
▁Jo	-10.3484
▁extinct	-10.3485
▁gathered	-10.3485
▁worse	-10.3486
▁Revolution	-10.3486
▁guys	-10.3494
▁upazilas	-10.3496
▁trained	-10.3501
▁herself	-10.3505
▁guide	-10.3514
isation	-10.3514
▁Vice	-10.3514
▁entertainment	-10.3518
▁arranged	-10.3519
▁units	-10.3522
jo	-10.3524
▁passing	-10.3529
▁diseases	-10.353
▁supposed	-10.3537
▁foretold	-10.3541
▁Ten	-10.3541
▁initially	-10.3544
▁extra	-10.3551
▁straight	-10.3551
▁connect	-10.3554
24	-10.3564
▁fresh	-10.3564
▁Personal	-10.3565
▁patient	-10.3566
▁Students	-10.3572
▁Agriculture	-10.3572
▁Shi	-10.3574
▁limit	-10.358
▁flood	-10.358
▁belong	-10.3582
▁fit	-10.3592
gra	-10.3595
▁Bihar	-10.3598
▁manager	-10.3599
▁winning	-10.3599
pan	-10.3603
▁Italy	-10.3604
▁certificate	-10.3607
▁frequently	-10.3608
▁reaction	-10.3608
zi	-10.3609
▁decide	-10.3609
▁putting	-10.3611
70	-10.3616
▁48	-10.3619
▁Che	-10.3619
not	-10.3619
▁fun	-10.3629
▁weapons	-10.363
ations	-10.3631
▁united	-10.3635
▁representative	-10.3655
▁(3	-10.3661
▁yes	-10.3661
▁participated	-10.3664
ned	-10.3666
iz	-10.3673
▁tomorrow	-10.3673
▁license	-10.3674
▁careful	-10.3675
over	-10.3676
▁attending	-10.3676
▁tools	-10.3678
▁wheat	-10.3683
▁surprise	-10.3683
▁Back	-10.3687
▁advance	-10.3687
▁covenant	-10.369
55	-10.3693
▁listed	-10.3694
▁12.	-10.3694
▁heritage	-10.3697
▁operating	-10.3698
dha	-10.3703
▁kings	-10.3705
▁Federation	-10.3705
ju	-10.3706
▁Rural	-10.3706
▁tweeted	-10.3706
▁hide	-10.3711
▁conference	-10.3711
▁satellite	-10.3711
now	-10.3714
▁Move	-10.3728
45	-10.3728
▁option	-10.3729
with	-10.3732
▁OF	-10.3736
▁angels	-10.3738
▁shares	-10.374
▁2007.	-10.3741
▁eating	-10.3741
▁settled	-10.3745
▁Trust	-10.3747
▁headed	-10.3757
ib	-10.3758
▁owner	-10.3759
▁edition	-10.376
44	-10.3761
port	-10.3764
▁follows	-10.3769
29	-10.3772
Hebrews	-10.3774
▁Sal	-10.3775
▁secure	-10.3779
▁shape	-10.3791
▁consequences	-10.3793
▁ba	-10.3803
▁adds	-10.3805
-12	-10.3809
▁Hindus	-10.3816
ker	-10.3819
▁/	-10.3822
▁Kha	-10.3824
▁universities	-10.3825
▁Israeli	-10.3826
▁pointed	-10.3836
tin	-10.3841
▁peaceful	-10.3847
▁Maybe	-10.3853
▁Mumbai	-10.3858
▁supporting	-10.3858
▁personally	-10.386
35	-10.3863
▁(4)	-10.3865
▁Italian	-10.3873
▁democracy	-10.3875
▁settlement	-10.3882
▁hill	-10.3883
▁roof	-10.3889
▁Christianity	-10.3891
▁welcome	-10.3891
▁bread	-10.3893
so	-10.3907
▁11.	-10.3908
▁oldest	-10.3913
▁Next	-10.3913
▁contribution	-10.3914
▁43	-10.3915
▁transferred	-10.3922
▁jute	-10.3922
▁fulfillment	-10.3922
▁coins	-10.3923
▁l	-10.3923
▁1988	-10.3928
▁device	-10.3931
▁vice	-10.3931
▁refugees	-10.3931
▁artists	-10.3936
93	-10.3937
▁Dis	-10.3938
▁Us	-10.394
▁ordered	-10.3943
27	-10.3948
▁Ca	-10.3952
▁endure	-10.3952
▁defined	-10.3953
▁UK	-10.3956
▁reduced	-10.3959
-1	-10.3968
▁Christmas	-10.3971
▁14.	-10.3971
);	-10.3973
ding	-10.3973
▁urged	-10.3976
▁concerns	-10.3977
▁Listen	-10.3985
▁environmental	-10.3987
▁salvation	-10.3994
▁criticism	-10.4003
▁tongue	-10.4006
▁blogs	-10.4007
▁ibn	-10.4011
▁qualified	-10.402
▁cash	-10.4023
▁massive	-10.4029
▁(17	-10.4031
▁2010,	-10.4037
▁corner	-10.4039
▁possibly	-10.4044
▁Kali	-10.4046
▁Call	-10.4046
▁conclusion	-10.4047
▁load	-10.4051
▁grave	-10.4058
▁encouragement	-10.4062
van	-10.4063
▁grand	-10.4065
▁require	-10.4065
▁opposite	-10.4076
▁offices	-10.408
▁Save	-10.4089
▁Khulna	-10.4093
▁Island	-10.4094
▁coast	-10.4094
▁Village	-10.4096
▁hotel	-10.4099
Sa	-10.41
Na	-10.4103
▁Member	-10.4104
▁portion	-10.4108
03	-10.4109
▁fail	-10.4116
▁Maha	-10.4116
▁observe	-10.4127
▁Kan	-10.4127
▁owned	-10.4128
▁charges	-10.4129
▁Yemen	-10.4131
▁trip	-10.4134
▁Portuguese	-10.4134
All	-10.4135
▁involves	-10.4154
▁Meeting	-10.4155
▁residence	-10.4158
▁Town	-10.416
Revelation	-10.4164
▁commerce	-10.4168
▁kids	-10.4168
vin	-10.4169
▁47	-10.417
▁decade	-10.4173
▁ceremony	-10.4175
▁familiar	-10.4175
▁remote	-10.4175
▁troops	-10.4178
▁properly	-10.4178
▁CPI	-10.4185
▁musical	-10.4186
▁claims	-10.4187
ban	-10.4189
▁relating	-10.4191
▁Col	-10.4192
▁Turkey	-10.4192
▁Should	-10.4193
▁useful	-10.4196
▁happening	-10.42
▁Affairs	-10.42
let	-10.4206
kin	-10.4206
kha	-10.4212
▁internal	-10.4216
▁stick	-10.4218
▁medal	-10.4218
▁weather	-10.4222
▁Put	-10.4226
▁fuel	-10.4227
▁Ju	-10.4231
▁suddenly	-10.4239
▁fought	-10.4241
af	-10.425
▁institute	-10.4252
▁Ad	-10.4253
▁sentence	-10.4255
▁1920	-10.4255
▁product	-10.4256
▁Washington	-10.4258
▁Failed	-10.4261
▁formal	-10.4268
▁Pi	-10.4275
▁fundamental	-10.4291
▁California	-10.4292
▁identify	-10.4293
▁reasonable	-10.4293
long	-10.4296
38	-10.4299
▁introduction	-10.43
▁Begum	-10.43
▁n	-10.4307
▁target	-10.4308
▁YOU	-10.4314
▁Congregation	-10.4317
▁Error	-10.4317
▁largely	-10.4321
-20	-10.4324
▁genuine	-10.4324
▁farmers	-10.4325
▁13.	-10.4327
▁victim	-10.4334
tri	-10.4336
▁debate	-10.4337
▁wouldn	-10.4341
▁mercy	-10.4342
▁Real	-10.4342
▁sell	-10.4343
▁facing	-10.4344
▁vegetables	-10.4344
23	-10.435
▁assistant	-10.4352
▁glass	-10.4356
▁mo	-10.4359
▁Sophie	-10.4359
pro	-10.4363
▁kinds	-10.4363
▁Commissioner	-10.4365
▁Philippines	-10.4366
▁temporary	-10.4367
net	-10.4368
▁Babylon	-10.4368
▁pattern	-10.4369
▁dress	-10.4374
▁1940	-10.4378
▁screen	-10.4384
▁Meanwhile	-10.4384
▁Organization	-10.4384
▁watching	-10.4385
▁catch	-10.4387
▁demands	-10.4395
tter	-10.4396
▁printing	-10.4397
▁Wait	-10.4397
▁assist	-10.4397
▁bi	-10.44
▁hate	-10.44
▁birds	-10.4406
▁Ban	-10.4407
▁seed	-10.441
lam	-10.4412
▁65	-10.4425
▁cancer	-10.4427
▁Girls	-10.4427
▁emotional	-10.4427
▁Municipality	-10.4428
▁museum	-10.443
▁rare	-10.4433
▁ice	-10.4436
▁insurance	-10.4436
▁taste	-10.444
om	-10.4442
▁Va	-10.4447
98	-10.4452
▁invitation	-10.4456
▁opposed	-10.4459
▁2009,	-10.446
▁moon	-10.446
Ha	-10.4461
▁empire	-10.4464
▁instruction	-10.4466
▁Arts	-10.4466
ER	-10.4466
▁1992	-10.4471
▁prize	-10.4477
▁Station	-10.4477
▁entry	-10.4478
▁holds	-10.448
-14	-10.4482
▁Ti	-10.4486
▁imprisonment	-10.4486
cus	-10.4495
▁aircraft	-10.4495
▁6,	-10.4496
ger	-10.4497
▁Video	-10.4498
▁reduce	-10.4499
▁metres	-10.4501
▁religions	-10.4504
▁injured	-10.4505
▁innings	-10.4507
▁priests	-10.4509
▁maybe	-10.4514
▁launch	-10.4516
▁Football	-10.4521
▁suicide	-10.4521
▁gets	-10.4524
▁dynasty	-10.4529
▁none	-10.4531
▁Male	-10.4531
▁audio	-10.4534
▁titled	-10.4536
ara	-10.4536
▁confirmed	-10.4536
▁broad	-10.4539
▁officially	-10.454
▁indicate	-10.4545
▁wives	-10.4546
▁narrow	-10.4546
▁covering	-10.4547
▁educated	-10.4553
▁White	-10.4553
▁blessed	-10.4557
▁Several	-10.4564
▁2018,	-10.4565
can	-10.4566
▁meat	-10.4578
▁lawyer	-10.4578
▁allows	-10.458
▁Report	-10.4586
▁throne	-10.459
▁collected	-10.459
▁300	-10.4591
▁Super	-10.4594
▁latrines	-10.4596
▁56	-10.4597
99	-10.4599
▁Jan	-10.4603
▁pieces	-10.4605
▁fucking	-10.4606
▁absence	-10.4607
▁spring	-10.4609
▁Set	-10.461
▁investment	-10.4613
▁Part	-10.4617
ali	-10.462
▁begins	-10.462
▁63	-10.462
▁beat	-10.4621
▁earthquake	-10.4622
▁participation	-10.4624
ub	-10.4624
bha	-10.4624
▁sovereignty	-10.4624
aj	-10.463
▁overcome	-10.4635
▁1996	-10.4635
▁contributed	-10.4636
▁54	-10.4637
▁greatly	-10.4638
▁phase	-10.464
▁guess	-10.4641
▁palace	-10.4642
av	-10.4643
▁characters	-10.4644
▁rejected	-10.4647
▁smaller	-10.4648
▁BY	-10.4648
▁seriously	-10.465
▁pride	-10.4659
▁admitted	-10.4659
▁wave	-10.4662
▁printed	-10.4668
▁burning	-10.4669
▁Abdullah	-10.467
▁considering	-10.4675
▁flight	-10.4675
right	-10.4675
▁causing	-10.4676
▁proof	-10.4681
▁listening	-10.4681
52	-10.4684
▁innocent	-10.4685
▁Gandhi	-10.4685
Pictures	-10.469
ability	-10.4699
▁prisoners	-10.4704
▁achieve	-10.4704
▁Pala	-10.4706
▁Political	-10.4712
▁devotion	-10.4712
▁entirely	-10.4715
▁latest	-10.4719
▁44	-10.4719
▁Dutch	-10.4721
▁_	-10.4725
34	-10.4725
▁viewed	-10.4726
dal	-10.4727
▁Jack	-10.473
▁Ps	-10.4731
▁motion	-10.4739
▁roads	-10.4743
▁bound	-10.4744
▁agriculture	-10.4746
gen	-10.4746
▁banned	-10.4747
▁fund	-10.4748
68	-10.4749
▁Long	-10.475
▁surrounding	-10.4751
▁Actor	-10.4753
32	-10.4755
39	-10.4755
▁pick	-10.4755
▁maintained	-10.4756
▁Hello	-10.4767
▁sought	-10.4768
ably	-10.4769
▁Daily	-10.4776
▁angry	-10.4781
▁cabinet	-10.4782
▁2015,	-10.48
46	-10.4806
▁apparently	-10.4813
▁Thana	-10.4813
lal	-10.4817
▁tonight	-10.4818
-15	-10.4822
▁paradise	-10.4825
89	-10.483
set	-10.4832
CC	-10.4835
uri	-10.4835
▁Za	-10.4843
▁500	-10.4844
▁mixed	-10.4844
▁16.	-10.4846
▁equipment	-10.4852
▁66	-10.4854
▁policies	-10.487
▁visible	-10.4873
▁sending	-10.4874
nu	-10.4879
▁53	-10.4881
▁suggest	-10.4881
▁partition	-10.4883
La	-10.489
▁extend	-10.4892
she	-10.4895
▁Navy	-10.4899
▁skills	-10.4901
▁arm	-10.4905
▁Business	-10.4906
▁gender	-10.4907
iest	-10.4909
▁organised	-10.491
▁valid	-10.4913
X	-10.4913
▁Messiah	-10.4914
As	-10.4917
▁schedule	-10.4918
▁Je	-10.4923
▁Executive	-10.4924
▁agency	-10.4924
▁solid	-10.4925
ps	-10.4928
▁biggest	-10.4932
49	-10.4934
▁agent	-10.4936
▁architecture	-10.4941
▁Sometimes	-10.4943
▁r	-10.4945
▁mud	-10.4946
field	-10.4948
▁Dan	-10.4952
▁branches	-10.4955
▁scheduled	-10.4956
▁tribulation	-10.496
su	-10.4961
thi	-10.4968
▁desires	-10.497
▁answered	-10.4974
▁focused	-10.4974
▁contemporary	-10.4977
▁budget	-10.4977
▁Bridge	-10.4978
47	-10.4978
▁Officer	-10.4979
▁awards	-10.4983
48	-10.4984
▁Ward	-10.4992
▁copies	-10.4995
▁proud	-10.4996
▁selection	-10.4998
▁lying	-10.5002
▁Radio	-10.5003
ua	-10.5006
▁objective	-10.501
sen	-10.501
ising	-10.5011
ious	-10.5012
▁funds	-10.5014
cu	-10.5018
▁theme	-10.5025
▁apart	-10.5029
87	-10.5029
69	-10.5033
▁turning	-10.5036
▁achieved	-10.5037
▁acquired	-10.5041
een	-10.5048
▁calm	-10.505
▁Urdu	-10.5051
▁County	-10.5052
▁acted	-10.5052
51	-10.5058
▁Ask	-10.5059
▁75	-10.506
▁Queen	-10.506
▁clinic	-10.5061
96	-10.5065
▁forgive	-10.5065
▁10,	-10.5065
ai	-10.5077
▁mu	-10.5082
gg	-10.5084
▁serves	-10.5084
▁reveal	-10.5085
▁featured	-10.5092
▁mountains	-10.5092
▁External	-10.5094
▁Web	-10.5095
▁Tamil	-10.5105
▁minor	-10.5108
85	-10.5108
car	-10.511
▁partner	-10.5111
▁Premier	-10.5113
▁flat	-10.5126
▁Cha	-10.5133
▁Being	-10.5133
▁2014.	-10.5138
▁plain	-10.5138
▁delivered	-10.5141
▁presentation	-10.5149
▁lo	-10.5151
▁rank	-10.5151
7,	-10.5153
▁sand	-10.5156
▁miss	-10.5156
▁57	-10.5158
▁metal	-10.516
▁daughters	-10.5163
▁v	-10.5164
▁imperfect	-10.5166
▁kid	-10.5166
▁na	-10.5172
▁collect	-10.5174
▁Gal	-10.5175
▁intended	-10.5176
▁salt	-10.518
▁readers	-10.518
Vidhan	-10.5182
63	-10.5189
▁angel	-10.519
▁Bahrain	-10.5191
▁ra	-10.5191
language	-10.5195
▁flock	-10.5195
▁dog	-10.5196
▁Turkish	-10.5196
▁accident	-10.5197
▁meal	-10.5212
▁planet	-10.5212
▁1974	-10.5215
56	-10.5215
▁presidential	-10.5216
▁cultivate	-10.5218
▁extremely	-10.5222
▁pretty	-10.5223
▁fulfilled	-10.5223
▁dollars	-10.5223
▁analysis	-10.5224
▁Which	-10.5224
▁drop	-10.5224
but	-10.5225
▁describe	-10.5227
▁Martin	-10.5232
▁System	-10.5232
ture	-10.5233
36	-10.524
▁programmes	-10.524
▁encouraging	-10.525
▁defeat	-10.5253
▁Nobel	-10.5254
ay	-10.5255
▁darkness	-10.5255
med	-10.5267
▁Hasan	-10.5267
37	-10.5268
▁persecution	-10.5269
▁64	-10.5274
▁Bill	-10.5275
side	-10.5279
▁alternative	-10.528
65	-10.5293
term	-10.5296
▁friendship	-10.53
▁Summer	-10.5306
▁volume	-10.5318
▁Geography	-10.5324
95	-10.5324
▁paragraph	-10.5326
ev	-10.5327
▁(4	-10.5328
▁awareness	-10.5337
▁deliver	-10.5339
▁painting	-10.5339
ery	-10.5341
lic	-10.5343
▁Born	-10.5345
▁Wa	-10.5346
▁heat	-10.535
▁capable	-10.5354
▁bottom	-10.5354
▁classical	-10.5356
ira	-10.5357
▁wine	-10.5358
▁Four	-10.536
▁cup	-10.5364
ye	-10.5368
▁ring	-10.5369
▁reward	-10.5371
▁Thanks	-10.5374
▁newspapers	-10.5375
▁pen	-10.538
▁default	-10.5381
▁shit	-10.5383
cent	-10.5384
dic	-10.5384
▁suit	-10.5386
▁payment	-10.5388
97	-10.5389
▁Ireland	-10.539
▁Battle	-10.539
▁ships	-10.5392
▁Qa	-10.5395
▁Henry	-10.5399
▁Review	-10.5399
▁Stadium	-10.5408
▁1998	-10.5413
▁Friday	-10.5419
▁signs	-10.542
▁drugs	-10.542
eg	-10.5422
ED	-10.5426
62	-10.5428
▁Si	-10.5429
▁1958	-10.5435
▁disciple	-10.5436
▁fault	-10.5439
▁thanks	-10.5444
▁15.	-10.5444
▁warned	-10.5448
▁fulfill	-10.5449
-13	-10.5452
▁tweets	-10.5453
▁spot	-10.5454
▁medieval	-10.5455
eh	-10.5456
ez	-10.5464
▁Communist	-10.5465
▁7,	-10.5466
▁Mu	-10.5467
▁script	-10.5473
▁publisher	-10.5475
▁2017.	-10.548
▁category	-10.5484
▁cry	-10.5486
▁Nothing	-10.5495
▁celebrate	-10.5498
▁Alam	-10.5499
▁email	-10.5503
▁Chicago	-10.5504
-11	-10.5514
▁networks	-10.5515
▁cool	-10.5515
▁marry	-10.5517
▁pioneers	-10.5518
▁Gar	-10.552
▁2008,	-10.552
▁quiet	-10.5524
▁Create	-10.5527
▁convinced	-10.5528
▁multiple	-10.5528
▁subsequently	-10.5529
▁buried	-10.5531
▁outstanding	-10.5534
67	-10.5535
▁surrounded	-10.5535
▁pursue	-10.5536
raj	-10.5536
▁temperature	-10.5536
2,	-10.5537
▁shelter	-10.554
▁se	-10.5544
▁extreme	-10.555
31	-10.555
▁aside	-10.5551
▁tribes	-10.5556
▁objects	-10.5558
▁affection	-10.5564
▁End	-10.5566
▁bag	-10.5568
▁banking	-10.5569
ple	-10.5572
82	-10.5574
▁1991	-10.5575
▁print	-10.5576
▁Studies	-10.5578
▁atmosphere	-10.5578
▁Comilla	-10.5579
▁colonial	-10.558
▁loyalty	-10.558
▁Gold	-10.5584
▁submit	-10.5587
▁Body	-10.559
▁registration	-10.559
▁Blog	-10.5592
lar	-10.5593
▁regarded	-10.5595
▁Ottoman	-10.5598
-2	-10.5605
ef	-10.5612
▁heads	-10.5614
bed	-10.5616
▁Management	-10.5617
▁scientists	-10.5617
▁inhabitants	-10.5628
ena	-10.5629
▁Head	-10.5634
▁bought	-10.5636
▁containing	-10.5641
▁poems	-10.5648
▁emerged	-10.565
▁emergency	-10.5655
▁forests	-10.5657
76	-10.5659
An	-10.5662
▁psalmist	-10.5665
▁abandoned	-10.5666
nal	-10.5671
▁colour	-10.5672
▁Lake	-10.5674
▁select	-10.5674
▁Palestinian	-10.5675
53	-10.5678
▁Limited	-10.5682
▁represents	-10.5682
▁easier	-10.5684
▁invite	-10.5689
▁Search	-10.5691
▁contrary	-10.5694
▁Joshua	-10.5696
▁leg	-10.5697
▁celebrated	-10.5698
▁Note	-10.5698
▁signal	-10.5698
▁soft	-10.5699
▁52	-10.5702
▁1979	-10.5704
21	-10.5711
▁illness	-10.5711
▁missionaries	-10.5713
▁arrangements	-10.5718
▁expansion	-10.5723
▁terminal	-10.5723
94	-10.5729
▁situations	-10.5731
▁relation	-10.5732
Why	-10.5734
▁Him	-10.5735
▁noticed	-10.5752
und	-10.5754
▁Tk	-10.5755
▁Argentina	-10.5762
▁Thomas	-10.5762
2)	-10.5767
74	-10.5768
▁succeeded	-10.5769
▁Mela	-10.577
▁Team	-10.577
▁UEFA	-10.5771
▁cells	-10.5773
▁doctors	-10.5773
▁deemed	-10.5775
▁USA	-10.578
▁singing	-10.5784
SA	-10.5785
use	-10.5788
▁Richard	-10.579
▁14,	-10.579
▁Jatiya	-10.5791
▁illustration	-10.5791
▁Subject	-10.5801
▁actual	-10.5802
77	-10.5802
▁superior	-10.5809
▁Secondary	-10.5812
Go	-10.5813
pp	-10.5814
▁imp	-10.5819
▁infrastructure	-10.5821
5,	-10.5829
▁Having	-10.583
▁150	-10.5836
▁mistake	-10.5836
▁Bose	-10.5839
▁Judah	-10.584
qui	-10.5854
▁supporters	-10.5854
▁graduated	-10.5858
▁defense	-10.586
vo	-10.5861
▁Green	-10.5862
▁elderly	-10.5866
▁witnessing	-10.5874
▁minds	-10.5876
▁2012.	-10.5879
64	-10.5879
▁producer	-10.5882
gal	-10.5886
▁camera	-10.589
▁Questions	-10.5894
▁sa	-10.5899
back	-10.5903
▁journal	-10.5904
43	-10.5905
▁hidden	-10.5908
▁islands	-10.591
▁throw	-10.5913
ag	-10.5917
▁feed	-10.5917
De	-10.5917
▁Military	-10.5918
AL	-10.5925
86	-10.5927
▁Northern	-10.5929
ila	-10.5934
71	-10.5935
▁displayed	-10.5938
▁extensive	-10.5938
▁childhood	-10.5939
▁strange	-10.5941
fr	-10.5943
▁diplomatic	-10.5945
▁Dar	-10.5946
▁49	-10.5946
▁custom	-10.5947
▁Tri	-10.595
▁finish	-10.5954
▁score	-10.5957
▁emperor	-10.5958
▁occupied	-10.5959
▁employed	-10.5959
▁tons	-10.596
▁Sadar	-10.5961
▁weekly	-10.5964
▁Paradise	-10.5967
era	-10.5968
And	-10.597
▁males	-10.5971
▁poetry	-10.5971
▁12,	-10.5971
ola	-10.5979
▁haven	-10.5981
▁46	-10.5982
ging	-10.5982
▁tool	-10.5985
▁Legislative	-10.5988
▁Frank	-10.5988
▁facts	-10.5992
81	-10.5994
▁gathering	-10.5994
▁movements	-10.5995
▁advanced	-10.6
54	-10.6001
called	-10.6007
▁replied	-10.6007
rai	-10.6008
▁plane	-10.601
▁visiting	-10.6011
58	-10.6016
▁pair	-10.6017
▁2013.	-10.6024
▁Training	-10.6026
▁verse	-10.6026
▁Gu	-10.6027
▁finding	-10.6027
▁guilty	-10.6031
▁51	-10.6031
dia	-10.6034
▁vi	-10.6036
▁thick	-10.6042
▁silence	-10.6047
▁cloth	-10.6048
adi	-10.6049
▁retired	-10.605
eb	-10.6051
▁stands	-10.6053
▁1987	-10.6055
zz	-10.6057
▁BBC	-10.6059
▁contribute	-10.6059
▁leads	-10.6059
02	-10.606
▁par	-10.6062
83	-10.6062
▁distributed	-10.6064
-10	-10.6065
▁clay	-10.6068
▁evident	-10.6069
▁Tan	-10.607
▁le	-10.607
84	-10.6071
▁Play	-10.6072
They	-10.6072
oc	-10.6076
▁crop	-10.6076
▁ordinary	-10.6078
▁concerning	-10.608
part	-10.608
▁fat	-10.608
92	-10.6083
▁controlled	-10.6085
▁prayed	-10.609
▁CD	-10.6096
▁Extinct	-10.6097
▁Kashmir	-10.6099
▁cat	-10.61
ure	-10.61
▁Official	-10.6107
▁Food	-10.6108
▁Check	-10.611
▁tap	-10.6111
had	-10.6117
▁considerable	-10.6118
▁fifth	-10.6119
▁""	-10.6121
59	-10.6123
▁threatened	-10.6123
dis	-10.6127
▁1999	-10.6134
▁Mc	-10.6135
▁File	-10.6138
▁Harry	-10.6142
73	-10.6142
▁1954	-10.6143
▁lessons	-10.6144
▁grateful	-10.6149
▁alongside	-10.615
▁instructions	-10.6154
▁bird	-10.6159
▁2016.	-10.6159
▁arrival	-10.6168
▁commander	-10.6168
▁properties	-10.6168
▁Karachi	-10.6169
Mo	-10.6171
▁covers	-10.6177
ological	-10.6178
▁hunger	-10.6183
sar	-10.6184
▁shoot	-10.6185
▁earliest	-10.6188
▁silent	-10.6189
▁suitable	-10.6191
▁responded	-10.6192
▁customs	-10.6195
▁sale	-10.6195
▁drawing	-10.6196
▁asks	-10.6198
▁cooperation	-10.6203
▁eternal	-10.6208
▁agencies	-10.6209
▁Rangpur	-10.6209
wood	-10.6211
78	-10.6216
▁ministers	-10.6217
▁excellent	-10.6218
▁chemical	-10.6219
▁reply	-10.6222
▁Teach	-10.6224
▁Sangsad	-10.6229
▁Saturday	-10.6229
▁talks	-10.6235
▁$	-10.6235
▁reactions	-10.6235
▁Chand	-10.6236
▁1976	-10.6239
▁protected	-10.6242
▁suggestions	-10.6243
▁reputation	-10.6249
▁NGO	-10.6249
▁crimes	-10.6254
▁engage	-10.6254
79	-10.6257
▁proposal	-10.6258
▁Theocratic	-10.6259
▁denied	-10.6259
▁accordance	-10.626
▁reaching	-10.6264
hal	-10.6264
▁Add	-10.6265
tal	-10.6267
illa	-10.6269
▁Religious	-10.627
des	-10.6272
72	-10.6273
board	-10.6276
▁surprised	-10.6277
▁Very	-10.6279
▁governments	-10.628
▁2010.	-10.628
▁promoted	-10.6282
▁Para	-10.6285
▁representatives	-10.6285
▁divorce	-10.6286
▁Communication	-10.629
head	-10.6295
▁allowing	-10.6297
▁habit	-10.6298
▁khan	-10.6298
▁app	-10.6299
tive	-10.6305
Al	-10.6305
▁58	-10.6306
3,	-10.631
▁Ru	-10.6314
▁politicians	-10.6315
▁11,	-10.6319
▁scheme	-10.6321
▁Inter	-10.6322
Prov	-10.6331
▁72	-10.6336
▁wearing	-10.6337
▁favour	-10.6339
▁remarkable	-10.6342
▁Vietnam	-10.6342
▁grandfather	-10.6343
▁Maria	-10.6343
▁MA	-10.6344
▁widow	-10.6344
▁writings	-10.6346
▁torture	-10.6348
Q	-10.6348
▁sentenced	-10.6348
▁Holmes	-10.6352
▁dealing	-10.6353
▁coastal	-10.6358
▁topic	-10.6359
▁el	-10.6362
▁liberal	-10.6363
▁Pu	-10.6371
▁resistance	-10.6373
▁59.5%:	-10.6374
▁gather	-10.6374
ada	-10.6377
▁onto	-10.6377
▁bamboo	-10.6382
▁maximum	-10.6383
▁sword	-10.6385
▁gate	-10.6387
▁belongs	-10.639
▁universal	-10.6394
▁Economic	-10.6395
▁Nazrul	-10.6403
Footnote	-10.6405
▁su	-10.6408
▁broadcast	-10.6408
▁texts	-10.6408
▁blame	-10.6411
▁Think	-10.6411
▁micro	-10.6415
▁occurs	-10.6424
▁Ku	-10.6425
▁react	-10.6428
▁Ji	-10.6428
cho	-10.6432
ged	-10.6433
▁changing	-10.6434
▁59	-10.644
ual	-10.6442
▁Access	-10.6444
▁visits	-10.6448
▁encounter	-10.6449
▁aim	-10.6456
▁62	-10.6462
ok	-10.6462
▁prices	-10.6465
▁anymore	-10.647
▁accompanied	-10.6472
-9	-10.6475
▁Bur	-10.6476
▁Literature	-10.6476
▁sacrifices	-10.648
▁acid	-10.6481
▁17.	-10.6481
▁fly	-10.6485
light	-10.6485
▁manage	-10.6487
mit	-10.649
kan	-10.6495
▁bond	-10.6498
▁Never	-10.6502
▁immediate	-10.6508
91	-10.651
▁walked	-10.6517
▁humility	-10.6518
Ka	-10.652
▁1984	-10.6521
▁Mom	-10.6524
khali	-10.6525
▁1919	-10.6531
▁Chronicles	-10.6533
▁ends	-10.6535
▁1948	-10.6537
▁Elijah	-10.6539
▁1973	-10.6542
▁Live	-10.6546
cing	-10.6546
Ephesians	-10.6552
▁lady	-10.6553
▁directory	-10.6554
▁treasure	-10.6559
▁Primary	-10.656
▁occasions	-10.656
▁constant	-10.6561
▁coal	-10.6566
▁restored	-10.6572
▁item	-10.6574
▁slowly	-10.6574
pre	-10.6579
▁desert	-10.6583
▁Non	-10.6589
hir	-10.6589
▁terrible	-10.6591
▁lock	-10.6596
▁mi	-10.6599
▁dedication	-10.6602
▁courses	-10.6602
▁Moscow	-10.6603
▁Madrasa	-10.6606
▁Article	-10.6609
▁publishing	-10.6613
▁selling	-10.6613
akh	-10.6614
▁bearing	-10.6615
▁contributions	-10.6622
▁widespread	-10.6623
3)	-10.6624
▁Welcome	-10.6624
▁requirements	-10.6626
▁Due	-10.6627
some	-10.6629
▁inner	-10.6632
▁leaf	-10.6637
▁honest	-10.6638
▁BA	-10.6641
▁compassion	-10.6644
▁Prov	-10.6648
▁du	-10.6649
▁neighbor	-10.6649
▁1966	-10.6652
▁stayed	-10.6657
▁entrance	-10.6662
das	-10.6664
0,000	-10.6665
▁Hussain	-10.6666
▁burden	-10.6666
▁deputy	-10.6666
ala	-10.667
▁(15	-10.6672
▁Square	-10.6676
▁execution	-10.6676
▁candidates	-10.6678
▁Modern	-10.6678
▁grant	-10.6682
ath	-10.6685
▁accomplish	-10.6685
▁jurisdiction	-10.6697
▁differences	-10.6699
▁Ganges	-10.6704
▁patients	-10.6705
▁Mor	-10.6705
▁Thessalonians	-10.6708
▁22,	-10.6709
▁degrees	-10.6711
▁Ch	-10.6712
▁smile	-10.6716
gaon	-10.6716
▁quarter	-10.672
▁Control	-10.672
▁towns	-10.672
▁(10	-10.6722
wal	-10.6723
▁provincial	-10.673
▁Kenya	-10.6734
garh	-10.6736
▁preparation	-10.6738
ever	-10.6738
▁combined	-10.6739
▁van	-10.674
▁minimum	-10.674
▁tears	-10.6741
air	-10.6744
▁2015.	-10.6746
▁occupation	-10.6748
▁succeed	-10.6751
▁Flickr	-10.6751
▁designated	-10.6754
▁afternoon	-10.6762
▁sing	-10.6767
ula	-10.6767
▁Yu	-10.6767
▁uncle	-10.677
▁2)	-10.6772
▁Greece	-10.6772
og	-10.6777
▁Blogger	-10.6783
▁youths	-10.6788
▁sake	-10.6788
▁Philippians	-10.6791
▁attached	-10.6792
nce	-10.6792
ep	-10.6794
▁indicated	-10.6801
▁delight	-10.6804
▁extension	-10.6805
▁Zia	-10.6814
▁overall	-10.6815
▁creative	-10.6816
▁elevation	-10.6816
▁bounded	-10.6818
▁solve	-10.6823
▁Ge	-10.6832
▁perspective	-10.6837
▁discreet	-10.6838
▁aspect	-10.6838
▁1949	-10.6839
▁Indies	-10.6841
▁external	-10.6848
▁intelligence	-10.6848
▁parliamentary	-10.685
▁indicates	-10.6853
▁economics	-10.6855
▁sincere	-10.6855
▁2006,	-10.6855
▁campus	-10.6856
▁Plan	-10.6857
ria	-10.6857
▁Isaac	-10.6859
▁jobs	-10.6866
▁rising	-10.687
▁arts	-10.6879
▁traditions	-10.6879
8%	-10.688
▁2018.	-10.6883
▁Hand	-10.6884
▁Bal	-10.689
▁corrupt	-10.6893
▁stream	-10.6895
▁Kho	-10.6896
▁Sorry	-10.6903
ification	-10.6903
▁glad	-10.6904
▁Child	-10.6904
But	-10.6905
▁distinct	-10.6907
88	-10.6912
▁brochure	-10.6914
▁democratic	-10.6915
42	-10.6916
▁surely	-10.6916
Rom	-10.6918
▁commanded	-10.6918
od	-10.6919
ris	-10.6921
▁61	-10.6925
chandra	-10.6925
US	-10.6934
▁Network	-10.6935
▁combination	-10.6936
▁Valley	-10.6936
▁archive	-10.6949
▁positions	-10.6952
▁stress	-10.6953
▁visitors	-10.6953
▁acceptable	-10.6955
▁Gen	-10.6955
▁stadium	-10.6957
▁Light	-10.6958
▁returning	-10.6964
▁Deputy	-10.6968
▁implementation	-10.6969
▁Everyone	-10.6973
▁pa	-10.6978
▁possession	-10.6982
▁soils	-10.6991
▁hardly	-10.6993
2.	-10.6997
▁Gi	-10.7006
▁Abul	-10.7009
▁struck	-10.7013
▁16,	-10.7015
7)	-10.7015
par	-10.7024
▁Mission	-10.7026
▁71	-10.7027
▁constituted	-10.7028
▁bazars	-10.7029
act	-10.703
▁cope	-10.7036
ney	-10.7036
▁belonging	-10.7037
▁2007,	-10.7041
▁pan	-10.7041
▁netizens	-10.7045
▁Barisal	-10.7046
▁Theatre	-10.7056
▁Freedom	-10.7058
ue	-10.7062
▁honour	-10.7062
▁telephone	-10.7067
▁fashion	-10.7067
▁everywhere	-10.7068
▁Number	-10.7071
▁suggests	-10.7075
▁faces	-10.7083
▁fairs	-10.7084
▁cent	-10.7086
57	-10.7087
8)	-10.7089
▁Youth	-10.7096
down	-10.7101
nk	-10.7101
▁bomb	-10.7102
▁1985	-10.7102
▁factor	-10.7109
▁exposed	-10.7112
▁creatures	-10.7112
▁Deuteronomy	-10.7113
gh	-10.7113
▁Exodus	-10.7114
ora	-10.7115
run	-10.7123
▁Gupta	-10.7123
▁Ph	-10.7132
▁drew	-10.7134
▁passengers	-10.7135
▁Bara	-10.714
▁turns	-10.7143
▁Furthermore	-10.7145
▁Katherine	-10.7145
▁Los	-10.7148
ory	-10.7151
▁gifts	-10.7152
▁Five	-10.7153
▁Mirza	-10.7155
▁Folder	-10.7156
▁Editor	-10.7158
▁judicial	-10.7158
Ra	-10.7163
▁grounds	-10.7164
Gen	-10.7166
▁rape	-10.7167
▁Independence	-10.7168
▁wake	-10.7171
6)	-10.7172
▁weapon	-10.7173
▁pond	-10.7178
▁1955	-10.7181
dan	-10.7181
▁89	-10.7182
mat	-10.7183
▁territories	-10.7189
▁provinces	-10.7192
▁associate	-10.7192
▁agents	-10.72
▁1956	-10.7201
▁anniversary	-10.7201
▁yesterday	-10.7201
▁losing	-10.7201
sk	-10.7202
▁enabled	-10.7203
▁Career	-10.7205
▁Visit	-10.7212
▁league	-10.7213
▁2009.	-10.7215
ide	-10.7216
row	-10.7219
▁1959	-10.722
▁informed	-10.722
▁enable	-10.7221
▁rebellion	-10.7223
▁Starting	-10.7225
▁electronic	-10.7226
▁renamed	-10.7228
▁loan	-10.7228
▁separated	-10.7229
▁attempts	-10.7231
▁Find	-10.7233
▁strive	-10.7234
▁fled	-10.7234
making	-10.7234
fer	-10.7237
▁burn	-10.724
ray	-10.7242
▁prefer	-10.7245
▁yourselves	-10.7246
▁whereas	-10.7246
▁resist	-10.7247
made	-10.725
▁rooms	-10.7265
▁18.	-10.7268
▁worst	-10.7268
▁sugar	-10.7269
▁9,	-10.7274
ick	-10.7275
▁dying	-10.728
▁Run	-10.7283
Box	-10.7286
ven	-10.7287
▁preserve	-10.7288
▁assumed	-10.7291
▁Sp	-10.7294
ama	-10.7298
▁historic	-10.7298
▁Uttar	-10.73
qu	-10.73
▁evolution	-10.7301
je	-10.7301
▁Lebanon	-10.7304
▁row	-10.7305
▁driver	-10.7307
▁poem	-10.731
▁91	-10.7313
▁Palestine	-10.7315
▁farm	-10.7321
▁websites	-10.7326
▁1953	-10.7327
most	-10.733
▁Ham	-10.7331
▁del	-10.7334
▁demonstrated	-10.7335
▁speaks	-10.7336
▁tract	-10.7338
▁Armenian	-10.7338
▁devoted	-10.7341
shan	-10.7344
▁demonstration	-10.7345
▁Han	-10.7348
▁Within	-10.7348
▁Democratic	-10.7349
▁Ah	-10.7349
▁stuff	-10.735
▁Code	-10.7353
▁participants	-10.7354
oon	-10.7355
▁Netherlands	-10.7359
▁tribal	-10.7361
nes	-10.7363
far	-10.7366
▁rescue	-10.7368
▁Emperor	-10.737
▁preparing	-10.737
▁Madrid	-10.737
61	-10.7376
▁executed	-10.7377
▁notification	-10.7378
▁scriptures	-10.738
▁Lee	-10.7385
▁Block	-10.7387
▁divisions	-10.7387
▁shop	-10.7391
ky	-10.7393
▁charged	-10.7398
▁commented	-10.74
▁injustice	-10.74
▁impressed	-10.74
▁Tagore	-10.7405
▁Type	-10.7405
▁Close	-10.7405
▁lake	-10.7409
▁Forest	-10.741
▁Ezekiel	-10.741
▁Colossians	-10.7414
▁para	-10.7414
▁involving	-10.7416
▁Mass	-10.7417
▁mature	-10.7417
▁Apart	-10.7421
▁tender	-10.7425
▁manifest	-10.7427
cy	-10.7428
▁profit	-10.7432
uz	-10.7433
▁sufficient	-10.7433
▁helpful	-10.7442
chan	-10.7444
ified	-10.7445
▁cultures	-10.7446
▁typically	-10.7447
▁unions	-10.7448
▁intellectual	-10.7451
SE	-10.7453
▁insight	-10.7453
▁harvest	-10.7453
1,	-10.7456
▁cart	-10.7456
endra	-10.7456
▁Fund	-10.746
▁comedy	-10.7461
▁Change	-10.7463
▁Kal	-10.7464
▁quit	-10.7473
▁concluded	-10.7473
▁Lahore	-10.7473
sq	-10.7476
mu	-10.7477
▁gram	-10.7478
▁earn	-10.7479
ction	-10.7482
▁cultivation	-10.7485
▁relevant	-10.7485
▁1983	-10.7486
ons	-10.7489
:1	-10.749
▁courts	-10.7493
▁Bahadur	-10.7497
▁submitted	-10.7498
also	-10.75
▁rejoice	-10.7506
▁parallel	-10.752
▁Mymensingh	-10.7521
▁Sciences	-10.7521
▁Mah	-10.7523
▁handed	-10.7524
aka	-10.7524
500	-10.7531
▁historian	-10.7532
▁reflected	-10.7533
▁representing	-10.7533
▁birthday	-10.7535
ency	-10.7536
▁demanded	-10.7541
▁replace	-10.7541
▁Qatar	-10.7542
▁endeavor	-10.7543
▁Bhutan	-10.7543
▁Conference	-10.7543
▁driving	-10.7543
▁resurrected	-10.7548
▁edited	-10.7551
▁Fire	-10.7554
▁Ibrahim	-10.7555
▁Parishad	-10.7555
▁producing	-10.7556
Ta	-10.7556
▁exports	-10.7557
hand	-10.7557
▁purchase	-10.7564
▁vehicles	-10.7567
ush	-10.7567
▁Convention	-10.7567
8,	-10.7567
▁procedure	-10.7568
▁assured	-10.7572
▁healthy	-10.7572
▁Bha	-10.7577
vis	-10.7579
Man	-10.7583
▁Edward	-10.7584
▁blow	-10.759
▁Age	-10.7591
▁blocked	-10.7591
▁GOD	-10.7591
▁flowers	-10.7592
ens	-10.7598
▁finance	-10.7601
▁raising	-10.7602
▁constantly	-10.7611
▁attendance	-10.7614
▁camps	-10.7614
water	-10.7618
▁tired	-10.7619
-5	-10.7624
▁dignity	-10.7624
▁confident	-10.7628
don	-10.7635
▁votes	-10.7641
IS	-10.7645
▁capture	-10.7646
▁Page	-10.7647
▁dropped	-10.7648
▁sharp	-10.7656
▁Agricultural	-10.766
▁anxiety	-10.766
▁Edmond	-10.7661
▁increasingly	-10.7667
▁reject	-10.7675
6,	-10.768
▁Bat	-10.7681
▁Alexander	-10.7683
▁signature	-10.7687
▁Mon	-10.7687
▁depth	-10.769
▁begun	-10.769
▁=	-10.7691
▁ni	-10.7693
▁Average	-10.7695
▁Gilead	-10.7695
▁romantic	-10.7695
▁exact	-10.7709
▁prospect	-10.771
▁brick	-10.7712
ties	-10.7712
▁pull	-10.7712
▁button	-10.7715
bazar	-10.7716
▁Television	-10.7719
▁pe	-10.772
▁snow	-10.7721
▁ja	-10.7721
▁Medal	-10.7722
▁cards	-10.7723
▁dust	-10.7724
ates	-10.7724
▁installed	-10.7726
▁1942	-10.7727
▁1943	-10.7728
▁split	-10.7729
▁Indo	-10.773
▁Akbar	-10.7733
▁1957	-10.7733
▁witnessed	-10.7736
▁Islands	-10.7737
▁88	-10.7741
▁Sho	-10.7742
▁monthly	-10.7743
▁Until	-10.7743
▁difficulties	-10.7746
▁%1	-10.7747
▁Anti	-10.7749
▁deeds	-10.775
▁Wi	-10.7751
yn	-10.7752
▁Obama	-10.7755
▁74	-10.7758
▁march	-10.7759
▁Sarah	-10.776
▁sang	-10.7763
citation	-10.7766
▁plot	-10.7766
▁Galatians	-10.7766
▁Hari	-10.7766
▁Buddha	-10.7766
▁Haque	-10.7767
ius	-10.7768
▁determination	-10.7769
▁argument	-10.7771
▁Highway	-10.7775
▁coach	-10.7778
▁HIV	-10.7778
▁seconds	-10.7778
▁trend	-10.778
▁Start	-10.7783
▁(;	-10.7785
win	-10.7786
▁ta	-10.7787
▁Kazi	-10.7793
▁gotta	-10.7794
▁--	-10.7801
▁shortly	-10.7803
▁Forces	-10.7809
stone	-10.781
▁67	-10.781
▁hatred	-10.7814
▁Mac	-10.7816
uc	-10.7822
▁Little	-10.7828
▁tend	-10.7829
▁improved	-10.7831
▁Whatever	-10.7839
▁Cross	-10.7839
41	-10.784
▁Clearly	-10.7842
bul	-10.7844
▁circle	-10.7846
▁Way	-10.7848
▁hashtag	-10.7849
▁consisting	-10.7851
▁Lok	-10.7853
▁string	-10.786
iness	-10.7863
▁Sh	-10.7875
▁celebration	-10.7881
▁Sad	-10.7881
▁wars	-10.7884
▁patience	-10.7885
bra	-10.7885
▁satisfaction	-10.7886
Mark	-10.7887
▁ne	-10.7896
▁Culture	-10.7897
▁establishing	-10.7899
▁Using	-10.7901
▁pollution	-10.7909
▁1971,	-10.7912
▁1963	-10.7913
▁quoted	-10.7914
ES	-10.7914
▁Bas	-10.7916
▁Govern	-10.7916
▁resolve	-10.7919
▁famine	-10.7922
▁papers	-10.7922
▁coup	-10.7922
▁68	-10.7925
val	-10.7926
Job	-10.7928
▁friendly	-10.7928
▁Em	-10.7932
▁wanna	-10.7934
▁impression	-10.7935
Ba	-10.7941
Yes	-10.7941
▁channels	-10.7943
▁Min	-10.7944
▁fool	-10.7945
▁strongly	-10.7948
▁decline	-10.7956
▁Ghosh	-10.7958
▁derived	-10.796
▁memo	-10.7965
gon	-10.7968
hari	-10.797
rin	-10.7973
book	-10.7974
log	-10.7977
▁virus	-10.7981
▁maintenance	-10.7982
▁Chapter	-10.7982
▁Metro	-10.7984
▁preserved	-10.7986
▁palm	-10.7986
lon	-10.7988
▁characteristics	-10.799
zo	-10.7992
▁emphasis	-10.7994
5)	-10.7998
▁offline	-10.8001
▁linked	-10.8003
cal	-10.8007
▁soldier	-10.801
9%	-10.801
▁Hats	-10.801
lor	-10.8012
rid	-10.8013
▁structures	-10.8015
bb	-10.8016
▁judges	-10.8016
▁declaration	-10.8018
▁doors	-10.802
▁Staff	-10.8021
▁temples	-10.8022
▁Ab	-10.8022
▁sample	-10.8029
▁mad	-10.803
▁yellow	-10.8031
▁pilot	-10.8032
▁alcohol	-10.8039
▁Cho	-10.8041
▁announcement	-10.8042
▁maintaining	-10.8047
▁Action	-10.8047
▁chain	-10.8049
nch	-10.8052
▁luck	-10.8052
▁Further	-10.8055
▁neck	-10.806
IC	-10.8064
gle	-10.8065
▁Version	-10.8067
▁69	-10.8068
▁publish	-10.8069
▁alert	-10.8071
▁Rev	-10.8072
hood	-10.8073
▁Devi	-10.8077
▁Hold	-10.8082
▁rates	-10.8082
NC	-10.8087
▁1995	-10.8088
▁Wikipedia	-10.8092
ight	-10.8094
ica	-10.8096
bit	-10.8096
tes	-10.8096
▁movies	-10.8098
▁Ecclesiastes	-10.8105
▁nobody	-10.8107
▁distress	-10.811
▁requested	-10.8115
▁Thai	-10.8115
▁vehicle	-10.8116
▁restore	-10.8116
xi	-10.8117
▁rival	-10.8118
▁thirty	-10.812
▁profession	-10.8123
▁burned	-10.8125
▁AS	-10.8126
▁personnel	-10.8131
▁passage	-10.8132
▁Azerbaijan	-10.8136
▁Mohammed	-10.8138
▁zeal	-10.814
▁remembered	-10.814
▁existed	-10.814
▁twelve	-10.8141
▁explanation	-10.8141
▁copyright	-10.8142
▁rally	-10.8142
▁Election	-10.8142
▁rapid	-10.8144
▁possibility	-10.8153
▁Mahmud	-10.8153
▁Supporting	-10.8154
▁detailed	-10.8158
▁initiated	-10.8158
▁Mrs	-10.8161
▁declare	-10.8164
▁documentary	-10.8168
▁attain	-10.817
▁colleges	-10.8172
▁fix	-10.8174
SC	-10.8177
▁liquid	-10.8177
▁societies	-10.8178
ade	-10.8178
▁Buddhism	-10.8178
▁Dinajpur	-10.8179
▁Kamal	-10.8179
▁1964	-10.8184
▁ideal	-10.8184
▁Ocean	-10.8184
▁stupid	-10.8188
▁Ze	-10.8189
▁popularity	-10.8189
▁obedience	-10.819
▁defend	-10.8195
▁dad	-10.8196
▁Translation	-10.8203
▁flower	-10.8204
uni	-10.8211
yo	-10.8211
▁1971.	-10.8213
▁tear	-10.8216
SP	-10.8221
▁applications	-10.8224
rural	-10.8225
▁performing	-10.8227
▁significance	-10.8227
gue	-10.8228
▁18,	-10.8232
▁delay	-10.8236
▁depends	-10.8236
lia	-10.8238
tion	-10.8241
▁Talk	-10.8242
▁estate	-10.8243
▁(16	-10.8243
▁slaves	-10.8244
see	-10.8247
▁Sports	-10.8247
▁subsequent	-10.8255
▁sales	-10.8261
▁conducting	-10.8263
▁Commons	-10.8267
▁locally	-10.8268
▁Educational	-10.8273
▁Md	-10.8275
▁attempted	-10.8281
▁starred	-10.8281
vert	-10.8283
▁domain	-10.8283
▁discovery	-10.8283
▁Building	-10.8284
▁fate	-10.8287
ati	-10.8287
▁gross	-10.8288
▁dispute	-10.8291
▁te	-10.8293
▁Fort	-10.8294
▁potato	-10.8296
▁reporting	-10.8298
▁departments	-10.83
asa	-10.8308
▁Cambodia	-10.8309
▁wing	-10.8309
▁Tar	-10.8316
▁register	-10.8321
AR	-10.8326
▁Morocco	-10.8327
▁Isa	-10.833
▁smoke	-10.833
▁120	-10.833
ou	-10.8332
▁verses	-10.8334
▁85	-10.8335
rate	-10.8336
▁Maldives	-10.834
▁dam	-10.8341
▁1944	-10.8343
▁expanded	-10.8345
▁1982	-10.8346
▁starts	-10.8347
▁Bangabandhu	-10.8353
▁Imagine	-10.8353
▁totally	-10.8357
▁petition	-10.8357
8.	-10.8358
▁demanding	-10.8365
▁speaker	-10.8367
tel	-10.837
Who	-10.8376
▁Schedule	-10.8376
▁favorite	-10.838
▁truths	-10.8385
▁paying	-10.8386
▁converted	-10.8391
▁freely	-10.8391
▁currency	-10.8391
▁Ver	-10.8398
▁inform	-10.8401
bad	-10.8403
4,	-10.841
▁imprisoned	-10.8418
▁adults	-10.8418
▁forgiveness	-10.8419
▁profile	-10.8419
▁beside	-10.8423
▁core	-10.8425
▁afford	-10.8426
▁beloved	-10.8428
▁contest	-10.843
▁NGOs	-10.843
▁phrase	-10.8432
Ja	-10.8434
▁tribe	-10.8438
ming	-10.844
▁Spiritual	-10.8441
▁Third	-10.8441
▁Lieutenant	-10.8442
▁uniform	-10.8442
▁outcome	-10.8446
lock	-10.8446
American	-10.8449
▁Rai	-10.845
▁Economics	-10.8452
▁controversial	-10.8454
▁Ibn	-10.8454
ren	-10.8455
dge	-10.8456
room	-10.8459
▁attracted	-10.8459
▁hills	-10.846
hat	-10.8465
▁armies	-10.8468
▁breath	-10.8469
ava	-10.8469
▁Natural	-10.847
▁alleged	-10.8471
6.	-10.8473
▁saving	-10.8475
-4	-10.8476
▁count	-10.8477
▁everyday	-10.8481
ral	-10.8483
▁flash	-10.8485
That	-10.8486
▁shepherd	-10.8489
.1	-10.849
▁festivals	-10.849
▁fuck	-10.849
4)	-10.8497
▁1951	-10.8498
▁1939	-10.8498
Bangladesh	-10.8499
▁Padma	-10.8501
▁influential	-10.8505
▁spite	-10.8506
▁Full	-10.8509
▁involve	-10.8509
▁Lal	-10.8509
▁resolution	-10.8518
▁cycle	-10.8523
▁tower	-10.8525
▁Big	-10.8531
▁legs	-10.8533
-8	-10.8535
▁Message	-10.8538
hra	-10.854
▁cotton	-10.8543
▁IS	-10.8545
▁Trade	-10.8546
▁u	-10.855
▁terrorist	-10.8551
▁Karim	-10.8558
▁1937	-10.8558
▁publicly	-10.8559
▁$1	-10.8561
put	-10.8568
▁fiction	-10.8569
form	-10.8581
▁bengal	-10.8582
▁Truth	-10.8584
▁FOR	-10.8585
▁teaches	-10.859
▁Wall	-10.859
low	-10.8593
▁acquire	-10.8593
▁Indonesian	-10.8595
▁Again	-10.8598
▁accomplished	-10.8605
▁debt	-10.8606
▁recommended	-10.8606
▁reserved	-10.8606
pu	-10.8607
▁conquest	-10.8608
▁ear	-10.861
▁draft	-10.8614
ghat	-10.8614
4.	-10.8615
▁(5)	-10.8617
▁remittance	-10.862
▁feels	-10.8622
[	-10.8622
char	-10.8622
ose	-10.8625
▁clothing	-10.8625
oo	-10.8627
▁breaking	-10.8629
nan	-10.8631
▁applying	-10.8632
▁costs	-10.8633
▁sp	-10.8633
▁Taiwan	-10.8635
▁neighbors	-10.8637
▁detained	-10.8638
▁caring	-10.8639
▁1969	-10.8639
fully	-10.8641
▁Screen	-10.8646
▁anxious	-10.8646
▁Mujibur	-10.8648
▁anywhere	-10.865
▁operated	-10.866
▁Globe	-10.8672
▁preached	-10.8673
▁Sher	-10.8675
▁Tunisia	-10.8678
ric	-10.868
▁ratio	-10.8681
▁bride	-10.8687
▁somewhere	-10.869
▁Tal	-10.8693
▁chair	-10.8693
▁brand	-10.8694
▁Command	-10.8695
br	-10.8696
▁winner	-10.8698
▁Contact	-10.8698
▁Mas	-10.8699
▁specifically	-10.87
▁reforms	-10.8701
▁valley	-10.871
▁refuge	-10.871
▁Judge	-10.8711
▁Shiva	-10.8711
yl	-10.8713
ole	-10.8718
▁Certificate	-10.8724
▁worried	-10.8724
▁Address	-10.8725
▁beneficial	-10.8725
▁Kuwait	-10.8726
▁cl	-10.8728
▁(5	-10.8729
▁Anna	-10.873
▁criticized	-10.8732
▁literally	-10.8732
▁73	-10.8739
▁lasting	-10.8739
▁usual	-10.8742
▁fallen	-10.8745
▁imposed	-10.8747
▁motivated	-10.8748
▁relationships	-10.875
ino	-10.8751
-6	-10.8755
▁traveled	-10.8757
▁engine	-10.8759
path	-10.8759
▁Stay	-10.8759
▁ongoing	-10.8761
▁trans	-10.8761
▁fame	-10.8763
▁damaged	-10.8767
▁Van	-10.8769
▁repair	-10.8771
▁lord	-10.8771
▁ocean	-10.8778
▁400	-10.8779
ore	-10.8782
din	-10.8783
EC	-10.8789
▁expensive	-10.879
▁storage	-10.879
▁amazing	-10.879
▁wages	-10.879
▁reveals	-10.8794
▁Windows	-10.8795
▁13,	-10.8796
▁94	-10.8797
▁cars	-10.8797
▁argued	-10.8799
▁refuse	-10.8802
▁y	-10.8803
▁obedient	-10.8808
▁caste	-10.8809
▁Jean	-10.8811
▁Had	-10.8812
▁punished	-10.8813
▁magic	-10.8813
▁Tara	-10.8813
bin	-10.8816
▁everybody	-10.8817
▁fa	-10.882
▁slightly	-10.882
▁92	-10.8821
▁revolutionary	-10.8831
▁tube	-10.8832
sta	-10.8832
▁pop	-10.8838
▁remind	-10.884
▁1:	-10.8841
▁st	-10.8844
▁zamindars	-10.8844
▁Everything	-10.8845
▁employer	-10.8849
▁10)	-10.8852
▁devices	-10.8854
▁fishing	-10.8856
▁commitment	-10.8857
sis	-10.886
Me	-10.8861
▁disasters	-10.8865
▁bright	-10.8866
read	-10.8867
▁opinions	-10.8868
▁hero	-10.8869
▁HOW	-10.8869
▁founding	-10.8873
▁IT	-10.8874
▁appoint	-10.8878
1.	-10.8878
▁Fu	-10.8878
▁grass	-10.8878
▁76	-10.888
▁edge	-10.8882
▁mainstream	-10.8883
▁embassy	-10.8883
▁guest	-10.8884
Ex	-10.8884
▁physically	-10.8885
▁terrorism	-10.8901
▁tiny	-10.8902
▁Bir	-10.8903
▁rail	-10.8904
▁arrange	-10.8907
▁Bin	-10.8908
▁monument	-10.891
▁conventions	-10.8917
▁rapidly	-10.8919
▁bo	-10.892
▁ruin	-10.8921
tala	-10.8922
ane	-10.8923
▁visual	-10.8926
nic	-10.8927
000	-10.8928
▁sounds	-10.8935
style	-10.8936
▁Beijing	-10.8937
▁Story	-10.8938
▁flying	-10.894
iti	-10.895
▁Archive	-10.8951
▁madrasa	-10.8952
▁altar	-10.8952
aw	-10.8954
▁Mail	-10.8954
▁contents	-10.8955
General	-10.8957
▁tri	-10.896
▁acknowledge	-10.8962
▁compare	-10.8962
▁WHAT	-10.8962
▁permanently	-10.8966
▁taxes	-10.8967
ese	-10.8971
free	-10.8971
▁thinks	-10.8971
▁Mujib	-10.8973
▁1975	-10.898
Fa	-10.8982
▁footballer	-10.8983
▁Class	-10.8984
▁Mer	-10.8986
▁Tokyo	-10.8989
▁sudden	-10.8993
▁Q	-10.8998
▁Cu	-10.8998
▁expand	-10.9
▁BE	-10.9003
▁commit	-10.9003
▁Display	-10.9004
▁Aziz	-10.9005
▁Imam	-10.9005
▁expressions	-10.9009
▁1921	-10.9011
lum	-10.9012
▁modest	-10.9013
▁depend	-10.9015
▁86	-10.9016
▁settle	-10.9017
▁conscious	-10.9017
▁Commander	-10.9019
▁constitutional	-10.902
▁obvious	-10.902
▁1941	-10.9024
▁crazy	-10.9029
org	-10.9031
▁nearest	-10.9039
bel	-10.9044
▁apartment	-10.9045
▁attract	-10.9045
▁discussions	-10.9052
mor	-10.9052
▁thana	-10.9052
▁supplies	-10.9056
▁cousin	-10.9056
▁Rabindranath	-10.9057
▁1993	-10.9057
▁Mandir	-10.9057
▁Howrah	-10.9062
▁symbolic	-10.9064
ress	-10.9068
▁pleased	-10.9069
▁bigger	-10.9072
▁companion	-10.9074
▁statements	-10.9075
▁periods	-10.9075
▁survived	-10.9082
▁bow	-10.9082
▁Southern	-10.9083
oy	-10.9089
▁frame	-10.909
▁techniques	-10.9092
▁wicket	-10.9095
▁cm	-10.9099
ks	-10.9099
▁aged	-10.91
So	-10.91
▁critics	-10.9104
▁repeatedly	-10.9106
are	-10.9107
▁mistakes	-10.9109
▁promotion	-10.911
3%	-10.911
▁delete	-10.911
▁li	-10.911
▁invasion	-10.9111
ona	-10.9113
▁Industrial	-10.9116
Bo	-10.9117
▁moves	-10.9117
▁stronger	-10.912
▁2008.	-10.9122
▁;	-10.9123
▁falls	-10.9123
▁endurance	-10.9124
bal	-10.9127
▁Table	-10.9127
▁addressed	-10.9127
▁ought	-10.9129
▁transportation	-10.913
▁approached	-10.9133
ving	-10.9139
▁raw	-10.9143
▁Follow	-10.9144
▁Finance	-10.9151
▁6:9	-10.9152
til	-10.9154
▁Jami	-10.9155
▁Credit	-10.9158
ew	-10.9162
▁coffee	-10.9165
▁alliance	-10.9165
▁column	-10.9167
▁satisfied	-10.9167
▁1935	-10.9168
▁absolute	-10.9169
▁intense	-10.917
▁Express	-10.9173
▁voices	-10.9184
▁ultimately	-10.9185
3.	-10.9186
!-	-10.9189
▁Smith	-10.9192
▁PAGE	-10.9193
▁exile	-10.9193
▁banana	-10.9194
ec	-10.9194
▁cr	-10.9198
▁Bel	-10.9199
▁Faith	-10.9205
▁78	-10.9206
▁talked	-10.9207
▁introduce	-10.9213
1-	-10.9214
▁actively	-10.9216
▁experts	-10.9217
▁guarantee	-10.9219
▁intention	-10.9222
▁stake	-10.9223
▁shooting	-10.9225
▁harsh	-10.9227
▁grain	-10.9229
▁cruel	-10.9233
▁prejudice	-10.9234
▁Deb	-10.9236
▁Mun	-10.9236
▁privileges	-10.9237
▁praying	-10.9238
▁witnesses	-10.9238
▁seventh	-10.9239
▁Upon	-10.924
▁sections	-10.9241
▁eager	-10.925
▁Kam	-10.9253
▁Rashid	-10.9254
▁demons	-10.9258
anda	-10.9259
▁Louis	-10.9265
▁discharge	-10.9275
▁pornography	-10.9276
▁troubled	-10.9277
▁wishes	-10.9278
▁Rom	-10.9285
RC	-10.9287
▁exit	-10.9294
anta	-10.9294
▁spending	-10.9294
▁hat	-10.9298
▁Ur	-10.9299
▁smell	-10.9299
▁brown	-10.9316
▁categories	-10.9316
▁spreading	-10.9317
▁queen	-10.9317
▁mat	-10.9318
▁ve	-10.9321
var	-10.9321
▁1,000	-10.9322
▁References	-10.9324
▁peak	-10.9329
▁Computer	-10.933
IT	-10.9331
▁19.	-10.9331
▁tests	-10.9331
▁hosted	-10.9333
▁engineer	-10.9333
▁AND	-10.9335
Mu	-10.9337
▁usage	-10.9342
▁habits	-10.9343
▁communicate	-10.9344
▁prince	-10.9348
▁keeps	-10.9349
▁4)	-10.935
▁2019,	-10.9357
▁entering	-10.9359
▁equivalent	-10.9359
▁Mag	-10.9359
▁Taliban	-10.936
▁Picture	-10.936
▁enormous	-10.9372
ice	-10.9372
▁loose	-10.938
$	-10.9382
▁giant	-10.9383
▁configuration	-10.9386
▁FROM	-10.9386
▁operate	-10.9386
▁1967	-10.9387
ras	-10.9389
▁chat	-10.9389
▁blogging	-10.939
▁1931	-10.9394
▁77	-10.9397
▁Christendom	-10.94
▁sport	-10.94
▁completion	-10.94
▁Standard	-10.94
ea	-10.9401
▁humanity	-10.9405
▁seeds	-10.9406
ians	-10.9408
oli	-10.9412
▁Assistant	-10.9414
▁Between	-10.9414
▁studio	-10.9414
▁resort	-10.9414
▁bat	-10.9416
▁Boy	-10.9416
▁somewhat	-10.9418
▁bowler	-10.9418
▁photograph	-10.9421
▁pulled	-10.9423
▁Heart	-10.9424
▁funeral	-10.9428
▁2005,	-10.9435
▁thin	-10.9438
▁element	-10.9439
tta	-10.9442
▁Cairo	-10.9442
▁95	-10.9451
uli	-10.9452
▁shoulder	-10.9454
▁facility	-10.9456
▁partnership	-10.9457
uff	-10.946
▁Sab	-10.946
▁fans	-10.9462
9,	-10.9464
+	-10.9464
▁titles	-10.9469
▁ignore	-10.947
▁consent	-10.947
speaking	-10.9471
tia	-10.9479
▁companions	-10.9479
▁Oxford	-10.9484
▁photographs	-10.9486
▁nomination	-10.9486
▁typical	-10.9492
▁recall	-10.9492
▁detail	-10.9493
▁implement	-10.9496
hearted	-10.9496
▁hole	-10.9496
▁conclude	-10.9497
▁Front	-10.9498
▁grasp	-10.9498
▁heavily	-10.9498
▁push	-10.9501
▁topics	-10.9502
▁Ac	-10.9502
▁falling	-10.9503
9.	-10.9504
▁waters	-10.9504
RE	-10.9505
▁sh	-10.9505
ify	-10.9506
len	-10.9506
▁Bari	-10.9508
▁RE	-10.9508
▁Fisheries	-10.9513
▁subdivision	-10.9513
▁tall	-10.9515
▁Bai	-10.9516
from	-10.9517
▁options	-10.9517
post	-10.952
▁1962	-10.9523
▁depression	-10.9526
▁batsman	-10.9527
▁memorial	-10.9527
▁painful	-10.9533
▁Sharif	-10.9533
▁h	-10.9534
▁loud	-10.9535
▁Fine	-10.9539
▁Provincial	-10.9541
▁subcontinent	-10.9541
aba	-10.9544
▁hang	-10.9546
▁Parents	-10.9551
▁Spirit	-10.9555
▁arrive	-10.9555
▁assume	-10.9555
▁amongst	-10.9555
▁labourer	-10.9556
▁1938	-10.9558
handed	-10.956
tur	-10.956
▁1989	-10.9561
▁Nar	-10.9562
▁Phil	-10.9566
▁inscription	-10.9568
▁picked	-10.9572
▁performances	-10.9573
▁nationalist	-10.9574
▁latitudes	-10.9574
who	-10.9574
▁Ltd	-10.9577
▁limits	-10.9578
▁Shams	-10.9579
▁collaboration	-10.9583
▁concert	-10.9585
▁Pur	-10.9587
▁touched	-10.9595
▁Top	-10.9596
▁Joy	-10.9597
▁irrigation	-10.9597
acre	-10.9599
▁Route	-10.9601
▁1994	-10.9604
▁reminded	-10.9606
pra	-10.9609
▁87	-10.961
▁deaths	-10.9614
▁Huq	-10.9614
▁repeated	-10.9615
▁Colombia	-10.9618
▁bio	-10.9621
▁84	-10.9625
▁Paddy	-10.9626
▁discrimination	-10.9627
▁fi	-10.9627
Heb	-10.9628
NA	-10.9632
▁overseers	-10.9634
▁immoral	-10.9639
▁grief	-10.964
zh	-10.9643
▁combat	-10.9643
▁3:1	-10.9645
▁worshippers	-10.9648
▁shah	-10.9649
state	-10.9649
hr	-10.965
▁goodness	-10.9658
▁render	-10.966
▁thereafter	-10.966
agricultural	-10.9665
ug	-10.9666
▁dock	-10.9667
mail	-10.9669
▁17,	-10.967
▁imperial	-10.9671
▁Pal	-10.9673
▁relates	-10.9677
▁crash	-10.9679
Co	-10.968
▁(14	-10.9683
▁thereby	-10.9684
▁1918	-10.9687
▁Wood	-10.969
▁Place	-10.9697
▁im	-10.9698
▁bronze	-10.9698
▁teeth	-10.9698
▁Linux	-10.9699
▁cloud	-10.9703
▁Kabul	-10.9704
▁CC	-10.9705
▁auto	-10.9705
▁Members	-10.9708
▁Burma	-10.9711
▁Prophet	-10.9712
▁residential	-10.9713
▁plague	-10.9715
▁gang	-10.9715
▁listened	-10.9717
government	-10.9717
▁volunteers	-10.9718
present	-10.972
qa	-10.9721
Ar	-10.9724
ily	-10.9727
▁Bu	-10.9728
▁Saint	-10.9728
▁Unlike	-10.973
▁commissioned	-10.9732
▁imported	-10.9735
▁instruments	-10.974
▁Commonwealth	-10.9741
▁Key	-10.9742
mad	-10.9743
▁Fe	-10.9745
▁expert	-10.9745
▁borders	-10.9747
▁Var	-10.9751
▁aren	-10.9753
hin	-10.9758
qua	-10.9762
▁Ye	-10.9762
box	-10.9763
minded	-10.9769
▁Defence	-10.977
pir	-10.9773
dra	-10.9774
▁Ak	-10.9776
▁po	-10.9785
▁referring	-10.9787
▁Dev	-10.9793
▁lifetime	-10.9793
▁dreams	-10.9793
fu	-10.9793
▁1932	-10.9795
▁normally	-10.9796
▁ride	-10.9797
▁pleasant	-10.9799
▁Southeast	-10.9799
▁Brazilian	-10.9803
▁1952	-10.9804
▁pioneering	-10.9804
▁sinful	-10.9805
▁joining	-10.9807
▁filed	-10.9817
gent	-10.9817
▁diet	-10.9819
pping	-10.982
▁(8	-10.982
ene	-10.9821
▁Heb	-10.9824
▁strengthened	-10.9826
▁Sources	-10.9829
▁Ancient	-10.9829
▁Against	-10.983
▁Dam	-10.9831
▁churches	-10.9835
▁markets	-10.9837
▁golden	-10.9837
▁Leader	-10.9838
▁worthy	-10.9838
which	-10.9839
▁fever	-10.9844
▁admit	-10.9846
▁episode	-10.9849
▁processes	-10.985
▁bull	-10.9851
&	-10.9853
▁1936	-10.9855
▁regret	-10.9857
▁virtue	-10.9857
▁distant	-10.9857
▁1000	-10.9859
▁Canadian	-10.9859
nar	-10.9861
▁implemented	-10.9863
▁thrown	-10.9864
▁Sur	-10.9871
▁effectively	-10.9871
▁venture	-10.9873
▁excuse	-10.9887
▁restrictions	-10.9887
tle	-10.9892
list	-10.9895
▁Point	-10.9895
Keep	-10.9897
▁taka	-10.9898
▁youngest	-10.9901
▁comparison	-10.9901
▁24:14	-10.9906
▁flu	-10.9907
▁noise	-10.9911
▁4:6	-10.9911
▁marks	-10.9912
▁ears	-10.9914
▁2:	-10.9916
▁scared	-10.9917
▁Victoria	-10.9917
▁retirement	-10.9917
▁glorious	-10.9917
▁Send	-10.9918
▁tasks	-10.9919
▁Andrew	-10.9921
▁complaint	-10.9923
▁employee	-10.9924
▁Online	-10.993
ii	-10.9931
▁Ordinance	-10.9932
▁Hamid	-10.9933
▁wondered	-10.9933
▁socio	-10.9936
ened	-10.9939
▁relate	-10.994
▁respective	-10.9943
▁Policy	-10.9946
▁promoting	-10.9946
▁Jessore	-10.9947
▁roll	-10.9948
▁routine	-10.9951
▁20.	-10.9951
band	-10.9954
ites	-10.9958
▁trick	-10.9958
▁meters	-10.9959
▁offspring	-10.9961
▁immorality	-10.9962
New	-10.9963
uring	-10.9973
▁smart	-10.9975
-22	-10.9976
▁1946	-10.9976
gy	-10.9977
▁dish	-10.9978
▁Nagar	-10.9978
eng	-10.9981
▁originated	-10.9982
▁Taka	-10.9984
hai	-10.9985
▁Alex	-10.9987
kot	-10.9988
▁Channel	-10.999
▁25,	-10.9991
-21	-10.9992
ano	-10.9997
▁zealous	-10.9998
▁conquered	-11.0001
▁Abd	-11.0001
James	-11.0001
▁prophecies	-11.0005
▁Knowledge	-11.0005
▁Hollywood	-11.0005
▁formerly	-11.0005
▁priority	-11.0009
▁1914	-11.0009
▁occasionally	-11.0011
▁Mohan	-11.0015
▁kindly	-11.0015
▁Grant	-11.0017
▁Scotland	-11.002
▁Welfare	-11.002
▁varieties	-11.002
▁adding	-11.002
▁factories	-11.0021
▁massacre	-11.0021
▁Palace	-11.0021
human	-11.0023
▁isolated	-11.0024
ero	-11.0032
▁Rose	-11.0033
▁controversy	-11.0035
▁vessels	-11.0036
ition	-11.0043
ants	-11.0044
▁stones	-11.0044
▁Hotel	-11.0051
-30	-11.0052
IN	-11.006
▁1977	-11.006
point	-11.0061
▁mathematics	-11.0064
▁Field	-11.0064
▁nawab	-11.0064
▁injury	-11.0064
▁label	-11.0066
▁cap	-11.0067
▁murdered	-11.0069
▁threats	-11.007
▁Armenia	-11.0074
Isa	-11.0076
great	-11.0077
▁paintings	-11.0077
▁physics	-11.0079
▁compete	-11.008
▁Jones	-11.0082
ford	-11.0084
▁99	-11.0085
▁Provided	-11.0086
▁successor	-11.0086
5%	-11.0091
▁Dal	-11.0094
▁continuing	-11.0094
▁housing	-11.0094
▁municipality	-11.0096
▁Jonah	-11.0098
▁mild	-11.0099
▁Georgia	-11.0106
▁wounded	-11.0107
▁harmful	-11.0113
▁83	-11.0118
EN	-11.0118
▁goddess	-11.0118
▁forgotten	-11.0119
▁sectors	-11.012
▁definition	-11.012
▁Six	-11.0121
▁Ve	-11.0122
▁5:3	-11.0124
▁concentration	-11.0124
star	-11.0126
▁log	-11.0127
▁User	-11.0127
▁III	-11.0128
▁recognised	-11.013
ima	-11.0132
▁pot	-11.0133
▁removal	-11.0139
▁deleted	-11.014
▁va	-11.014
that	-11.014
RI	-11.0141
▁1:1	-11.0143
▁processing	-11.0143
▁skill	-11.0144
▁Scripture	-11.015
▁holiday	-11.015
▁Ruth	-11.0151
▁Eden	-11.0151
▁believes	-11.0153
▁Sch	-11.0156
▁dates	-11.0161
▁hospitals	-11.0163
▁proceedings	-11.0168
▁Explain	-11.0169
Sha	-11.017
▁Monday	-11.0171
gun	-11.0172
▁fan	-11.0173
▁Sc	-11.0174
▁deny	-11.0182
▁invalid	-11.0185
▁Venezuela	-11.0192
▁shed	-11.0193
AF	-11.0193
▁Tea	-11.0194
ida	-11.0196
▁GO	-11.0196
lip	-11.0198
▁Nu	-11.0198
▁resident	-11.0199
▁Gazette	-11.02
▁collapse	-11.0201
▁Bombay	-11.0201
▁Nobody	-11.0202
▁motor	-11.0202
▁underground	-11.0204
avi	-11.0204
▁2:3	-11.0206
▁longitudes	-11.0211
ware	-11.0211
MA	-11.0211
dhi	-11.0212
onic	-11.0212
▁elsewhere	-11.0215
▁flows	-11.0217
▁civilian	-11.0217
▁fifty	-11.0218
▁1928	-11.022
▁strict	-11.0223
▁Must	-11.0224
▁disappeared	-11.0226
ela	-11.0228
ei	-11.0228
▁tragedy	-11.023
▁Coast	-11.023
▁compensation	-11.023
▁Creative	-11.023
▁sickness	-11.0232
▁authors	-11.0233
sam	-11.0235
▁Yo	-11.0243
▁governing	-11.0244
▁lion	-11.0247
▁cited	-11.0248
atory	-11.0249
▁bless	-11.0249
▁Sudan	-11.025
▁appreciated	-11.0252
▁chapters	-11.0252
page	-11.0253
▁discussing	-11.0254
▁pagan	-11.0261
▁permitted	-11.0261
▁descendants	-11.0263
▁plate	-11.0263
▁emotions	-11.0263
▁Federal	-11.0264
▁rendered	-11.0266
▁1929	-11.0268
▁Zo	-11.0272
cut	-11.0273
▁propaganda	-11.0276
▁missed	-11.0278
▁journalism	-11.0278
▁winners	-11.0279
▁faithfully	-11.0279
▁Try	-11.028
▁firmly	-11.0289
▁Basu	-11.0289
▁composition	-11.0291
▁Exchange	-11.0291
▁researchers	-11.0293
▁sanitary	-11.0293
▁composer	-11.0296
▁Uganda	-11.0298
▁sixth	-11.0298
control	-11.0302
▁difficulty	-11.0304
▁statue	-11.0305
▁genetic	-11.0306
▁Enter	-11.0308
▁classified	-11.031
▁basin	-11.0313
rus	-11.0321
▁voting	-11.0322
▁adopt	-11.0322
▁Design	-11.0322
▁26,	-11.0325
▁boats	-11.0325
▁owners	-11.0326
▁kg	-11.0327
tr	-11.0331
▁blocks	-11.0332
▁representation	-11.0332
chu	-11.0334
Footnotes	-11.0334
▁DNA	-11.0339
▁prophets	-11.034
▁Doctor	-11.0341
▁gap	-11.0346
▁symbols	-11.0351
hy	-11.0356
▁recording	-11.0357
▁1922	-11.0357
▁electric	-11.0358
▁windows	-11.0359
▁chest	-11.0361
▁Mukherjee	-11.0368
▁participating	-11.0368
▁destination	-11.0368
▁thereof	-11.0369
▁Digital	-11.0369
▁cave	-11.0371
▁Jam	-11.0372
sion	-11.0374
▁Nur	-11.0374
▁1986	-11.0377
▁roughly	-11.0377
▁Import	-11.0382
▁Brown	-11.0383
▁copper	-11.0384
▁wa	-11.0392
▁Nor	-11.0393
Exodus	-11.0395
▁guests	-11.0397
▁Shar	-11.0399
▁Tripura	-11.0399
▁corporation	-11.0399
▁chicken	-11.04
▁coat	-11.0401
▁dependent	-11.0403
Po	-11.0404
▁landless	-11.0406
▁instrument	-11.0407
5,000	-11.0409
▁Barcelona	-11.0414
▁Kazakhstan	-11.0414
":	-11.042
hor	-11.0423
▁Sand	-11.0425
▁Bogra	-11.0431
▁Narayan	-11.0432
mari	-11.0433
▁82	-11.0436
▁Ly	-11.0443
▁24,	-11.0444
▁CHAPTER	-11.0445
▁consumption	-11.0445
▁bangladesh	-11.0445
▁Bangkok	-11.0446
place	-11.0447
▁elite	-11.0448
▁briefly	-11.0448
Mar	-11.0453
ered	-11.0453
▁Pope	-11.0456
8;	-11.0458
▁trap	-11.0459
▁Commerce	-11.046
▁Small	-11.0461
▁penalty	-11.0461
▁Shri	-11.0463
▁anyway	-11.047
ancy	-11.0471
▁Julian	-11.0471
▁condemned	-11.0472
▁Abdur	-11.0474
▁discover	-11.0475
▁panel	-11.0475
▁Ukraine	-11.0476
▁Sweden	-11.0476
▁meditate	-11.0476
▁steel	-11.0476
▁Copyright	-11.0476
▁wage	-11.0476
▁cattle	-11.0477
▁Flood	-11.0477
▁huh	-11.0477
TV	-11.0478
▁cow	-11.0479
▁entrusted	-11.048
▁improvement	-11.0482
▁unusual	-11.0482
▁audit	-11.0482
▁statistics	-11.0485
▁Tunisian	-11.0485
arm	-11.0486
▁automatically	-11.0488
▁Mexican	-11.0492
uck	-11.0494
▁Blue	-11.0496
▁1947,	-11.0496
AN	-11.0496
▁inspiration	-11.0499
ville	-11.0501
▁neutral	-11.0506
▁outer	-11.0507
▁acres	-11.0508
▁involvement	-11.0509
▁nineteenth	-11.051
▁truck	-11.051
▁Server	-11.0511
-7	-11.0511
▁cooking	-11.0513
east	-11.0513
▁householder	-11.0514
keeper	-11.0514
▁Learn	-11.0516
▁pyramid	-11.0523
hara	-11.0524
rk	-11.0525
▁conviction	-11.0526
▁equality	-11.0529
▁cure	-11.053
▁Hope	-11.0533
ette	-11.0536
▁width	-11.0538
▁Arthur	-11.0539
▁crew	-11.0539
▁rat	-11.0542
rah	-11.0548
▁rely	-11.0548
▁intervention	-11.0554
▁beneath	-11.0554
▁trading	-11.0554
▁settings	-11.0554
▁safeguard	-11.0554
▁Iraqi	-11.0555
▁dramatic	-11.0556
▁Uh	-11.0556
▁Nath	-11.0557
▁somebody	-11.0558
▁Rani	-11.0559
take	-11.0561
cher	-11.0562
▁ODI	-11.0566
▁evidently	-11.0569
▁sessions	-11.0569
▁dominated	-11.0569
▁gratitude	-11.057
▁transmission	-11.057
▁resolved	-11.0573
▁Gospel	-11.0574
will	-11.0576
▁spin	-11.0578
▁icon	-11.0578
▁sleeping	-11.0584
▁sorrow	-11.0586
▁Pharisees	-11.0586
▁annually	-11.0588
▁collective	-11.0594
Muslim	-11.0598
ball	-11.0599
▁81	-11.06
▁Tribunal	-11.0601
▁inheritance	-11.0602
▁neighborhood	-11.0606
▁Azad	-11.0608
Ro	-11.0614
▁Winter	-11.0619
▁inhabited	-11.0622
▁illustrate	-11.0624
▁sal	-11.0628
▁possess	-11.0634
▁renowned	-11.0634
▁ro	-11.0634
▁passes	-11.0639
▁x	-11.064
▁Happy	-11.0642
200	-11.0646
▁output	-11.0647
ella	-11.0647
▁Tube	-11.0648
▁Brooklyn	-11.0649
▁Agency	-11.0649
▁oppression	-11.0649
▁tenure	-11.0653
bat	-11.0653
▁monitor	-11.0653
▁roots	-11.0663
cept	-11.0667
▁worshipers	-11.067
▁2:1	-11.0676
other	-11.0676
▁carriage	-11.068
▁Gulf	-11.0682
▁3:15	-11.0684
vy	-11.0685
▁Madras	-11.0686
load	-11.0687
▁Shortly	-11.0689
▁Turn	-11.0692
▁Simon	-11.0694
▁watched	-11.0695
ony	-11.0696
▁horses	-11.0696
▁adjacent	-11.0696
▁revolt	-11.0696
▁Chaplin	-11.0697
▁trains	-11.0698
▁minority	-11.0699
▁Ber	-11.0703
art	-11.0703
▁Mel	-11.0704
▁conflicts	-11.0707
▁Know	-11.0707
▁Albert	-11.071
his	-11.0711
tom	-11.0712
▁1:3	-11.0712
▁Stephen	-11.0712
▁dinner	-11.0712
▁Damascus	-11.0713
▁shock	-11.0717
▁doctrine	-11.0719
▁hiding	-11.0721
▁28:19	-11.0723
▁mosques	-11.0728
▁Pir	-11.0733
▁sha	-11.0733
▁frequent	-11.0737
AD	-11.0743
▁aimed	-11.0743
▁radical	-11.0744
▁starring	-11.0745
▁Location	-11.0745
▁conservative	-11.0745
▁3:16	-11.0746
▁Trans	-11.0746
you	-11.0747
▁19,	-11.075
-3	-11.075
▁suspended	-11.0751
▁Bharat	-11.0751
▁versions	-11.0751
▁objectives	-11.0752
▁noble	-11.0752
ain	-11.0753
mark	-11.0756
▁Ash	-11.0759
pon	-11.0759
▁Archaeological	-11.076
▁lunch	-11.076
▁grade	-11.0761
▁hopes	-11.0764
▁Rock	-11.0765
▁mar	-11.0766
▁23,	-11.077
▁reserve	-11.077
vers	-11.0771
▁delivery	-11.0773
▁praised	-11.0774
▁geographical	-11.0775
▁rid	-11.0776
▁crown	-11.0778
▁Bag	-11.0779
▁Player	-11.0781
Su	-11.0782
▁interior	-11.0783
▁accord	-11.0784
sur	-11.0786
▁Stone	-11.0787
Le	-11.0791
▁censorship	-11.0795
▁Quran	-11.0797
▁expressing	-11.0799
link	-11.0804
Deuteronomy	-11.0806
▁79	-11.0807
▁solar	-11.0808
▁Mubarak	-11.0811
▁abilities	-11.0812
▁Qu	-11.0814
▁arise	-11.0814
▁tries	-11.0817
▁shame	-11.0818
▁generations	-11.0819
shed	-11.0822
▁insurer	-11.0825
▁Rs	-11.0825
▁Night	-11.0826
▁Eid	-11.0828
▁Sara	-11.083
▁silk	-11.0832
▁ease	-11.0834
▁sets	-11.0835
▁practiced	-11.0838
▁j	-11.0838
▁DO	-11.0839
una	-11.0841
▁shopping	-11.0841
▁flee	-11.0841
ux	-11.0843
tz	-11.0844
▁Din	-11.0845
▁directors	-11.0847
▁Champions	-11.0847
▁Services	-11.0848
▁legend	-11.0849
▁Nigeria	-11.085
pat	-11.0851
▁absolutely	-11.0852
▁package	-11.0854
▁WEEK	-11.0857
▁challenging	-11.0857
▁detention	-11.0857
▁dated	-11.0858
Am	-11.0859
▁wooden	-11.0862
▁floods	-11.0866
▁bell	-11.0868
▁pp	-11.0869
▁Lot	-11.0869
▁SMS	-11.0871
▁BIBLE	-11.0873
▁tunnel	-11.0873
▁tobacco	-11.0873
▁Satyajit	-11.0873
▁honey	-11.0873
ND	-11.0873
▁Ever	-11.0874
▁riches	-11.0877
▁jump	-11.0879
tte	-11.0881
▁experiment	-11.0884
ST	-11.0885
▁beating	-11.0885
▁finger	-11.0886
▁License	-11.0889
▁biological	-11.089
▁Uddin	-11.089
ering	-11.089
▁locations	-11.0891
▁scenes	-11.0891
ld	-11.0894
fo	-11.0897
▁aims	-11.0899
▁pocket	-11.0901
▁globe	-11.0905
▁Zone	-11.0909
ets	-11.0916
▁permit	-11.0916
▁Ana	-11.0919
▁novels	-11.0919
▁balanced	-11.0919
▁Chile	-11.0921
▁1933	-11.0925
▁Berlin	-11.0928
▁Kala	-11.0929
▁clubs	-11.093
▁20,	-11.0931
."*	-11.0934
▁ending	-11.0935
India	-11.0936
▁Medicine	-11.0938
▁funny	-11.0939
▁deposit	-11.0941
fish	-11.0945
▁differ	-11.0945
0)	-11.0946
hen	-11.0947
▁Zimbabwe	-11.095
▁Bra	-11.0952
▁pi	-11.0954
▁concluding	-11.0954
▁explosion	-11.0954
▁poets	-11.0956
▁Mis	-11.0956
▁Leave	-11.0956
pic	-11.0958
At	-11.0959
▁resource	-11.0959
▁yield	-11.096
▁sum	-11.0961
▁21,	-11.0962
▁stable	-11.0966
▁depending	-11.0967
▁assault	-11.0968
sanitary	-11.0968
five	-11.0968
pal	-11.097
▁Anderson	-11.0973
▁Recently	-11.0974
▁sensitive	-11.0975
jit	-11.0976
▁Amar	-11.0976
sky	-11.0979
▁Amin	-11.0982
▁municipal	-11.0985
▁1968	-11.0985
▁consisted	-11.0986
▁federal	-11.0987
▁trademark	-11.0988
▁abandon	-11.0993
▁claiming	-11.0994
▁reportedly	-11.0995
▁mighty	-11.0995
▁stages	-11.0995
▁Someone	-11.0998
▁bore	-11.0998
▁transform	-11.1
aries	-11.1002
▁Urban	-11.1004
▁shift	-11.1006
▁4:8	-11.1007
▁evolved	-11.1008
▁pace	-11.1009
▁designs	-11.1009
▁distinction	-11.101
▁guided	-11.1017
Con	-11.1017
▁requirement	-11.1018
▁foods	-11.1022
▁Mai	-11.1022
▁managing	-11.1023
▁Independent	-11.1024
hel	-11.1024
▁graduate	-11.1026
OR	-11.1027
▁assignments	-11.1029
▁tab	-11.1031
▁compound	-11.1032
was	-11.1034
▁spouse	-11.1036
▁fe	-11.1038
lai	-11.1038
▁1978	-11.1042
▁highlight	-11.1043
ix	-11.1047
5;	-11.105
under	-11.105
▁Seven	-11.1051
gri	-11.1051
▁Guinea	-11.1053
▁Things	-11.1055
▁communal	-11.1055
▁decorated	-11.1056
▁Titus	-11.1056
▁demonstrations	-11.1057
▁likewise	-11.1058
▁laugh	-11.1062
▁Shu	-11.1062
▁resigned	-11.1065
stra	-11.1068
▁28,	-11.1068
▁Text	-11.1068
▁hungry	-11.107
▁scholarship	-11.107
▁Shut	-11.1076
▁qualify	-11.1078
▁Cambridge	-11.1086
▁symptoms	-11.1087
gha	-11.1093
than	-11.1094
▁finds	-11.1096
):	-11.1097
▁correctly	-11.1097
▁gay	-11.1099
▁coconut	-11.1102
Md	-11.1105
mir	-11.1108
▁damn	-11.1109
▁10,000	-11.1111
▁uploaded	-11.1112
▁contacts	-11.1113
▁restricted	-11.1113
▁rebel	-11.1115
ther	-11.1116
▁ritual	-11.1116
▁handling	-11.1118
▁Mad	-11.1118
▁Khwaja	-11.1119
▁diverse	-11.1119
▁fortune	-11.1119
▁invisible	-11.1121
▁ranked	-11.1123
aq	-11.1124
▁increases	-11.1128
▁arguments	-11.1128
▁steal	-11.1129
▁besides	-11.113
▁CE	-11.1133
▁wings	-11.1133
▁organic	-11.1135
ele	-11.1135
▁Senior	-11.1135
rous	-11.1138
ches	-11.1142
▁Meghna	-11.1144
▁pal	-11.1145
▁Jahan	-11.1147
▁exception	-11.115
▁inherited	-11.1151
▁supervision	-11.1152
▁yeah	-11.1152
▁Degree	-11.1152
▁tourists	-11.1156
lay	-11.1161
▁vary	-11.1165
sia	-11.1166
▁Armed	-11.1166
▁attractive	-11.117
▁2.0	-11.117
▁Something	-11.1171
▁reasoning	-11.1172
ulation	-11.1174
▁produces	-11.1175
▁selfish	-11.1175
▁adequate	-11.1176
▁12:2	-11.1181
▁tropical	-11.1185
▁dancing	-11.1185
▁oath	-11.1186
mun	-11.1187
sim	-11.1187
▁shops	-11.1189
▁awake	-11.119
▁marketing	-11.1193
ox	-11.1194
▁reminder	-11.1195
Rev	-11.1195
▁cur	-11.1199
▁locked	-11.1199
▁Portugal	-11.1202
▁Likewise	-11.1203
▁Inspector	-11.1203
▁fruitage	-11.1205
▁anybody	-11.1206
cr	-11.1206
▁rational	-11.121
▁lasted	-11.1213
▁250	-11.1215
▁limitations	-11.1219
eem	-11.1219
▁Thursday	-11.1219
▁solidarity	-11.1219
▁Protests	-11.1219
▁scientist	-11.122
▁fired	-11.122
kal	-11.122
▁marine	-11.1221
▁transformed	-11.1222
▁interpretation	-11.1222
how	-11.1226
▁shell	-11.1232
▁dogs	-11.1232
▁violation	-11.1235
▁Marriage	-11.1236
▁viewpoint	-11.1238
▁lab	-11.1239
▁businesses	-11.1241
▁7)	-11.1247
▁Model	-11.1248
▁Reading	-11.125
▁merchants	-11.1251
▁ambassador	-11.1252
▁heartfelt	-11.1252
▁architectural	-11.1253
▁auxiliary	-11.1255
▁brave	-11.1255
▁Wales	-11.1256
gro	-11.1258
ock	-11.1267
▁disk	-11.1272
▁deaf	-11.1274
▁1934	-11.1275
▁generous	-11.1277
▁97	-11.1277
mes	-11.1279
▁prophetic	-11.1279
▁96	-11.1281
▁exert	-11.1281
▁char	-11.1281
▁Worship	-11.1286
▁4:4	-11.1286
ori	-11.1288
▁sees	-11.1289
▁Unknown	-11.1289
▁crossing	-11.1289
▁computers	-11.1293
▁1996,	-11.1294
els	-11.1294
▁Final	-11.1297
▁lift	-11.13
▁Answer	-11.1302
▁seasons	-11.1303
▁Maulana	-11.1303
▁Tehran	-11.1303
▁Husain	-11.1303
▁theories	-11.1304
▁mess	-11.1305
▁Angeles	-11.1307
▁Much	-11.1311
▁Self	-11.1312
Da	-11.1314
dies	-11.1317
2%	-11.1319
▁dominant	-11.132
▁kitchen	-11.132
▁merchant	-11.1321
▁Band	-11.1322
ologist	-11.1323
zan	-11.1325
▁authorized	-11.1325
Un	-11.1326
▁6:10	-11.1328
berg	-11.1328
▁folders	-11.1329
▁pool	-11.1329
▁ho	-11.133
▁Rio	-11.1333
▁Sanitation	-11.1337
▁artificial	-11.1337
▁JEHOVAH	-11.1338
▁bitter	-11.1338
zy	-11.1344
▁smooth	-11.1344
▁shallow	-11.1347
OC	-11.1348
▁1926	-11.1348
rn	-11.1348
▁models	-11.1351
▁Ed	-11.1352
ans	-11.1354
ssa	-11.1357
press	-11.1357
▁forming	-11.1357
▁beaten	-11.1358
▁joyful	-11.136
Your	-11.136
▁Amir	-11.1361
▁boss	-11.1362
▁Regional	-11.1362
▁Tam	-11.1363
▁Kim	-11.1364
▁cultivated	-11.1364
ique	-11.1368
▁periodicals	-11.1369
One	-11.137
▁Philip	-11.137
▁Vatican	-11.1371
▁wealthy	-11.1373
▁stem	-11.1374
▁cares	-11.1375
mate	-11.1378
shu	-11.1381
Pro	-11.1382
▁Municipal	-11.1386
▁weakness	-11.1387
▁distinguish	-11.1388
▁Murshidabad	-11.1388
▁pet	-11.139
dri	-11.1391
▁menu	-11.1392
level	-11.1397
▁Got	-11.1397
▁assets	-11.1398
▁Rama	-11.1398
▁Brahma	-11.1398
▁surrender	-11.1403
▁93	-11.1409
ration	-11.1409
▁2000,	-11.141
100	-11.1413
▁masses	-11.1413
▁tin	-11.1414
mann	-11.1414
pri	-11.1418
▁tweet	-11.1419
▁refugee	-11.1419
cs	-11.1419
▁boycott	-11.142
osa	-11.142
▁Along	-11.1422
▁Kerala	-11.1422
▁plenty	-11.1423
Li	-11.1424
▁recover	-11.1424
▁110	-11.1426
▁tu	-11.1426
▁Khalid	-11.1435
▁Faculty	-11.1439
▁pregnant	-11.1439
▁sequence	-11.1439
▁terror	-11.144
▁ownership	-11.144
▁Hassan	-11.1441
▁Gra	-11.1443
▁fees	-11.1444
▁mutual	-11.1447
plo	-11.1448
▁eggs	-11.1449
pet	-11.1451
▁mentions	-11.1454
▁mothers	-11.1455
▁Hyderabad	-11.1456
▁Bollywood	-11.1457
▁radiation	-11.1457
pin	-11.1457
▁Private	-11.1458
▁shifted	-11.1459
▁Lady	-11.146
▁latrine	-11.146
▁ties	-11.1461
Pa	-11.1461
▁crossed	-11.1463
▁criminals	-11.1463
▁somehow	-11.1465
▁dismissed	-11.1467
▁fer	-11.1469
May	-11.1472
▁staying	-11.1472
test	-11.1473
▁Mosaic	-11.1474
▁horror	-11.1474
▁preceding	-11.1474
▁Teabing	-11.1474
▁Religion	-11.1475
▁Gha	-11.1475
ked	-11.1477
▁civilians	-11.1478
▁chamber	-11.1478
▁regardless	-11.1478
▁Jas	-11.1478
▁Sat	-11.1478
▁cargo	-11.1479
▁Fair	-11.1481
▁Journal	-11.1486
▁warfare	-11.1491
▁Survey	-11.1491
ata	-11.1496
hour	-11.1497
▁searching	-11.1497
▁ob	-11.1499
9)	-11.15
▁twin	-11.15
two	-11.1503
▁Er	-11.1505
▁meaningful	-11.1505
▁volumes	-11.1506
BS	-11.1506
▁nose	-11.1506
output	-11.1508
▁Eventually	-11.1508
▁memories	-11.1508
▁stating	-11.151
▁Sarkar	-11.1511
▁declined	-11.1511
▁Gate	-11.1515
▁discern	-11.1515
▁ju	-11.1516
rang	-11.1517
▁Elizabeth	-11.1525
▁Lebanese	-11.1525
▁crore	-11.1529
-25	-11.1529
▁alien	-11.1532
▁peasants	-11.1532
▁Years	-11.154
▁closing	-11.1543
▁Mohamed	-11.1543
▁Dubai	-11.1544
▁inaugurated	-11.1545
▁Jamaat	-11.1545
▁Garden	-11.1549
▁Short	-11.1553
▁Compare	-11.1555
▁crack	-11.1558
▁Presidency	-11.156
▁premises	-11.1561
▁consciousness	-11.1563
▁Teacher	-11.1566
RA	-11.1567
▁Programme	-11.1571
ched	-11.1572
▁souls	-11.1575
▁Egyptians	-11.1575
▁Tra	-11.1575
▁prevalent	-11.1577
▁decree	-11.1581
▁mom	-11.1581
▁proportion	-11.1584
▁Tract	-11.1585
▁speakers	-11.1588
sol	-11.1594
▁Kun	-11.1594
has	-11.1596
related	-11.1597
▁belonged	-11.1603
▁disorder	-11.1603
▁29,	-11.1608
▁killer	-11.1612
▁Regiment	-11.1612
▁Actually	-11.1614
sum	-11.1619
▁Speaker	-11.162
cious	-11.1624
▁Saha	-11.1624
Com	-11.1626
tali	-11.1629
▁strategy	-11.163
▁confined	-11.1632
mw	-11.1632
3;	-11.1634
▁Bring	-11.1636
300	-11.1636
▁hoping	-11.1636
▁Anne	-11.1642
▁villagers	-11.1643
▁centers	-11.1643
▁Return	-11.1644
▁passion	-11.1646
▁loves	-11.1647
anga	-11.1647
▁SONGS	-11.1648
▁Tab	-11.1648
▁abundance	-11.1648
ption	-11.1648
▁Poland	-11.1649
▁2006.	-11.1656
▁27,	-11.1656
4;	-11.1657
▁nationalism	-11.166
▁faculty	-11.1665
▁Technical	-11.1665
▁reliable	-11.1665
▁Potter	-11.1666
▁accepting	-11.1666
▁Peru	-11.1666
▁slip	-11.1667
▁Often	-11.1669
▁seal	-11.1669
▁AIDS	-11.1671
▁98	-11.1672
▁apparent	-11.1673
▁rough	-11.1673
ees	-11.1678
▁actors	-11.168
economic	-11.1681
gam	-11.1682
▁verdict	-11.1682
▁equipped	-11.1682
▁brotherhood	-11.1684
▁partners	-11.1688
▁6:4	-11.1692
▁gr	-11.1694
member	-11.1695
parser	-11.1696
▁Game	-11.1699
▁extraordinary	-11.17
▁Tangail	-11.17
yu	-11.1701
▁pulse	-11.1701
▁oppose	-11.1702
▁upset	-11.1702
zar	-11.1702
▁joke	-11.1704
wing	-11.1706
▁Prior	-11.171
▁addresses	-11.1715
get	-11.1715
▁Role	-11.1716
Where	-11.1717
▁dialogue	-11.1717
").	-11.1719
▁Brunei	-11.1719
▁Cast	-11.1719
▁pitch	-11.1719
▁donated	-11.1721
▁cook	-11.1722
▁1927	-11.1724
nna	-11.1724
hati	-11.1726
▁Dead	-11.1726
▁103	-11.1729
▁nut	-11.1732
▁Workers	-11.1733
▁4:7	-11.1733
foot	-11.1735
▁Atlantic	-11.1735
▁rebels	-11.1737
▁cutting	-11.174
▁th	-11.1741
▁hoped	-11.1742
Ho	-11.1746
▁sole	-11.1748
▁arch	-11.1749
iq	-11.175
▁Moroccan	-11.1753
▁glance	-11.1753
▁Higher	-11.1755
▁employ	-11.1756
ao	-11.1759
▁Hard	-11.1761
▁lac	-11.1763
▁Gan	-11.1764
7;	-11.1765
▁prisoner	-11.1769
Ecclesiastes	-11.1769
▁ranking	-11.177
▁Invalid	-11.177
▁Aaron	-11.1772
pen	-11.1774
▁Chu	-11.1775
▁50%	-11.1777
▁2:2	-11.1779
▁sadar	-11.1779
▁fighter	-11.178
▁filter	-11.1781
▁Allah	-11.1786
▁Want	-11.1786
EL	-11.1788
▁electrification	-11.1788
▁Click	-11.1789
▁nominations	-11.179
▁excited	-11.179
ami	-11.179
▁announcements	-11.1791
▁depict	-11.1791
▁3:	-11.1791
▁1917	-11.1792
Fi	-11.1792
▁Irish	-11.1792
▁1981	-11.1795
▁desired	-11.1799
▁Mak	-11.18
more	-11.1802
▁peer	-11.1803
▁24:3	-11.1805
▁whenever	-11.1805
▁Cottage	-11.1806
▁Regarding	-11.1806
▁narrative	-11.1806
life	-11.1807
rr	-11.1807
▁bone	-11.1808
▁distinguished	-11.1808
▁divide	-11.1809
nation	-11.181
▁obstacles	-11.1811
▁definitely	-11.1812
tch	-11.1813
▁continuous	-11.1814
▁abolished	-11.1815
▁profound	-11.1815
▁volunteer	-11.1815
▁Question	-11.1816
▁tied	-11.1817
▁density	-11.1824
▁Secret	-11.1824
▁Path	-11.1825
▁civilization	-11.1827
▁cease	-11.1828
about	-11.1828
rie	-11.1829
▁unexpected	-11.1832
Se	-11.1832
▁allegedly	-11.1837
▁zamindari	-11.1837
mas	-11.1838
▁Works	-11.1841
▁summary	-11.1842
▁slavery	-11.1846
▁119	-11.1846
▁exceeding	-11.1849
▁towers	-11.1852
scale	-11.1852
▁progressive	-11.1854
nee	-11.1855
▁tail	-11.1856
▁Kabir	-11.1858
▁wire	-11.1859
▁academy	-11.1859
▁realm	-11.1859
▁Ground	-11.186
gor	-11.1861
▁Deep	-11.1862
▁manuscripts	-11.1866
▁conversations	-11.1869
▁northeast	-11.187
dhan	-11.1871
▁Nazi	-11.1874
▁Maharashtra	-11.1877
▁expenditure	-11.1877
▁supreme	-11.1877
▁admission	-11.1877
▁15)	-11.1878
▁(20	-11.1878
rad	-11.1879
▁Unit	-11.1879
lie	-11.1881
▁adapt	-11.1892
▁enjoying	-11.1892
new	-11.1893
▁patron	-11.1893
▁Jonathan	-11.1895
▁marvelous	-11.1896
▁Inc	-11.1896
IA	-11.1896
▁14:1	-11.1897
▁Tur	-11.1897
▁upright	-11.1898
▁developments	-11.19
Phil	-11.19
ught	-11.19
gin	-11.1907
Col	-11.1908
▁manufacturing	-11.1913
▁stuck	-11.1914
▁mono	-11.1914
▁Jose	-11.1917
▁affiliated	-11.1919
▁2019.	-11.1919
▁1991,	-11.1922
▁instant	-11.1923
▁1925	-11.1926
▁Sydney	-11.1931
▁vulnerable	-11.1931
▁intelligent	-11.1932
▁dealings	-11.1932
▁husbands	-11.1934
▁zero	-11.1934
▁ministerial	-11.1934
▁Almost	-11.1935
▁1924	-11.1941
▁keen	-11.1942
▁Americans	-11.1943
▁supplied	-11.1949
▁ISBN	-11.1949
▁Orissa	-11.1949
▁highlights	-11.1953
-24	-11.1957
BA	-11.1958
ros	-11.1959
azi	-11.196
▁wickedness	-11.196
▁Malik	-11.1961
▁tight	-11.1967
▁waves	-11.1969
▁tip	-11.1971
▁Fear	-11.1974
▁Environment	-11.1974
ET	-11.1978
▁appearing	-11.1984
▁Iqbal	-11.1985
▁licence	-11.1985
▁Denmark	-11.1985
▁Series	-11.1988
ved	-11.1992
▁FA	-11.1993
▁lights	-11.1993
▁Current	-11.1994
▁crying	-11.1995
▁miracles	-11.1996
rich	-11.1996
sti	-11.1996
▁strip	-11.1998
▁paragraphs	-11.2001
▁loans	-11.2002
▁Pay	-11.2003
▁prosperity	-11.2004
▁occupy	-11.2005
▁Faridpur	-11.2006
tus	-11.2009
6;	-11.2009
▁tone	-11.2013
pit	-11.2014
ces	-11.2015
udi	-11.2017
une	-11.2017
▁organize	-11.202
▁Caribbean	-11.2021
▁Wednesday	-11.2021
▁grey	-11.2023
▁5:14	-11.2024
▁couples	-11.2026
▁jo	-11.2027
▁|	-11.2027
▁tourist	-11.2031
▁Sai	-11.2031
▁abundant	-11.2032
▁fake	-11.2038
▁settlements	-11.2038
▁beast	-11.2039
▁Earlier	-11.204
▁Labour	-11.204
▁Russell	-11.204
▁Consequently	-11.2041
▁Chat	-11.2044
▁lovers	-11.2044
▁southeast	-11.2044
▁tank	-11.2046
▁Radha	-11.2046
▁Data	-11.2048
▁sustain	-11.2052
▁shadow	-11.2055
▁applicable	-11.2058
▁transit	-11.2058
▁Common	-11.206
▁Nehemiah	-11.2061
▁OK	-11.2061
▁forty	-11.2062
▁21.	-11.2066
▁Bro	-11.2067
▁lit	-11.2069
▁spell	-11.207
▁belt	-11.2072
▁Institution	-11.2074
ass	-11.2074
▁Switzerland	-11.2077
II	-11.2079
▁withdraw	-11.2079
▁Pass	-11.2084
ID	-11.2085
▁protecting	-11.2086
▁defeating	-11.2087
▁reflects	-11.2091
lah	-11.2092
▁passenger	-11.2092
▁client	-11.2093
▁Guru	-11.2093
▁survival	-11.2094
▁undeserved	-11.2094
matic	-11.21
pura	-11.21
ography	-11.2101
▁XI	-11.2101
▁Ara	-11.2102
rit	-11.2107
▁electrical	-11.2107
bir	-11.2107
▁vessel	-11.2111
▁references	-11.2112
▁photographer	-11.2113
dah	-11.2117
▁infected	-11.2118
ening	-11.2121
1)	-11.2122
uda	-11.2122
▁urgent	-11.2122
▁cheap	-11.2123
▁Math	-11.2125
cle	-11.2127
▁appearances	-11.2129
▁advertising	-11.2131
▁continent	-11.2133
▁cult	-11.2137
▁foreigners	-11.2137
▁Directorate	-11.2138
▁rear	-11.214
top	-11.214
bag	-11.2142
▁novelist	-11.2146
PA	-11.2146
▁Dur	-11.2148
▁17:3	-11.2148
▁reminds	-11.2149
▁quantum	-11.2149
▁applies	-11.2149
▁surgery	-11.215
ject	-11.215
▁Mitra	-11.2151
▁ranks	-11.2154
▁guns	-11.2155
▁Initially	-11.2156
▁Program	-11.2157
▁30,	-11.2158
▁lifestyle	-11.216
bn	-11.2161
▁convert	-11.2162
ude	-11.2164
arian	-11.2167
▁restoration	-11.2168
▁tribunal	-11.2168
▁relics	-11.2168
▁brac	-11.2168
▁poll	-11.217
▁Ser	-11.2173
▁Th	-11.2174
say	-11.2177
▁hanging	-11.218
▁historians	-11.2185
cri	-11.2185
▁substance	-11.2186
▁Columbia	-11.2186
▁Ownership	-11.2186
▁Munich	-11.2186
▁garment	-11.2187
▁Shan	-11.2188
▁rarely	-11.2188
▁readily	-11.2189
▁confused	-11.219
▁Cox	-11.2193
▁shoes	-11.2196
▁heading	-11.2202
▁openly	-11.2203
Galatians	-11.2205
▁consequence	-11.2205
▁threw	-11.2205
▁governance	-11.2206
▁Madhya	-11.2207
▁Girl	-11.221
▁artistic	-11.2211
▁sorts	-11.2213
▁exclusive	-11.2214
▁alphabet	-11.2218
▁archaeological	-11.2223
▁mirror	-11.2223
▁plastic	-11.2223
▁indication	-11.2223
try	-11.2225
▁highlighted	-11.2226
▁significantly	-11.223
▁span	-11.2234
▁colors	-11.2235
▁(12	-11.2236
nie	-11.2238
ree	-11.2239
election	-11.2239
▁procedures	-11.224
▁clock	-11.224
▁overseas	-11.2242
▁Colonel	-11.2242
▁incidents	-11.2243
▁layer	-11.2247
▁trusted	-11.2253
▁eleven	-11.2254
▁initiatives	-11.2254
▁midst	-11.2256
MS	-11.2257
▁receipt	-11.226
▁scope	-11.226
▁courtesy	-11.226
▁acknowledged	-11.2261
▁Corps	-11.2262
▁Win	-11.2262
▁download	-11.2264
▁input	-11.2267
three	-11.2267
▁choices	-11.2267
▁Cat	-11.2274
▁Guard	-11.2278
oi	-11.2279
▁Heritage	-11.2279
▁remnant	-11.2279
▁elevated	-11.2281
▁accessible	-11.2282
▁burnt	-11.2282
▁Moon	-11.2286
▁Santa	-11.2292
▁phones	-11.2294
pot	-11.2298
▁UNESCO	-11.2299
▁satisfying	-11.2299
▁Habib	-11.2301
play	-11.2303
ij	-11.2303
wer	-11.2304
▁celebrations	-11.2305
▁mm	-11.2305
▁100,000	-11.2305
▁fee	-11.2309
▁Oman	-11.2312
▁1999,	-11.2313
▁machines	-11.2316
▁Tuesday	-11.2316
▁privacy	-11.2316
▁Trophy	-11.2316
▁boundaries	-11.2317
▁tendency	-11.2317
▁Hasina	-11.2318
dor	-11.2319
▁ticket	-11.2319
sign	-11.232
▁guards	-11.2326
▁Tracts	-11.2328
▁2003,	-11.2333
▁equally	-11.2334
▁custody	-11.2335
▁landowner	-11.2336
▁feminist	-11.2336
lly	-11.234
▁nest	-11.2345
▁fleet	-11.2349
ibility	-11.2351
▁Physics	-11.2354
▁descent	-11.2354
▁assassination	-11.2355
▁graduation	-11.2355
▁3:5	-11.2358
Don	-11.2358
▁comfortable	-11.2363
▁1923	-11.2365
cc	-11.2369
▁Anglo	-11.237
▁12:1	-11.2371
▁nervous	-11.2373
▁absent	-11.2373
▁Sang	-11.2373
▁index	-11.2374
▁1965	-11.2375
▁pit	-11.2376
▁Date	-11.238
▁Timor	-11.2383
IR	-11.2383
▁Sufi	-11.2383
▁buying	-11.2386
▁panic	-11.2388
▁Tor	-11.2389
▁Color	-11.239
▁elaborate	-11.2391
▁tragic	-11.2391
▁swear	-11.2392
▁Bala	-11.2395
▁scripture	-11.2396
▁Eight	-11.2396
▁perfectly	-11.2399
▁Sit	-11.24
▁eliminate	-11.2401
▁respected	-11.2402
▁donations	-11.2402
▁convey	-11.2403
▁commissioner	-11.2403
▁generated	-11.2405
▁customers	-11.2406
▁updates	-11.2407
bound	-11.2409
▁strategic	-11.241
▁fierce	-11.241
aki	-11.241
▁quantity	-11.2411
▁rainfall	-11.2411
▁Principal	-11.2411
▁mayor	-11.2411
▁browser	-11.2412
▁recommendations	-11.2417
merely	-11.2422
▁hosts	-11.2423
▁bones	-11.2423
rag	-11.2429
▁breast	-11.2429
▁wilderness	-11.2429
▁reads	-11.243
▁Blood	-11.2432
▁Map	-11.2433
▁explaining	-11.244
▁achievements	-11.2443
▁Tibet	-11.2444
▁mood	-11.2446
▁Bon	-11.2446
ack	-11.2447
▁sugarcane	-11.2448
lit	-11.2448
▁connecting	-11.2449
▁2001.	-11.2453
▁merit	-11.2457
▁Currently	-11.2458
▁urge	-11.2459
Well	-11.246
▁Princess	-11.2463
▁humanitarian	-11.2467
▁necessarily	-11.2467
▁poultry	-11.2467
▁smoking	-11.2467
▁terracotta	-11.2467
▁protocol	-11.2467
▁Tajikistan	-11.2468
tai	-11.2472
▁wards	-11.2472
▁convicted	-11.2473
▁amounts	-11.2473
▁transition	-11.2475
▁membership	-11.2475
▁comply	-11.2476
▁naturally	-11.2482
▁badly	-11.2486
▁meditation	-11.2486
▁imagined	-11.2487
▁northwest	-11.2487
▁Space	-11.2489
9;	-11.2489
▁GV	-11.2491
▁5:1	-11.2491
▁dealt	-11.2491
▁1912	-11.2492
▁Enable	-11.2493
▁achievement	-11.2495
▁Bhu	-11.2497
Eph	-11.2498
▁Region	-11.2499
▁Apple	-11.2499
▁Bri	-11.2501
▁poultries	-11.2505
▁scandal	-11.2505
wl	-11.2506
▁rituals	-11.2508
▁motivate	-11.251
▁suppose	-11.251
▁incorporated	-11.2511
▁obligation	-11.2511
kindness	-11.2513
▁Gri	-11.2519
▁deeper	-11.2519
▁willingly	-11.2521
▁egg	-11.2523
▁Pharaoh	-11.2524
▁Sovereign	-11.2524
▁51%	-11.2525
▁Chennai	-11.2525
▁clause	-11.2527
▁Tests	-11.2527
▁Hal	-11.2527
▁tough	-11.2528
▁hi	-11.253
▁Bor	-11.2532
▁2,000	-11.2534
▁Cuba	-11.2538
▁Qua	-11.2541
cer	-11.2543
▁crucial	-11.2543
▁Brahmaputra	-11.2545
▁Manager	-11.2546
▁1945	-11.2548
▁tourism	-11.2549
▁physician	-11.255
▁jam	-11.2553
▁translations	-11.2556
▁landed	-11.2558
▁shi	-11.2561
▁enthusiasm	-11.2563
▁Hannah	-11.2563
St	-11.2564
▁bowling	-11.2565
▁boundary	-11.2565
▁healing	-11.2566
▁campaigns	-11.2567
▁1900	-11.2569
▁technique	-11.2569
▁recipient	-11.257
▁soap	-11.257
▁carbon	-11.2571
▁dairies	-11.2582
▁modified	-11.2582
▁phenomenon	-11.2582
▁shield	-11.2582
▁gaining	-11.2582
UN	-11.2582
ically	-11.2582
▁preferred	-11.2583
▁countless	-11.2584
▁Remove	-11.2584
▁treaty	-11.2584
▁components	-11.2586
▁Down	-11.2593
▁bid	-11.2596
▁(6)	-11.2597
▁tested	-11.2599
Our	-11.26
ending	-11.26
▁confusion	-11.2601
▁tracks	-11.2602
including	-11.2602
▁Planning	-11.2602
▁Yemeni	-11.2603
▁recovered	-11.2604
bol	-11.2604
▁1:5	-11.2607
▁requests	-11.2607
▁miracle	-11.2609
▁saint	-11.2609
▁lakh	-11.2609
▁Kot	-11.2609
▁seized	-11.2612
▁ch	-11.2614
▁Embassy	-11.2615
▁Need	-11.2616
▁Fall	-11.2618
▁fails	-11.262
▁Numbers	-11.2622
▁Around	-11.2627
wn	-11.2632
▁traders	-11.2633
▁Chatterjee	-11.264
▁assurance	-11.264
▁Watson	-11.264
▁Living	-11.264
eo	-11.2641
▁neighboring	-11.2644
bert	-11.2646
ova	-11.2648
▁Cap	-11.265
▁percentage	-11.265
-28	-11.265
▁Ron	-11.2653
zu	-11.2658
▁faster	-11.2659
▁Metropolitan	-11.2659
▁entity	-11.2659
▁Camp	-11.266
▁Noakhali	-11.266
▁asleep	-11.2661
.[	-11.2662
▁dynamic	-11.2662
▁painted	-11.2663
▁Af	-11.2663
ign	-11.2664
▁7:9	-11.2665
▁organ	-11.2665
▁(13	-11.2666
▁communications	-11.2666
▁3)	-11.2672
tem	-11.2676
▁trace	-11.2677
▁Testament	-11.2678
▁Elections	-11.2678
▁craft	-11.2678
AS	-11.268
▁voluntary	-11.268
2;	-11.2681
ili	-11.2682
las	-11.2682
▁bath	-11.2684
icide	-11.2688
▁temptation	-11.2688
▁Hol	-11.2689
▁600	-11.269
▁spirituality	-11.269
▁ft	-11.2691
▁receives	-11.2693
▁lists	-11.2693
▁critic	-11.2693
▁secured	-11.2693
▁Ecuador	-11.2695
▁foolish	-11.2696
▁shine	-11.2697
▁Community	-11.2698
▁preservation	-11.27
away	-11.27
▁52%	-11.2703
ell	-11.2705
oid	-11.2707
▁observation	-11.2707
AP	-11.2709
▁county	-11.2709
▁climb	-11.2713
▁kilometers	-11.2714
▁29.	-11.2715
▁corporate	-11.2717
▁neglect	-11.2717
▁ghost	-11.2717
▁Chha	-11.2726
▁approaching	-11.2728
▁ti	-11.2728
▁Kur	-11.2735
▁Hai	-11.2735
▁Microsoft	-11.2737
▁Trinity	-11.2737
rul	-11.2737
▁salary	-11.2738
kov	-11.2738
Gu	-11.2739
▁insert	-11.2741
west	-11.2741
▁1911	-11.2742
▁compromise	-11.2742
▁handled	-11.2746
▁champion	-11.2747
▁administrator	-11.2748
aria	-11.2749
▁deity	-11.2749
▁connections	-11.2751
▁dwell	-11.2752
▁wheel	-11.2753
▁container	-11.2753
▁17)	-11.2755
bus	-11.2756
▁stored	-11.2757
▁inclined	-11.2759
aya	-11.276
▁23.	-11.2761
▁generate	-11.2763
nam	-11.2764
▁associates	-11.2766
▁paint	-11.2766
▁Sound	-11.2767
qi	-11.2767
▁riot	-11.2767
power	-11.277
eer	-11.277
▁AH	-11.2772
▁spirits	-11.2773
▁possessions	-11.2773
ular	-11.2775
▁Writing	-11.2776
▁cuisine	-11.2776
▁theocratic	-11.2776
▁stepped	-11.2777
MC	-11.2778
tak	-11.2779
▁Israelite	-11.2779
▁announce	-11.278
▁bay	-11.2781
▁parable	-11.2781
▁Haji	-11.2783
▁Task	-11.2784
▁excessive	-11.2787
▁guardian	-11.2787
▁Emirates	-11.2787
khi	-11.279
▁driven	-11.2792
▁designer	-11.2792
▁Um	-11.2794
▁behaviour	-11.2795
▁pregnancy	-11.2795
▁Organisation	-11.2796
▁Comp	-11.2797
asi	-11.2801
▁outbreak	-11.2802
coming	-11.2808
▁formally	-11.2808
▁fed	-11.2808
▁journals	-11.281
▁regulation	-11.281
▁partly	-11.2811
hur	-11.2812
▁argue	-11.2813
▁1961	-11.2814
▁pursuing	-11.2815
▁garments	-11.2815
▁stability	-11.2815
▁Baba	-11.2817
▁disabled	-11.2821
▁ancestors	-11.2822
▁lamp	-11.2826
▁consistent	-11.2826
▁restaurant	-11.2827
▁attachment	-11.2828
▁legislation	-11.2835
▁maternal	-11.2835
▁WORD	-11.2835
▁dawn	-11.2835
▁Durga	-11.2835
▁adultery	-11.2835
▁Export	-11.2836
▁Armageddon	-11.2836
▁expectations	-11.2838
ean	-11.2842
▁Vo	-11.2843
meter	-11.2844
▁Mango	-11.2845
▁desk	-11.2846
▁delegation	-11.2854
▁jackfruit	-11.2854
▁coalition	-11.2855
mohan	-11.2858
▁Dec	-11.2864
▁Sign	-11.2866
Is	-11.2868
▁reaches	-11.2869
▁instructed	-11.2869
▁adjust	-11.2869
▁ru	-11.2872
▁escaped	-11.2874
▁Announcements	-11.2874
▁Cantonment	-11.2874
▁ram	-11.2875
▁posting	-11.2876
▁consumer	-11.2877
▁2020	-11.2878
▁lu	-11.2878
▁Gul	-11.288
▁48%	-11.288
▁Maj	-11.2885
▁130	-11.2885
rum	-11.2886
▁dies	-11.2888
uf	-11.289
▁4:1	-11.2891
lus	-11.2891
▁uprising	-11.2894
▁featuring	-11.2894
▁blast	-11.2895
▁Biblical	-11.2895
▁rulership	-11.2896
▁fond	-11.2896
ect	-11.2896
▁101	-11.2897
-26	-11.2897
▁dhaka	-11.2898
▁invented	-11.2901
▁jet	-11.2903
▁fairly	-11.2906
▁missions	-11.2908
bla	-11.2913
▁grows	-11.2914
▁Country	-11.2915
▁Always	-11.2918
▁Plant	-11.2921
▁virtually	-11.2923
▁heed	-11.2928
▁commandments	-11.2929
AT	-11.2929
▁Bachelor	-11.2934
▁stomach	-11.2934
▁Almighty	-11.2934
▁shirt	-11.2941
relatively	-11.2948
▁Ball	-11.2949
▁talent	-11.2949
▁encourages	-11.2953
▁Landowner	-11.2954
▁framework	-11.2954
▁grammar	-11.2954
▁depicted	-11.2955
▁reader	-11.2961
etic	-11.2963
▁11:1	-11.2966
▁supports	-11.2968
nia	-11.2968
▁angle	-11.2968
tern	-11.2971
▁voters	-11.2971
rap	-11.2973
▁floodplain	-11.2974
IP	-11.2974
▁cooperate	-11.2974
▁testing	-11.2975
▁scoring	-11.2976
▁puts	-11.2979
▁benefited	-11.2981
▁commands	-11.2983
▁directions	-11.2986
worth	-11.2988
▁specify	-11.299
Vi	-11.2991
▁25.	-11.2991
▁testimony	-11.2994
▁Hills	-11.2994
▁courtyard	-11.2994
▁Bangali	-11.2997
love	-11.2997
▁Indians	-11.2999
▁Sunni	-11.3001
being	-11.3005
▁undergo	-11.3006
ski	-11.3009
▁Transport	-11.3012
arch	-11.3014
▁(2012)	-11.3014
▁grandmother	-11.3014
▁Operation	-11.3014
▁dozen	-11.3016
ich	-11.3016
▁Juan	-11.3021
▁104	-11.3023
Now	-11.3024
▁gentle	-11.3024
dom	-11.3026
▁Ek	-11.3026
▁mustard	-11.3027
"),	-11.3029
lim	-11.3033
▁metropolitan	-11.3034
eu	-11.3034
lee	-11.3041
Ca	-11.3041
▁hence	-11.3043
hana	-11.3046
▁attitudes	-11.3046
▁efficient	-11.3048
▁ruins	-11.3049
▁marriages	-11.3051
▁mix	-11.3053
▁curriculum	-11.3054
▁Telugu	-11.3054
▁serial	-11.3054
▁Hussein	-11.3055
▁Tony	-11.3059
▁coin	-11.3059
ls	-11.306
She	-11.3061
▁portrayed	-11.3061
NS	-11.3061
ddle	-11.3063
▁35.	-11.3067
▁vocal	-11.3069
▁snake	-11.3071
▁(2011)	-11.3074
▁pat	-11.3076
▁Copy	-11.3076
Not	-11.3077
▁purchased	-11.3078
0%	-11.3081
▁2002,	-11.3084
▁influences	-11.3085
▁collecting	-11.3086
▁Alo	-11.3087
▁106	-11.3089
▁chart	-11.3092
▁feast	-11.3095
anti	-11.3095
▁southwest	-11.3095
▁Ayub	-11.3097
mati	-11.3097
▁enhance	-11.3099
▁database	-11.31
▁chi	-11.31
four	-11.3103
fire	-11.3103
mani	-11.3105
▁dare	-11.3105
▁expenses	-11.3106
▁reviews	-11.311
▁reflection	-11.311
▁oral	-11.3112
▁Gun	-11.3112
▁Ambassador	-11.3114
▁drove	-11.3114
▁Grameenphone	-11.3114
▁Title	-11.3115
ages	-11.3121
liness	-11.3125
▁advised	-11.3127
▁2005.	-11.3129
▁unrest	-11.3133
▁choosing	-11.3135
▁conspiracy	-11.3135
▁monastery	-11.3135
▁blogosphere	-11.3135
nate	-11.3135
▁flooding	-11.3136
▁Francisco	-11.3136
▁inspection	-11.3137
▁monsoon	-11.3137
Look	-11.3137
▁traditionally	-11.3137
▁zamindar	-11.3137
rew	-11.3139
▁Market	-11.3141
▁Link	-11.3146
PL	-11.3146
▁dome	-11.3147
▁pipe	-11.3149
▁creature	-11.3153
▁thread	-11.3154
▁Energy	-11.3155
▁breakfast	-11.3155
▁conservation	-11.3155
▁Ashraf	-11.3156
▁2:4	-11.3156
ool	-11.3156
cast	-11.3158
▁Surely	-11.3161
▁voted	-11.3162
▁Anwar	-11.3162
▁owe	-11.3169
▁beings	-11.3169
▁14)	-11.317
▁sculpture	-11.3174
▁infection	-11.3174
▁Francis	-11.3175
▁draws	-11.3175
▁Junior	-11.3175
▁striking	-11.3175
▁considers	-11.3179
gate	-11.3179
▁Ganga	-11.3182
▁worldly	-11.3184
▁warn	-11.3184
▁Readers	-11.3184
▁athletes	-11.3184
dev	-11.3189
och	-11.3191
▁Too	-11.3191
▁rocks	-11.3192
▁insects	-11.3192
▁Khu	-11.3193
▁Hay	-11.3193
▁anonymous	-11.3196
▁strikes	-11.3198
▁Ambra	-11.3198
▁tribute	-11.3198
IL	-11.32
▁scattered	-11.3202
▁theater	-11.3204
▁clan	-11.3205
▁Shia	-11.3206
del	-11.3207
▁consist	-11.3208
dad	-11.3209
▁Delete	-11.3212
▁Rohingya	-11.3216
▁defence	-11.3216
▁perception	-11.3216
pati	-11.3216
▁submission	-11.3217
▁donation	-11.3217
▁Default	-11.3218
▁skilled	-11.3222
▁dating	-11.3223
▁lowest	-11.3224
By	-11.3224
rated	-11.3225
▁Pen	-11.3228
ges	-11.3228
uj	-11.3229
▁Present	-11.3229
▁(2006)	-11.3237
▁Capital	-11.3237
▁imagination	-11.3237
▁withdrew	-11.3237
▁Sing	-11.3237
▁conversion	-11.3237
▁PhD	-11.3239
AC	-11.324
▁Rice	-11.3241
▁lyrics	-11.3243
▁convince	-11.3243
▁140	-11.3247
▁prohibited	-11.3252
▁Java	-11.3254
▁proceeded	-11.3255
▁fraud	-11.3257
▁tremendous	-11.3257
▁boast	-11.3257
▁occurrence	-11.3257
▁basically	-11.326
▁advancement	-11.3261
▁Chan	-11.3263
▁lots	-11.3266
▁Thousands	-11.3266
▁ages	-11.327
▁intimate	-11.327
yer	-11.3272
iah	-11.3273
▁motives	-11.3276
▁colleagues	-11.3276
▁exciting	-11.3278
▁Jinnah	-11.3278
▁Choose	-11.3278
▁philosopher	-11.3278
▁describing	-11.3278
▁betel	-11.3279
▁Ren	-11.328
keep	-11.3282
▁politically	-11.3285
▁compris	-11.3286
▁enables	-11.3287
▁Macedonia	-11.3291
ient	-11.3298
fold	-11.3298
▁Course	-11.3298
▁migration	-11.3301
lt	-11.3302
▁poly	-11.3302
▁vain	-11.3308
▁fifteen	-11.3316
▁autonomous	-11.3318
▁corridor	-11.3319
▁Summit	-11.3319
tation	-11.3321
▁Phone	-11.3321
ulate	-11.3323
Jo	-11.3324
▁dressed	-11.3325
▁dangers	-11.3326
▁None	-11.3328
▁severely	-11.3329
1;	-11.333
face	-11.333
▁Jane	-11.3331
▁sciences	-11.3333
rick	-11.3335
▁declaring	-11.334
▁summit	-11.3341
▁bottle	-11.3342
▁exhibition	-11.3343
Indian	-11.3343
▁varied	-11.3346
▁Rana	-11.3347
▁Face	-11.3349
▁Mur	-11.335
▁Com	-11.3351
hon	-11.3352
▁shortage	-11.3352
OS	-11.3353
bil	-11.3355
▁rage	-11.3356
word	-11.3357
-31	-11.3357
▁republic	-11.3357
▁Alliance	-11.3361
▁Background	-11.3361
rian	-11.3361
▁harassment	-11.3361
▁Sahitya	-11.3362
▁proceeding	-11.3362
▁Mid	-11.3364
▁Malaysian	-11.3365
▁hunting	-11.3366
▁weekend	-11.3366
▁sphere	-11.3366
▁orbit	-11.3369
▁advocate	-11.3369
rant	-11.337
▁Jim	-11.3376
▁Sadly	-11.3376
▁Edit	-11.3377
▁lips	-11.3377
▁conform	-11.3379
▁crowds	-11.3381
▁surviving	-11.3381
▁Chamber	-11.3382
▁22.	-11.3384
▁Kill	-11.3386
▁portal	-11.3387
▁Making	-11.339
oma	-11.3395
▁immigrants	-11.3396
▁pane	-11.3398
ob	-11.3399
▁Mecca	-11.3403
▁Protestant	-11.3404
▁citizenship	-11.3404
▁thankful	-11.3404
▁Sato	-11.3407
▁discouraged	-11.3408
this	-11.341
▁1905	-11.341
▁180	-11.3411
▁Additional	-11.3414
fin	-11.3414
hold	-11.3415
▁Op	-11.3415
▁insect	-11.3418
▁Puerto	-11.3423
▁Room	-11.3425
National	-11.3425
nda	-11.3426
▁architect	-11.3426
mus	-11.3426
▁nurse	-11.3426
eries	-11.3427
▁platforms	-11.3432
▁outlook	-11.3432
▁virtual	-11.3435
▁stores	-11.3436
▁funding	-11.3439
good	-11.3441
▁ga	-11.3441
▁failing	-11.3442
▁competed	-11.3443
▁legislative	-11.3444
▁Defense	-11.3444
▁Marvel	-11.3445
▁competitive	-11.3445
▁update	-11.3445
▁Excuse	-11.3446
▁mining	-11.3449
▁recommend	-11.345
▁inherit	-11.3452
▁Punjabi	-11.3454
▁Joint	-11.346
▁Austria	-11.3461
▁Nag	-11.3463
▁1910	-11.3464
▁flour	-11.3464
▁mathematical	-11.3465
▁Banga	-11.3466
▁Micah	-11.3469
▁Jai	-11.347
▁reap	-11.3473
▁20)	-11.3477
lio	-11.3477
pl	-11.3479
▁Cal	-11.3483
▁Fellow	-11.3486
▁knife	-11.3486
▁naval	-11.3486
▁unemployment	-11.3487
▁Bob	-11.3487
▁Step	-11.3487
▁taxi	-11.349
▁Sultanate	-11.3491
▁farming	-11.3491
▁investigate	-11.3493
▁lawyers	-11.3494
▁deities	-11.3496
▁exclusively	-11.3497
▁homeland	-11.3498
▁1983.	-11.35
▁musician	-11.3505
lessness	-11.3506
▁eldest	-11.3507
▁bishop	-11.3507
▁defect	-11.3508
CA	-11.3511
▁pushed	-11.3515
▁Honor	-11.3515
▁teenager	-11.3515
▁beach	-11.3516
▁cried	-11.3518
▁greed	-11.3521
TA	-11.3528
▁Magistrate	-11.3528
▁furniture	-11.3528
▁Airlines	-11.3528
fall	-11.353
▁click	-11.353
Lo	-11.3531
▁Ghat	-11.3531
▁:-	-11.3534
khan	-11.3534
▁Form	-11.3535
▁Chak	-11.3536
▁toilet	-11.3537
▁Additionally	-11.3538
▁prevented	-11.3546
▁traits	-11.3546
▁Scientific	-11.3549
▁discourse	-11.355
▁believing	-11.3551
▁Print	-11.3551
▁discusses	-11.3552
▁Shahi	-11.3552
▁visa	-11.3556
▁fabric	-11.3556
▁3,000	-11.3563
lands	-11.3563
▁wash	-11.3565
▁Nan	-11.3568
{	-11.357
▁completing	-11.357
▁Website	-11.357
▁quarrel	-11.357
▁apple	-11.3571
▁landscape	-11.3571
▁z	-11.3571
alia	-11.3572
▁shouldn	-11.3573
cker	-11.3582
nel	-11.3582
▁obviously	-11.3585
scribe	-11.3587
▁pest	-11.3589
▁ge	-11.359
▁Kon	-11.359
▁ignored	-11.3592
▁Athens	-11.3592
▁programming	-11.3594
▁chemistry	-11.3594
▁lifted	-11.3595
ute	-11.3596
▁endless	-11.36
▁Ras	-11.361
uv	-11.3612
▁cane	-11.3613
▁Bhattacharya	-11.3613
▁questioned	-11.3613
▁charity	-11.3615
headed	-11.3616
▁thoroughly	-11.362
▁associations	-11.3621
▁chap	-11.3625
▁logic	-11.363
dec	-11.3631
▁suspected	-11.3631
ashi	-11.3633
▁Caucasus	-11.3634
▁proverb	-11.3634
▁Financial	-11.3634
▁mystery	-11.3634
▁(2010)	-11.3634
▁Challenge	-11.3635
▁Were	-11.3635
▁offensive	-11.3636
▁pars	-11.364
▁Greater	-11.3643
▁characteristic	-11.3644
▁Ken	-11.3645
▁Bab	-11.3649
chand	-11.3651
▁lean	-11.3652
▁mob	-11.3654
▁Swedish	-11.3656
▁dried	-11.3656
▁clever	-11.3656
▁Section	-11.3657
▁Stock	-11.3657
nder	-11.3658
▁unlike	-11.3659
poli	-11.3659
LE	-11.3662
▁Fuck	-11.3662
▁enacted	-11.3662
nya	-11.3667
▁Marie	-11.3668
▁courageous	-11.3671
▁deserve	-11.3672
▁pale	-11.3672
▁Ang	-11.3675
▁arose	-11.3675
▁(2013)	-11.3677
▁Rajasthan	-11.3677
▁bilateral	-11.3677
▁steam	-11.3685
▁hired	-11.3686
master	-11.3687
▁fu	-11.3691
table	-11.3692
vel	-11.3692
▁ver	-11.3695
▁Libya	-11.3696
▁Banerjee	-11.3699
▁reception	-11.3699
://	-11.3699
▁anchor	-11.3699
▁enforcement	-11.37
▁burst	-11.3701
▁inscriptions	-11.3701
▁invention	-11.3701
▁repeat	-11.3704
▁Sindh	-11.3705
khar	-11.3706
▁cyclone	-11.3707
▁mainland	-11.371
▁Kara	-11.371
▁kilometres	-11.3711
rani	-11.3711
▁letting	-11.3718
▁disappointment	-11.372
▁6)	-11.3721
▁discernment	-11.3722
▁Sharma	-11.3722
▁Former	-11.3723
▁carries	-11.3723
▁feared	-11.3726
▁adaptation	-11.3726
▁distribute	-11.3728
▁productive	-11.3728
▁tar	-11.3731
mala	-11.3731
▁Rao	-11.3738
▁patterns	-11.3738
osh	-11.3738
ici	-11.3739
▁hurry	-11.3742
▁refrain	-11.3742
▁struggling	-11.3742
non	-11.3744
▁Student	-11.3745
▁BNP	-11.3747
▁bears	-11.375
BC	-11.3751
▁160	-11.3751
▁ultimate	-11.3754
thy	-11.3755
▁guilt	-11.3756
▁endured	-11.3758
▁filmmaker	-11.376
▁Nation	-11.376
▁Burn	-11.3763
▁Oil	-11.3763
▁rectangular	-11.3763
▁communist	-11.3763
▁Won	-11.3764
▁trash	-11.3766
▁kick	-11.3766
▁disappointed	-11.3768
burg	-11.3768
▁procession	-11.3769
▁targeted	-11.3769
▁2018-19	-11.3769
bas	-11.377
▁Doing	-11.3771
▁pointing	-11.3773
▁Nationalist	-11.3775
▁substantial	-11.3777
▁disputes	-11.378
▁rope	-11.3781
door	-11.3781
▁Belgium	-11.3785
▁Vittoria	-11.3785
▁vault	-11.3785
▁Prison	-11.3786
▁pu	-11.3788
ett	-11.3788
▁Carl	-11.3791
▁upcoming	-11.3796
▁immense	-11.3797
▁(2007)	-11.38
▁diversity	-11.3807
▁Polish	-11.3807
▁playground	-11.3808
▁Discussion	-11.3808
▁Silas	-11.381
▁1913	-11.3812
▁loaded	-11.3814
▁keys	-11.3816
▁1908	-11.3818
▁Journalist	-11.3824
▁Abel	-11.3825
minute	-11.3825
owned	-11.3826
Din	-11.3826
▁Pennsylvania	-11.3828
▁engaging	-11.3828
▁abstract	-11.3828
▁Karnataka	-11.3828
▁Reza	-11.383
▁Arabian	-11.3833
py	-11.3833
▁Tibetan	-11.3835
pla	-11.3836
▁sultan	-11.3838
▁landing	-11.3839
▁eaten	-11.384
▁rein	-11.3841
▁meantime	-11.3843
▁Abbas	-11.3843
▁cu	-11.3846
SS	-11.3848
wise	-11.3848
▁sovereign	-11.3849
▁Bangalore	-11.385
▁Palanquin	-11.385
▁serpent	-11.385
▁psychological	-11.385
▁Taylor	-11.385
▁conferred	-11.385
▁simultaneously	-11.3852
▁offense	-11.3852
▁trigger	-11.3853
rak	-11.3855
▁Guide	-11.3856
lat	-11.3857
▁approve	-11.3858
isa	-11.3858
▁login	-11.3858
▁SR	-11.3858
▁fingers	-11.3859
%)	-11.3859
uch	-11.386
▁pursuit	-11.3862
Lok	-11.3862
sel	-11.3866
▁pin	-11.3867
▁clergy	-11.3868
▁moderate	-11.3871
cate	-11.3871
▁satisfy	-11.3871
▁Calendar	-11.3872
▁prominence	-11.3872
▁(2005)	-11.3872
▁committees	-11.3873
▁Unfortunately	-11.3873
▁Winston	-11.3873
▁winds	-11.3874
▁Demotix	-11.3874
▁Below	-11.3875
▁expose	-11.3876
SM	-11.3877
▁legally	-11.3879
▁Fish	-11.388
AM	-11.3881
▁perceived	-11.3881
dhu	-11.3881
▁Leviticus	-11.3882
▁graphic	-11.3883
hum	-11.3885
▁comic	-11.3889
▁Jay	-11.3891
▁Bali	-11.3892
▁proclaim	-11.3892
▁observing	-11.3894
given	-11.3896
▁3:2	-11.3898
▁infant	-11.3906
▁Said	-11.3907
▁reside	-11.3908
▁5:12	-11.391
▁welcomed	-11.391
▁ark	-11.3914
▁proclaimed	-11.3915
▁Together	-11.3916
▁acquisition	-11.3916
▁departure	-11.3916
▁abortion	-11.3917
▁http	-11.3917
▁Cur	-11.3919
▁5:8	-11.3919
▁Moh	-11.3921
▁cor	-11.3921
▁Account	-11.3922
dhar	-11.3923
▁longest	-11.3925
▁Rule	-11.3927
hik	-11.3928
▁curse	-11.393
On	-11.3932
elecommunication	-11.3935
hang	-11.3936
▁TREASURE	-11.3938
▁Trinamool	-11.3938
▁electoral	-11.3938
▁observance	-11.3938
▁separation	-11.3938
▁siege	-11.3938
▁improving	-11.3938
▁(2008)	-11.3938
▁leap	-11.3939
▁interface	-11.3939
▁decoration	-11.3939
▁Money	-11.3941
ON	-11.3941
▁throat	-11.3941
▁Eli	-11.3945
hab	-11.3945
▁7:1	-11.3946
▁feeding	-11.3947
▁Hor	-11.3948
▁Tro	-11.3952
▁Omar	-11.3953
▁comforting	-11.3955
▁Beel	-11.396
▁Qualifier	-11.396
▁leather	-11.396
▁grip	-11.3961
▁Sister	-11.3963
▁cream	-11.3965
kul	-11.3966
▁Large	-11.3966
▁decrease	-11.3968
▁epic	-11.3968
tara	-11.3969
▁1915	-11.3971
▁peasant	-11.3972
▁13)	-11.3973
▁tide	-11.3973
▁Saud	-11.3975
▁spaces	-11.3979
acy	-11.3981
▁shade	-11.3981
▁Orthodox	-11.3982
▁Pentecost	-11.3982
▁125	-11.3987
▁Records	-11.3987
▁mon	-11.3988
▁metro	-11.3989
▁perfection	-11.3992
▁backward	-11.3994
hani	-11.3996
▁weigh	-11.3996
▁san	-11.3999
▁12)	-11.3999
▁consecutive	-11.4004
▁formula	-11.4004
▁disposal	-11.4005
▁Chemistry	-11.4005
vid	-11.4006
tya	-11.4007
▁alarm	-11.4007
Christian	-11.4009
▁enrolled	-11.401
▁Teaching	-11.4012
▁ID	-11.4012
DA	-11.4018
▁shrine	-11.4019
ugh	-11.402
▁rap	-11.4025
▁Sealdah	-11.4026
▁Movie	-11.4027
ken	-11.4027
los	-11.4028
▁undertaken	-11.403
▁Pop	-11.4033
▁Ce	-11.4033
▁floating	-11.4035
▁Caesar	-11.4035
▁fold	-11.4041
ill	-11.4043
▁Care	-11.4043
▁bail	-11.4045
phone	-11.4045
OL	-11.4045
▁Document	-11.4046
▁Pabna	-11.4048
▁hasn	-11.4049
▁sung	-11.4049
▁Knight	-11.405
▁Sol	-11.4053
▁Gas	-11.4053
town	-11.4054
▁compiled	-11.4054
▁embrace	-11.4056
▁Max	-11.4057
Come	-11.4059
▁PM	-11.406
cap	-11.4061
▁8:1	-11.4062
-27	-11.4066
▁dec	-11.4068
▁Cyprus	-11.4071
▁dictionary	-11.4071
▁exercising	-11.4071
▁temporarily	-11.4071
▁paddy	-11.4071
▁CEO	-11.4072
▁Sikh	-11.4079
▁4:11	-11.408
▁literal	-11.4085
tum	-11.4085
▁reporter	-11.4086
▁succession	-11.4086
ui	-11.4091
▁technologies	-11.4093
rab	-11.4094
cio	-11.4097
▁sheet	-11.41
▁elect	-11.4103
cum	-11.4103
pha	-11.4108
▁interviewed	-11.4108
▁strengthening	-11.4109
-23	-11.4114
may	-11.4114
▁concrete	-11.4115
▁Choudhury	-11.4115
▁Industry	-11.4115
▁racial	-11.4115
tti	-11.4116
▁Rup	-11.4117
▁exploit	-11.4118
▁Draw	-11.412
lap	-11.4121
phy	-11.4123
▁recovery	-11.4125
▁opera	-11.4127
▁behave	-11.4128
▁MP	-11.413
▁deals	-11.413
▁1906	-11.413
▁clip	-11.413
▁component	-11.4132
▁ce	-11.4133
▁sen	-11.4134
▁experiencing	-11.4138
▁livestock	-11.4139
▁Subsequently	-11.4139
#	-11.4141
▁Rising	-11.4142
▁protesting	-11.4144
▁grants	-11.4146
▁3:8	-11.4152
▁Author	-11.4154
tho	-11.4155
▁Hinduism	-11.4155
▁wherever	-11.4156
▁2000.	-11.4157
▁uh	-11.4159
▁streams	-11.416
▁Faisal	-11.416
▁dairy	-11.416
▁frustration	-11.416
▁(2004)	-11.416
▁Card	-11.416
▁Passover	-11.4161
▁Notwithstanding	-11.4162
Bi	-11.4162
▁manufacture	-11.4162
▁bars	-11.4164
bai	-11.4164
▁Bloggers	-11.4164
▁Saleh	-11.4165
national	-11.4165
bon	-11.4165
▁Nathan	-11.4166
▁transformation	-11.4166
ied	-11.4168
▁tag	-11.4168
▁tie	-11.4169
OP	-11.417
mber	-11.4172
▁expedition	-11.4178
▁10%	-11.4179
burn	-11.4181
bet	-11.4181
Or	-11.4182
▁cameras	-11.4182
oh	-11.4182
▁Imperial	-11.4183
endranath	-11.4183
▁Cain	-11.4184
▁pressures	-11.4188
▁Found	-11.4188
▁18:1	-11.4189
▁qua	-11.4189
▁112	-11.419
▁execute	-11.4191
▁Drama	-11.4191
▁Hans	-11.4192
▁Jal	-11.4195
rog	-11.4196
▁retained	-11.4201
▁suspect	-11.4205
▁wrestling	-11.4205
▁guidelines	-11.4205
▁captive	-11.4206
▁subordinate	-11.4206
iii	-11.4206
ado	-11.4208
iri	-11.4209
Jesus	-11.4209
answer	-11.4209
▁Rahim	-11.4212
city	-11.4214
▁4:2	-11.4214
▁Fi	-11.4218
ffer	-11.4219
▁recipients	-11.422
▁updated	-11.4221
▁ri	-11.4223
▁clouds	-11.4224
▁illustrations	-11.4227
▁moments	-11.4227
vent	-11.4229
iff	-11.4235
ire	-11.4236
▁Baghdad	-11.4237
▁cleaning	-11.4237
▁Recall	-11.4238
▁ward	-11.4239
eri	-11.424
▁Arm	-11.4243
ington	-11.4243
▁Eric	-11.4246
▁Support	-11.4249
▁temper	-11.425
▁horizon	-11.425
▁Cla	-11.425
▁Criminal	-11.4251
▁nephew	-11.4251
▁transmitted	-11.4251
▁Pilot	-11.4251
▁Mode	-11.4253
▁integrated	-11.4254
▁pur	-11.4256
▁dirty	-11.4256
▁signing	-11.4256
▁Used	-11.4256
▁9:1	-11.4256
bah	-11.426
▁spots	-11.4265
▁5:22	-11.4265
▁Indigenous	-11.4273
▁helicopter	-11.4273
▁identification	-11.4273
▁burial	-11.4274
▁wound	-11.4274
▁grandson	-11.4275
Islami	-11.4276
ump	-11.4276
▁font	-11.4277
▁Cas	-11.4286
▁lucky	-11.4287
▁Branch	-11.4291
▁Clear	-11.4291
▁hook	-11.4293
▁waited	-11.4294
▁calamity	-11.4296
▁libraries	-11.4296
Are	-11.4296
▁Fo	-11.4296
▁reduction	-11.4298
▁gray	-11.4298
▁Narayanganj	-11.4298
▁resignation	-11.4298
▁Martha	-11.43
pada	-11.4303
▁Unless	-11.4309
▁ranging	-11.4311
▁maps	-11.4315
▁operator	-11.4318
▁Cabinet	-11.4319
▁devastating	-11.4319
lier	-11.432
▁mask	-11.432
▁Spring	-11.4321
▁16)	-11.4324
▁assisted	-11.4325
▁tension	-11.4326
▁Brothers	-11.4327
▁wider	-11.4329
▁App	-11.4329
ement	-11.4332
▁Low	-11.4332
▁examinations	-11.4333
▁examined	-11.434
aga	-11.4341
▁11:3	-11.4342
▁Declaration	-11.4342
▁GNOME	-11.4342
▁ignorance	-11.4342
uma	-11.4343
▁crystal	-11.4343
Jeremiah	-11.4346
▁dig	-11.435
clock	-11.4353
▁demon	-11.4357
▁warrant	-11.436
▁4:13	-11.4363
▁102	-11.4364
▁bold	-11.4364
▁Require	-11.4365
▁realistic	-11.4369
▁Woman	-11.4369
▁Tai	-11.4377
▁rightly	-11.4379
▁Lower	-11.4383
▁Messianic	-11.4388
▁comprehensive	-11.4388
▁amendment	-11.4388
▁knight	-11.4388
▁expelled	-11.4388
▁Jammu	-11.4388
▁Ob	-11.4389
▁merciful	-11.4389
▁condo	-11.4391
▁1998,	-11.4392
▁clashes	-11.4392
▁fo	-11.4392
▁Kas	-11.4393
▁fears	-11.4393
▁Zion	-11.4394
▁attributed	-11.4396
▁rot	-11.4397
▁dishes	-11.4397
▁Rules	-11.4398
▁reverse	-11.4399
▁businessman	-11.4399
▁challenged	-11.4403
▁sta	-11.4403
sub	-11.4407
DC	-11.441
▁foster	-11.4411
▁Boston	-11.4411
ways	-11.4412
▁anthem	-11.4412
▁recalls	-11.4413
▁varies	-11.4414
▁Zechariah	-11.4414
▁(6	-11.4418
▁alter	-11.442
▁Bell	-11.4422
▁corresponding	-11.4422
▁surprising	-11.4424
▁institutional	-11.4426
▁Humans	-11.4426
ech	-11.443
▁CAN	-11.4431
▁Lamb	-11.4431
DP	-11.4432
▁junior	-11.4434
▁emergence	-11.4434
▁Chron	-11.4435
▁Protection	-11.4435
▁bowl	-11.4436
▁deadly	-11.4437
▁flights	-11.4438
▁105	-11.4442
▁consumers	-11.4443
LY	-11.4443
▁4:12	-11.4447
▁ur	-11.4448
▁Taking	-11.4448
▁Forum	-11.4449
▁collections	-11.445
uzzaman	-11.4453
▁lecture	-11.4455
▁complicated	-11.4457
▁livelihood	-11.4457
▁shrimp	-11.4457
▁(2009)	-11.4457
▁washed	-11.4458
▁liked	-11.4461
▁tracts	-11.4462
dur	-11.4463
vas	-11.4465
lis	-11.4465
▁hung	-11.4467
▁Ci	-11.4468
stan	-11.4472
▁Charlie	-11.4472
ctor	-11.4475
▁pose	-11.4475
dol	-11.4478
▁Harvard	-11.448
▁zones	-11.448
▁flank	-11.448
▁gardens	-11.4483
verse	-11.4484
bh	-11.4486
▁cable	-11.449
▁Mountain	-11.4492
▁administered	-11.4492
▁Forward	-11.4493
▁116	-11.4494
▁Shin	-11.4497
nik	-11.4497
▁sexually	-11.4499
▁Dhan	-11.4501
▁bullet	-11.4501
▁arsenic	-11.4503
▁caution	-11.4503
▁equation	-11.4503
▁indicating	-11.4504
▁bullock	-11.4504
▁(2015)	-11.4504
▁eligible	-11.4504
▁Construction	-11.4504
▁Stories	-11.4505
▁confirm	-11.4506
▁switch	-11.4508
▁Islamabad	-11.4508
▁Sin	-11.4516
▁Nam	-11.4516
▁Artist	-11.4516
▁expects	-11.4519
▁Newspapers	-11.452
▁cared	-11.4522
▁epi	-11.4526
▁gates	-11.4526
▁Literary	-11.4527
▁trapped	-11.4527
dam	-11.4533
▁deposits	-11.4535
▁avoided	-11.4537
▁hospitality	-11.4538
did	-11.4539
▁desperate	-11.4541
▁Val	-11.4542
▁Mus	-11.4542
▁Mughals	-11.4542
▁Bear	-11.4542
▁ranges	-11.4543
maker	-11.4548
▁wondering	-11.4549
▁Scott	-11.4549
gger	-11.455
▁erosion	-11.455
▁Texas	-11.455
▁depressed	-11.4551
▁earning	-11.4554
▁banner	-11.4555
key	-11.4555
Ab	-11.4555
▁1916	-11.4555
▁proceed	-11.4556
▁Than	-11.4558
▁Tir	-11.4561
▁monitoring	-11.4562
▁presents	-11.4563
▁Eph	-11.4563
▁MS	-11.4563
▁poured	-11.4565
▁collapsed	-11.4572
▁extract	-11.4573
▁Mil	-11.4573
▁idiot	-11.4574
dir	-11.4574
▁specialist	-11.4576
▁tiger	-11.4577
▁motive	-11.4577
▁31,	-11.4581
▁bra	-11.4584
print	-11.4585
LL	-11.4586
▁oneself	-11.4586
▁recreation	-11.4589
▁bands	-11.459
▁bug	-11.4592
▁pic	-11.4592
▁uncertain	-11.4597
▁Campaign	-11.4597
▁necessity	-11.4597
▁injuries	-11.4597
▁ke	-11.4598
▁physicist	-11.4598
▁Mou	-11.4598
▁powder	-11.4598
▁elephant	-11.46
▁700	-11.4601
▁dozens	-11.4602
rampur	-11.4603
▁Hy	-11.4604
apur	-11.4607
▁impose	-11.4607
▁corn	-11.4609
pec	-11.4609
▁Pucc	-11.4614
ananda	-11.4621
▁115	-11.4622
▁researcher	-11.4623
▁Senate	-11.4626
▁4:3	-11.4628
▁accommodate	-11.463
▁violate	-11.463
ome	-11.463
▁Reform	-11.4633
six	-11.4635
▁Rashed	-11.4637
▁logical	-11.4637
▁Bhai	-11.4643
▁Mediterranean	-11.4644
▁Tanzania	-11.4644
▁drought	-11.4644
▁Manchester	-11.4644
▁deliverance	-11.4646
▁measured	-11.4647
Colossians	-11.4649
▁com	-11.4649
▁Mul	-11.465
▁Late	-11.4651
lf	-11.4652
▁Ag	-11.4655
▁checked	-11.4656
▁Chancellor	-11.4658
wide	-11.4662
▁expanding	-11.4662
▁Benjamin	-11.4668
▁introductory	-11.4668
▁martial	-11.4668
▁tissue	-11.4668
▁competent	-11.4668
ott	-11.4669
▁Animal	-11.467
Wa	-11.4675
▁barely	-11.4677
▁Kul	-11.4678
▁38.	-11.4679
▁Jamal	-11.4687
istan	-11.4688
▁mourning	-11.4689
▁Auto	-11.4689
▁Swa	-11.4691
▁Filmfare	-11.4691
▁Yusuf	-11.4691
▁desktop	-11.4692
▁pump	-11.4693
▁Treaty	-11.4693
▁magistrate	-11.4696
▁overwhelming	-11.4697
▁informal	-11.4698
▁farmer	-11.4699
▁analyze	-11.4701
▁assert	-11.4702
▁cop	-11.4706
danga	-11.4707
▁bloody	-11.471
▁rub	-11.4712
▁decay	-11.4716
▁Hazrat	-11.4716
▁duration	-11.4716
▁ballot	-11.4719
▁Crown	-11.4721
▁Islamist	-11.4724
ander	-11.4725
▁fitting	-11.4726
▁airline	-11.4727
FA	-11.4728
▁miraculous	-11.473
▁Chris	-11.4731
▁Championships	-11.4731
▁adventure	-11.4734
LA	-11.4735
▁extensively	-11.4738
▁Prothom	-11.4739
▁babies	-11.4739
▁manufactories	-11.4739
▁Kapoor	-11.4739
▁pleasing	-11.4739
▁mixture	-11.4739
▁commencement	-11.474
▁drainage	-11.474
▁Bolivia	-11.474
▁biology	-11.4741
▁Joe	-11.4741
800	-11.4741
▁Danish	-11.4742
▁acquainted	-11.4745
▁arrow	-11.4746
▁Fer	-11.4748
▁1909	-11.4749
▁Andhra	-11.475
▁24.	-11.475
blog	-11.4751
▁brutal	-11.4752
▁listeners	-11.4753
▁indefinite	-11.4753
▁comprises	-11.4754
real	-11.4756
▁themes	-11.4758
▁seeming	-11.4762
▁STUDY	-11.4763
▁scenario	-11.4763
▁hunt	-11.4763
▁olive	-11.4763
▁gauge	-11.4766
▁Vol	-11.4766
▁Ismail	-11.4767
▁retain	-11.4768
bani	-11.4768
▁Bou	-11.4768
▁operates	-11.4769
▁flooded	-11.4774
▁rendering	-11.4779
inda	-11.478
pass	-11.4781
▁grace	-11.4784
▁legitimate	-11.4787
▁Zu	-11.4787
▁Shaheed	-11.4787
▁Various	-11.4787
▁complain	-11.4789
▁classification	-11.4789
▁acceptance	-11.4791
▁shocked	-11.4792
screen	-11.4792
▁WE	-11.4794
▁odd	-11.4794
▁strangers	-11.4799
▁5:4	-11.48
▁mold	-11.48
▁Padak	-11.48
▁allegations	-11.4805
ear	-11.4806
▁Universal	-11.4811
▁celebrating	-11.4811
▁Future	-11.4811
▁ya	-11.4813
there	-11.4814
mmer	-11.4814
Di	-11.4814
▁rupees	-11.4814
▁Jamuna	-11.4815
▁poison	-11.4815
▁Jute	-11.4816
▁Roger	-11.4816
▁strain	-11.4817
▁Promised	-11.4817
▁neighbouring	-11.4819
▁Shankar	-11.4819
kara	-11.482
▁errors	-11.4821
▁prey	-11.4824
▁metre	-11.4825
▁spare	-11.4827
action	-11.4827
▁heal	-11.4828
▁Patna	-11.483
▁attach	-11.4831
▁Opening	-11.4832
▁remarks	-11.4834
▁weaving	-11.4835
▁Jimmy	-11.4835
▁monks	-11.4836
▁Ter	-11.4836
▁39.	-11.4838
▁persecuted	-11.4838
▁fewer	-11.4839
▁Nice	-11.4841
▁bro	-11.4843
▁weaknesses	-11.4843
rist	-11.4846
▁erected	-11.4847
CH	-11.4848
▁Stand	-11.4848
abi	-11.4852
▁negotiations	-11.4855
▁Rab	-11.4856
▁codes	-11.4856
cia	-11.4859
▁(2014)	-11.4859
▁Kepler	-11.4859
▁vacation	-11.4859
▁humankind	-11.486
▁approaches	-11.4861
▁Kid	-11.4862
▁tooth	-11.4865
▁Haq	-11.4868
▁cha	-11.4873
▁recalled	-11.4874
▁Jew	-11.4874
▁fur	-11.4874
him	-11.4877
▁Marine	-11.4878
▁8)	-11.4878
yam	-11.4879
▁adviser	-11.4881
duce	-11.4882
▁shore	-11.4883
▁plus	-11.4883
▁genocide	-11.4883
▁Above	-11.4883
▁excitement	-11.4883
▁rubber	-11.4884
▁assessment	-11.4884
▁Burmese	-11.4885
▁1991.	-11.4886
▁solutions	-11.4886
ching	-11.4887
▁bombing	-11.4894
▁contested	-11.4896
▁bonds	-11.4897
▁Den	-11.4898
▁governed	-11.4899
▁Shir	-11.4899
▁rush	-11.49
▁121	-11.4905
vol	-11.4905
▁presidency	-11.4907
▁bulk	-11.4907
▁linguistic	-11.4908
▁curious	-11.4908
▁mouse	-11.4909
▁scrap	-11.491
▁Dun	-11.491
▁Bus	-11.4911
▁ph	-11.4911
aid	-11.4913
▁2004.	-11.4913
▁5)	-11.4913
▁unclean	-11.4914
▁Mat	-11.4914
▁shepherds	-11.4919
▁assign	-11.492
Pre	-11.492
▁Initial	-11.4922
▁mechanical	-11.4931
▁stretch	-11.4931
▁unprecedented	-11.4932
▁Different	-11.4932
▁Encourage	-11.4932
Sirajul	-11.4932
gre	-11.4933
▁distinctive	-11.4934
▁Individual	-11.4934
▁fl	-11.4934
▁Based	-11.4936
▁Nadu	-11.4936
▁bills	-11.4937
▁Bre	-11.4938
▁21:3	-11.4938
▁emphasized	-11.494
▁6:1	-11.494
▁sentiment	-11.4943
kumar	-11.4945
yat	-11.4945
▁tent	-11.4946
▁eighth	-11.4949
▁bare	-11.4956
▁estimates	-11.4956
▁brilliant	-11.4956
▁stairs	-11.4956
▁impressive	-11.4957
▁21:1	-11.4958
▁Left	-11.4958
▁Bang	-11.4959
▁exceed	-11.4962
▁Soil	-11.4962
hya	-11.4965
▁NY	-11.4965
▁circles	-11.4967
such	-11.4967
▁Voice	-11.4969
▁Steve	-11.4971
deep	-11.4976
▁Rak	-11.4977
▁Session	-11.4982
▁adapted	-11.4982
▁Notice	-11.4984
▁DE	-11.4985
▁Minor	-11.4988
▁arches	-11.499
▁finishing	-11.499
▁expense	-11.4991
▁2:7	-11.4991
▁Reserve	-11.4993
▁tenth	-11.4996
▁3:3	-11.4997
lab	-11.4999
▁violations	-11.5005
▁forbidden	-11.5005
▁Production	-11.5008
▁118	-11.5009
▁broadcasting	-11.5012
▁Angel	-11.5013
Mon	-11.5015
▁substitute	-11.5016
ood	-11.5021
Love	-11.5024
▁cake	-11.5027
▁31.	-11.5029
▁Concern	-11.5029
▁wet	-11.5031
▁Basic	-11.5034
▁affects	-11.5035
MP	-11.5038
▁Babu	-11.5039
position	-11.504
PP	-11.5041
▁twitter	-11.5042
▁Mike	-11.5043
Ni	-11.5044
▁yoke	-11.5044
▁(9	-11.5046
▁42.	-11.5047
▁BS	-11.5048
RO	-11.5051
▁Dharma	-11.5053
▁Century	-11.5054
▁oxygen	-11.5054
▁Swiss	-11.5054
▁arriving	-11.5054
▁Jahangir	-11.5055
▁deposited	-11.5058
▁dissolved	-11.506
▁presentations	-11.5065
▁routes	-11.5066
ivity	-11.5066
▁Historical	-11.5071
▁si	-11.5074
▁Agent	-11.5077
Pakistan	-11.5078
▁circulation	-11.5078
▁enters	-11.5079
▁stir	-11.5081
▁liar	-11.5083
late	-11.5083
▁10:1	-11.5083
▁Ring	-11.5083
▁53%	-11.5085
▁Sundarbans	-11.5087
▁Kir	-11.5087
month	-11.5091
name	-11.5091
▁shaped	-11.5091
ifies	-11.5092
teen	-11.5094
ksa	-11.5096
jee	-11.5097
▁cheer	-11.5099
▁Cut	-11.51
▁ensuring	-11.5103
▁ashamed	-11.5103
▁Everybody	-11.5103
▁monster	-11.5104
ulla	-11.5107
▁2003.	-11.5107
anna	-11.5108
duct	-11.511
▁explore	-11.511
▁Limit	-11.5111
▁Jag	-11.5112
▁ridicule	-11.5114
▁Ger	-11.5118
▁Gujarat	-11.5119
▁detected	-11.5119
▁Marks	-11.5122
reg	-11.5124
▁Delimitation	-11.5128
▁Application	-11.5128
▁naked	-11.5128
▁laboratory	-11.5128
▁frequency	-11.5129
▁finest	-11.513
▁resign	-11.5135
▁YOUR	-11.5138
▁slogan	-11.5141
type	-11.5149
mini	-11.5154
▁Nature	-11.5154
▁kiss	-11.5154
▁Jackson	-11.5155
▁machinery	-11.5157
▁construct	-11.5157
▁intersection	-11.5158
▁"[	-11.516
▁essentially	-11.5161
fulness	-11.5161
▁Jain	-11.5162
▁observes	-11.5162
▁losses	-11.5162
▁nail	-11.5162
▁columns	-11.5166
▁notably	-11.5166
▁7]	-11.5167
▁harder	-11.517
TC	-11.5173
adh	-11.5174
▁Baal	-11.5177
▁Sta	-11.5177
▁deceased	-11.5178
▁Nehru	-11.5178
▁Vietnamese	-11.5178
▁forgot	-11.5179
▁Sao	-11.5181
▁10:24	-11.5182
▁poster	-11.5185
▁cancel	-11.5186
▁offences	-11.5186
seven	-11.5189
▁affair	-11.5192
▁Cinema	-11.5197
▁Haiti	-11.5199
▁Shahid	-11.5202
▁Pri	-11.5202
▁Fat	-11.5202
awa	-11.5202
▁Registrar	-11.5203
▁identical	-11.5203
▁gesture	-11.5203
▁organizing	-11.5203
▁wholesome	-11.5206
▁cho	-11.5208
▁vol	-11.5209
▁canal	-11.5212
▁characterized	-11.5213
▁concentrate	-11.5213
▁mal	-11.5221
▁Die	-11.5224
▁immortal	-11.5226
▁(1997)	-11.5228
▁Hitler	-11.5228
▁firing	-11.5228
▁pile	-11.5228
rna	-11.523
▁compassionate	-11.523
▁punish	-11.5231
▁stranger	-11.5231
▁liable	-11.5232
▁drain	-11.5233
ghar	-11.5233
▁bur	-11.5234
ania	-11.5239
▁pursued	-11.524
▁Saf	-11.5241
▁criticize	-11.5241
▁manuscript	-11.5243
▁passport	-11.5245
▁promotes	-11.5248
▁Ran	-11.525
▁Sex	-11.525
▁Salam	-11.5251
▁Intelligence	-11.5253
▁humbly	-11.5253
▁inferior	-11.5253
▁Mustafa	-11.5253
▁URL	-11.5253
▁planted	-11.5253
ister	-11.5253
▁Gre	-11.5254
▁predict	-11.5254
ago	-11.5256
ule	-11.5256
▁Ananda	-11.5259
aged	-11.5263
▁favorable	-11.5263
▁vested	-11.5264
▁engineers	-11.5265
tab	-11.527
▁recommendation	-11.527
▁workshop	-11.5274
▁fossil	-11.5278
▁Value	-11.5278
▁removing	-11.5278
▁caretaker	-11.5279
▁Purba	-11.5279
▁2017-18	-11.5282
▁13:4	-11.5282
▁circular	-11.5282
tto	-11.5284
▁insult	-11.5285
▁Hara	-11.5289
eshwar	-11.5291
▁empowered	-11.5291
▁Carlos	-11.5294
▁excess	-11.5296
▁verb	-11.5297
▁Lab	-11.5298
Cha	-11.5298
▁efficiency	-11.5303
▁(2003)	-11.5303
▁Amazon	-11.5303
▁junk	-11.5303
ifying	-11.5305
▁unfair	-11.5305
▁employers	-11.5306
▁wished	-11.5306
▁beg	-11.5306
▁Samaj	-11.5308
▁displaying	-11.5308
▁india	-11.531
▁similarly	-11.5312
▁Sona	-11.5313
ail	-11.5318
▁Didn	-11.5318
▁afterward	-11.5318
▁qualification	-11.532
▁mechanism	-11.532
tric	-11.5321
only	-11.5322
▁Gregor	-11.5322
nanda	-11.5323
▁drunk	-11.5324
▁sinners	-11.5325
left	-11.5326
▁styles	-11.5327
▁theoretical	-11.5328
▁ideology	-11.5328
▁Bhutto	-11.5328
tail	-11.5329
▁useless	-11.5333
▁rites	-11.5333
▁5,000	-11.5333
kel	-11.5336
CE	-11.5338
▁warns	-11.5341
▁attraction	-11.5349
▁survivors	-11.5351
▁5:28	-11.5352
▁Honours	-11.5352
▁epidemic	-11.5353
▁wrongdoing	-11.5353
▁Entertainment	-11.5353
▁concludes	-11.5356
▁margin	-11.5357
"!	-11.5359
▁hub	-11.536
political	-11.536
date	-11.5361
▁blamed	-11.5363
shaped	-11.5363
turn	-11.5364
Ch	-11.5365
aha	-11.5366
▁specially	-11.5366
ien	-11.5368
▁SA	-11.5371
▁Off	-11.5375
▁wrath	-11.5378
▁Napoleon	-11.5379
▁Heaven	-11.5379
▁papaya	-11.5379
▁inquiry	-11.5379
▁Malawi	-11.538
▁carved	-11.538
▁Jude	-11.5381
▁Nadia	-11.5381
▁Near	-11.5382
▁commentary	-11.5382
via	-11.5385
▁1969.	-11.5385
Embassy	-11.5386
Daniel	-11.5386
▁aunt	-11.5386
▁risks	-11.5387
▁Boys	-11.5388
▁throwing	-11.5389
▁riots	-11.539
lets	-11.5392
▁dull	-11.5393
▁notion	-11.5394
▁lamb	-11.5395
app	-11.5395
▁3:1-5	-11.5398
▁Ethiopia	-11.5399
▁Tre	-11.5401
▁swimming	-11.5404
▁exposure	-11.5404
▁prohibit	-11.5405
▁2:12	-11.5407
▁worn	-11.5408
▁logo	-11.5408
division	-11.541
▁washing	-11.5415
ison	-11.5418
lect	-11.5419
▁figurative	-11.542
begotten	-11.5423
rest	-11.5424
▁1995,	-11.5425
▁editing	-11.5425
▁monuments	-11.5427
hol	-11.5428
▁viewing	-11.5429
▁Byzantine	-11.543
▁fornication	-11.543
▁interfere	-11.543
▁Kirsch	-11.543
▁colonies	-11.543
▁variable	-11.5431
▁structural	-11.5431
▁toured	-11.5432
▁Liga	-11.5434
▁fatal	-11.5434
▁ST	-11.5435
Philippians	-11.5437
▁neuro	-11.5437
▁Goal	-11.544
▁deed	-11.5441
▁1:2	-11.5442
IM	-11.5444
▁instruct	-11.5445
▁1904	-11.5446
▁Ven	-11.5446
▁controlling	-11.5447
bor	-11.5454
lation	-11.5454
▁determining	-11.5455
▁crackdown	-11.5456
wel	-11.5456
▁Invite	-11.5456
▁authentication	-11.5456
▁sculptures	-11.5457
▁exploitation	-11.5457
▁repent	-11.5461
600	-11.5461
▁Ann	-11.5462
Yemen	-11.5462
▁Cook	-11.5462
▁talents	-11.5462
▁Gur	-11.5464
▁vaccine	-11.5468
▁dye	-11.547
▁107	-11.547
▁pillars	-11.5474
▁commemorate	-11.548
▁Associate	-11.5481
▁portrait	-11.5481
▁juice	-11.5481
▁Pun	-11.5482
▁Dark	-11.5482
inter	-11.5482
▁hostile	-11.5482
▁gu	-11.5483
▁Agra	-11.5483
▁Zi	-11.5485
▁panchayats	-11.5486
▁disappear	-11.5489
▁der	-11.549
▁classic	-11.5494
▁doubts	-11.5497
▁mills	-11.5498
leg	-11.5498
▁lacking	-11.5499
Bu	-11.55
where	-11.5501
▁runners	-11.5501
▁delighted	-11.5501
▁myth	-11.5501
▁governmental	-11.5502
▁Hang	-11.5503
▁Days	-11.5503
▁zoo	-11.5508
▁forum	-11.5508
▁lovingly	-11.5509
▁dual	-11.5511
miss	-11.5513
▁Dutta	-11.5516
▁Chin	-11.5518
version	-11.5522
▁honored	-11.5523
▁organs	-11.5524
▁Base	-11.5526
▁Copa	-11.5527
▁protein	-11.5528
▁subjected	-11.5529
▁Cro	-11.5532
▁jungle	-11.5532
▁magnificent	-11.5532
▁motivation	-11.5532
▁UAE	-11.5533
▁Prepare	-11.5533
▁tidal	-11.5533
▁Sector	-11.5533
▁Original	-11.5535
▁travelled	-11.5536
▁49%.	-11.5536
▁patiently	-11.5538
night	-11.5538
▁facilitate	-11.5544
▁ON	-11.5544
El	-11.5546
UR	-11.5547
▁Pictures	-11.5547
▁Mahi	-11.5548
▁Shit	-11.555
▁extending	-11.555
ENT	-11.5553
uria	-11.5553
▁Serbia	-11.5553
▁bother	-11.5555
▁interviews	-11.5555
▁installation	-11.5556
▁800	-11.5558
▁mysterious	-11.5558
▁Kyrgyzstan	-11.5558
▁Ghana	-11.5559
▁trafficking	-11.556
▁expresses	-11.556
▁Disc	-11.5561
▁spy	-11.5563
plic	-11.5564
-40	-11.5565
▁absorb	-11.5565
▁viral	-11.5565
raja	-11.557
▁credited	-11.5572
▁exercised	-11.5573
yana	-11.5575
note	-11.5576
▁2:5	-11.5577
▁Persia	-11.5577
▁Direct	-11.5579
▁Rat	-11.5581
▁termed	-11.5581
▁surveillance	-11.5584
▁thief	-11.5584
▁unsuccessful	-11.5584
▁Software	-11.5584
▁1977.	-11.5585
ters	-11.5585
view	-11.5586
they	-11.5586
▁2016-17	-11.5589
▁stamp	-11.5589
▁Tin	-11.559
▁Legal	-11.5596
▁booklet	-11.5597
▁advise	-11.5598
▁operational	-11.5601
▁consult	-11.5602
▁absorbed	-11.5603
▁kha	-11.5606
▁Mari	-11.561
▁measuring	-11.561
▁random	-11.5611
▁cancelled	-11.5611
▁Otherwise	-11.5611
▁Howard	-11.5613
▁Kum	-11.5614
▁vow	-11.5615
▁flowing	-11.562
▁fleshly	-11.5624
▁refreshing	-11.5625
▁privileged	-11.5626
▁Thess	-11.5627
kka	-11.5627
▁Citizen	-11.5627
▁Sim	-11.5628
organ	-11.5629
last	-11.5629
▁monarch	-11.5629
hid	-11.563
▁opponents	-11.5632
▁Kor	-11.5632
▁Kent	-11.5636
▁Ekushey	-11.5636
▁synagogue	-11.5636
▁Zamindar	-11.5636
▁gentlemen	-11.5637
ides	-11.5638
▁breed	-11.5639
▁regards	-11.5639
▁Mam	-11.5639
▁wore	-11.564
▁footage	-11.5641
▁expectation	-11.5641
▁109	-11.5641
▁deepen	-11.5642
▁Judges	-11.5643
▁Ethiopian	-11.5644
▁44.	-11.5644
▁prevail	-11.5645
▁Joel	-11.5649
fl	-11.5656
▁affecting	-11.5656
▁adjustments	-11.566
▁Samiti	-11.5661
▁Relations	-11.5662
▁Bibliography	-11.5662
▁glorify	-11.5662
▁Alfred	-11.5662
▁Politics	-11.5662
▁(2016)	-11.5663
▁bicycle	-11.5663
▁unnecessary	-11.5663
▁144,000	-11.5664
▁pressed	-11.5664
▁Bil	-11.5664
▁schooling	-11.5666
▁slaughter	-11.5669
▁Khaled	-11.567
▁restaurants	-11.5673
▁ruined	-11.5674
▁Nas	-11.5674
▁Mirpur	-11.5674
▁BCE	-11.5675
▁Nad	-11.5679
▁whoever	-11.568
▁PC	-11.5685
▁Dil	-11.5688
▁LIVING	-11.5689
▁Trinidad	-11.5689
▁ceremonies	-11.5689
▁introducing	-11.5689
▁judiciary	-11.5689
▁unite	-11.5689
▁2002.	-11.5689
▁raiyats	-11.5691
▁Count	-11.5696
▁slot	-11.5697
tim	-11.5698
▁Dawn	-11.5698
▁Selected	-11.5702
▁balls	-11.5703
▁Symbol	-11.5703
▁cock	-11.5704
▁prompted	-11.5706
Blur	-11.5706
dem	-11.5706
▁seated	-11.5707
▁ceased	-11.5709
rial	-11.571
Bangla	-11.571
▁sometime	-11.5711
▁Homo	-11.5713
▁Academic	-11.5715
▁Apparently	-11.5715
▁revenge	-11.5715
▁(1995)	-11.5715
tory	-11.5716
▁conquer	-11.5716
▁rewarded	-11.5716
▁hint	-11.5716
▁Ukrainian	-11.5717
▁devil	-11.5718
▁condemn	-11.5721
▁Mau	-11.5723
▁partially	-11.5724
▁sap	-11.5728
▁qui	-11.5729
▁pairs	-11.5729
pul	-11.573
▁functioning	-11.5731
▁binding	-11.5731
ional	-11.5732
▁Parganas	-11.5734
▁(2001)	-11.5734
▁Ul	-11.5735
▁origins	-11.5735
▁ski	-11.5735
▁canceled	-11.5735
▁Economy	-11.5741
▁Humayun	-11.5741
▁multitude	-11.5741
▁despair	-11.5741
▁pardon	-11.5742
▁Disney	-11.5742
eight	-11.5742
▁Strong	-11.5742
▁weren	-11.5743
▁Mobile	-11.5744
▁Ahsan	-11.5744
▁concepts	-11.5747
▁lonely	-11.5747
Gal	-11.5749
▁delta	-11.5749
▁breach	-11.5751
▁haul	-11.5751
▁Mind	-11.5753
▁Cause	-11.5754
▁Musa	-11.5754
▁fulfilling	-11.5756
▁Farm	-11.5757
▁Janata	-11.576
▁urges	-11.5761
▁Pink	-11.5763
die	-11.5764
▁staged	-11.5765
▁Taj	-11.5767
▁2:21	-11.5767
▁Encyclopedia	-11.5767
▁technological	-11.5767
▁47%	-11.5769
▁keyboard	-11.577
▁medals	-11.577
▁Sw	-11.5775
▁Kat	-11.5775
▁lover	-11.5776
week	-11.5777
▁estimate	-11.578
-12)	-11.5782
▁sail	-11.5785
▁marking	-11.5786
En	-11.5789
▁Imp	-11.5789
▁gravity	-11.5794
▁scroll	-11.5794
▁Luis	-11.5795
ATION	-11.5795
▁sustained	-11.5795
▁Habakkuk	-11.5798
▁slide	-11.5801
>	-11.5802
Dhaka	-11.5802
▁afterwards	-11.5803
▁trail	-11.5804
▁Uncle	-11.5808
▁freed	-11.5811
▁extends	-11.5813
mur	-11.5814
▁Mars	-11.5819
▁prose	-11.5819
▁bridges	-11.582
▁aggressive	-11.582
▁Vidya	-11.5821
▁Ramadan	-11.5821
▁preview	-11.5821
▁Chal	-11.5822
▁lovely	-11.5822
▁stolen	-11.5824
▁raped	-11.5825
▁mir	-11.5826
▁helpless	-11.5827
▁honorary	-11.5827
▁Bak	-11.5829
mod	-11.5836
▁(11	-11.5836
▁thorough	-11.5838
▁vertical	-11.5838
▁pack	-11.5839
▁pretend	-11.584
ket	-11.5842
▁45.	-11.5843
▁blank	-11.5844
▁cartoon	-11.5844
▁CHRISTIANS	-11.5847
▁Universe	-11.5847
▁(2002)	-11.5847
▁dialect	-11.5849
▁Fache	-11.585
▁institutes	-11.585
graph	-11.5851
▁hunter	-11.5853
▁quarters	-11.5854
▁insist	-11.5856
Qu	-11.5856
▁Mill	-11.5859
bagh	-11.5861
▁27.	-11.5863
▁1993,	-11.5865
▁encountered	-11.587
▁threatening	-11.5873
▁schemes	-11.5873
▁Burdwan	-11.5874
▁reducing	-11.5874
▁Wilson	-11.5874
▁blacksmith	-11.5874
▁Lankan	-11.5875
▁Khatun	-11.5875
▁Sak	-11.5876
▁missile	-11.5877
ipur	-11.5879
▁hated	-11.588
▁vent	-11.588
▁focuses	-11.5884
▁Arabs	-11.5884
▁scar	-11.5886
▁1996.	-11.5887
▁Neo	-11.5887
▁concentrated	-11.5889
▁earnest	-11.5894
▁undertake	-11.5895
▁protested	-11.5897
SI	-11.5898
▁Meet	-11.59
▁bubble	-11.59
▁Oscar	-11.5901
▁Hughli	-11.5901
▁Elisha	-11.5901
▁Ershad	-11.5902
▁attempting	-11.5903
▁intent	-11.5904
▁engagement	-11.5904
▁predominantly	-11.5904
▁closest	-11.5906
▁thriller	-11.5906
operative	-11.5907
eff	-11.5911
▁Naval	-11.5913
ico	-11.5915
▁108	-11.5916
▁33.	-11.5917
▁honours	-11.5919
▁tape	-11.5919
▁entrepreneur	-11.5919
▁partial	-11.5921
▁20:1	-11.5925
▁Judaism	-11.5927
▁inevitable	-11.5927
▁gambling	-11.5927
▁Sena	-11.5927
▁Fazlul	-11.5928
▁113	-11.5928
▁Wo	-11.5928
▁Scottish	-11.5928
▁Sel	-11.5928
▁Philippine	-11.5931
▁rainy	-11.5933
▁stroke	-11.5933
itis	-11.5934
▁23]	-11.5934
▁assembled	-11.5935
▁Gopal	-11.5938
▁12:9	-11.5939
▁breaks	-11.5939
▁treasures	-11.5939
▁counted	-11.5941
aji	-11.5944
▁define	-11.5944
▁destroying	-11.5946
▁2:14	-11.5946
▁Khal	-11.5948
▁breathe	-11.5951
▁opposing	-11.5954
▁steep	-11.5954
▁Outstanding	-11.5955
▁Thakur	-11.5955
▁Gor	-11.5955
▁desirable	-11.5957
▁mourn	-11.5957
▁9)	-11.5959
▁funded	-11.5959
▁Eat	-11.5961
▁utter	-11.5961
▁brush	-11.5963
▁26.	-11.5966
▁siblings	-11.5966
dul	-11.5967
▁wipe	-11.5967
▁printer	-11.5968
▁Mol	-11.5969
sses	-11.5969
race	-11.5969
▁Biswas	-11.597
▁4:	-11.5972
▁Karl	-11.5972
▁Gaur	-11.5972
▁114	-11.5973
▁Flag	-11.5974
mba	-11.5976
▁reflecting	-11.5977
▁tales	-11.5977
▁ARTICLE	-11.5981
▁Mahbub	-11.5981
▁mound	-11.5982
▁Rachel	-11.5983
▁fri	-11.5983
▁Euro	-11.5985
▁Sy	-11.5987
igh	-11.5989
▁1994,	-11.5991
▁Europeans	-11.5995
TH	-11.5997
▁directing	-11.5997
▁Cape	-11.5998
▁creates	-11.5998
▁Nil	-11.5998
▁patrol	-11.5999
fect	-11.6003
▁outlets	-11.6004
▁Tax	-11.6005
▁illustrated	-11.6005
Can	-11.6005
▁investors	-11.6006
▁Books	-11.6007
▁mall	-11.6008
▁Except	-11.6009
▁Sahib	-11.601
▁GDP	-11.601
▁grab	-11.601
▁acute	-11.601
▁sentences	-11.601
▁steady	-11.601
▁hu	-11.6011
▁planets	-11.6013
▁secretly	-11.6014
profit	-11.6015
▁carrier	-11.6015
▁plugin	-11.6016
▁23)	-11.6016
▁ports	-11.6018
mis	-11.6021
lot	-11.6021
▁Il	-11.6022
its	-11.6023
FI	-11.6024
▁Socialist	-11.6035
▁legislature	-11.6035
▁maturity	-11.6035
▁twentieth	-11.6035
▁Period	-11.6035
▁safely	-11.6036
▁stu	-11.6036
▁committing	-11.6037
▁PA	-11.6039
seed	-11.6039
▁Email	-11.604
uki	-11.6042
world	-11.6044
▁Az	-11.6047
rail	-11.6048
▁regulate	-11.6048
▁bombs	-11.605
▁raid	-11.6051
ense	-11.6058
▁Samaritan	-11.6062
▁creator	-11.6062
▁Fox	-11.6066
▁jealousy	-11.607
▁migrated	-11.607
▁personalities	-11.6071
▁Nurul	-11.6071
:11)	-11.6074
▁1:6	-11.6074
▁et	-11.6075
RS	-11.6075
▁3:17	-11.6075
▁observations	-11.6076
▁+	-11.6077
wai	-11.6078
▁beds	-11.6078
oz	-11.6081
▁judged	-11.6081
-8.	-11.6081
sch	-11.6082
oe	-11.6082
▁musicians	-11.6083
▁bacteria	-11.6088
▁Darjeeling	-11.609
▁Shanghai	-11.609
▁Dream	-11.609
▁Arakan	-11.609
▁Norway	-11.609
▁batting	-11.6092
▁Grace	-11.6092
-29	-11.6093
▁gear	-11.6094
▁Brahmin	-11.6095
hala	-11.6097
▁invaded	-11.6097
▁Maharaja	-11.6099
▁Walter	-11.6099
▁Offer	-11.61
▁impart	-11.6102
▁sixty	-11.6102
▁jointly	-11.6103
▁1901	-11.6104
▁solely	-11.6104
▁meals	-11.6106
▁37.	-11.6107
▁geo	-11.6108
eat	-11.6108
▁em	-11.611
▁mineral	-11.6112
going	-11.6113
▁$2	-11.6116
jar	-11.6116
▁STARTING	-11.6117
▁Filipino	-11.6117
gni	-11.6117
▁Infantry	-11.6117
sai	-11.612
▁gateway	-11.6121
ario	-11.6121
▁Thereafter	-11.6121
▁Rico	-11.6121
after	-11.6122
▁fla	-11.6122
▁graduates	-11.6124
▁earthquakes	-11.6125
▁corpse	-11.6125
▁Interior	-11.6126
▁accordingly	-11.613
kon	-11.613
▁Baby	-11.6131
rup	-11.6131
▁1967.	-11.6131
CP	-11.6131
▁runner	-11.6131
▁rocket	-11.6131
▁wisely	-11.6134
▁traced	-11.6137
ality	-11.6137
▁Gazi	-11.6141
▁breeding	-11.6147
▁Ful	-11.6147
▁murderer	-11.6148
▁mildness	-11.6148
uous	-11.6149
▁veil	-11.615
ase	-11.6153
▁emb	-11.6154
▁Whoever	-11.6154
nat	-11.6157
ota	-11.6157
elected	-11.616
▁complaints	-11.616
▁strictly	-11.6161
TS	-11.6164
▁Dum	-11.6167
boat	-11.6171
▁payable	-11.6171
▁Feature	-11.6172
▁assemblies	-11.6172
▁practicing	-11.6172
▁foremost	-11.6172
▁triangle	-11.6172
▁Nak	-11.6172
▁Yahya	-11.6172
▁Allen	-11.6173
▁Priest	-11.6173
sco	-11.6179
▁sponsor	-11.618
▁rob	-11.6181
▁exceptional	-11.6181
▁34.	-11.6183
▁filling	-11.6183
ae	-11.6185
▁wonders	-11.6185
tical	-11.6186
▁Month	-11.6186
andi	-11.6193
▁10:16	-11.6193
ground	-11.6198
▁princess	-11.6199
▁ANSWER	-11.6199
▁Mathematics	-11.6199
▁cultivating	-11.6199
▁improper	-11.6199
▁marital	-11.6199
▁suspicion	-11.6199
▁Jersey	-11.6199
▁legacy	-11.62
▁Tajik	-11.62
▁combine	-11.62
▁priorities	-11.6201
Oh	-11.6202
kandi	-11.6203
▁3:12	-11.6208
▁Salman	-11.621
holder	-11.6211
Hi	-11.6211
▁drivers	-11.6212
▁Wise	-11.6212
▁willingness	-11.6212
umi	-11.6214
▁1907	-11.6217
▁deserves	-11.6217
▁offerings	-11.6218
▁manifestation	-11.6218
▁Prem	-11.6219
ific	-11.622
▁Mani	-11.6223
▁bunch	-11.6226
▁Mayor	-11.6227
▁millennium	-11.6227
▁gallery	-11.6227
▁111	-11.6227
▁Examination	-11.6229
▁swing	-11.623
Pr	-11.6231
▁Palestinians	-11.6232
▁Prof	-11.6232
mul	-11.6234
▁Hot	-11.6236
▁idol	-11.6239
▁accounting	-11.6248
▁popularly	-11.6248
▁Avenue	-11.6255
▁Galilee	-11.6255
▁Jakarta	-11.6255
▁reservoir	-11.6255
▁abusive	-11.6255
▁potteries	-11.6255
▁col	-11.6255
▁midnight	-11.6255
▁repentant	-11.6256
▁groom	-11.626
▁46.	-11.6261
▁commenced	-11.6261
▁3:16)	-11.6262
▁pea	-11.6267
ulia	-11.6267
weight	-11.6267
▁riding	-11.6269
nti	-11.6271
▁ed	-11.6271
▁hostel	-11.6271
FF	-11.6273
▁Guatemala	-11.6274
cat	-11.6275
▁Naba	-11.6278
▁elephants	-11.6279
▁Chaitanya	-11.628
▁ko	-11.628
▁Florida	-11.6283
▁Industries	-11.6283
▁autonomy	-11.6283
▁GP	-11.6283
▁32.	-11.6285
▁fluid	-11.6286
▁Bird	-11.6287
▁80%	-11.6288
▁pity	-11.6289
▁dancer	-11.629
From	-11.6293
▁Mountains	-11.6297
▁runway	-11.6297
▁checking	-11.6299
nom	-11.63
▁collector	-11.6302
▁insisted	-11.6303
▁Bush	-11.6303
▁Nik	-11.6305
▁Peninsula	-11.631
▁Usually	-11.631
▁camerlegno	-11.631
▁amateur	-11.631
▁Resources	-11.6311
▁producers	-11.6311
yr	-11.6311
▁Important	-11.6312
▁Row	-11.6313
▁Adams	-11.6315
▁Looking	-11.6316
puri	-11.6317
▁Costa	-11.6319
▁witch	-11.6323
▁kingdoms	-11.6324
▁imperfection	-11.6325
▁Kh	-11.6326
rhat	-11.6326
mara	-11.6327
yard	-11.6328
▁definite	-11.6329
▁Notable	-11.633
▁stressed	-11.6331
bur	-11.6334
wash	-11.6334
▁Jagannath	-11.6338
▁Gabriel	-11.6338
▁117	-11.6339
▁arrives	-11.6339
▁Rob	-11.6339
▁Steel	-11.634
▁sect	-11.634
▁faithfulness	-11.634
▁Lazarus	-11.634
▁classroom	-11.6341
▁cement	-11.6341
▁Lang	-11.6342
ME	-11.6342
▁worshipped	-11.6344
▁15:1	-11.6344
▁agreements	-11.6344
▁boxes	-11.6346
▁Puja	-11.6347
Compare	-11.6348
vil	-11.6349
▁Asiatic	-11.635
▁mentally	-11.6352
▁HE	-11.6355
standing	-11.6355
▁parade	-11.6361
▁instrumental	-11.6363
▁Dance	-11.6365
▁corporations	-11.6365
▁DVD	-11.6366
▁Douglas	-11.6366
▁Odisha	-11.6366
▁denomination	-11.6366
▁destiny	-11.6366
▁thorn	-11.6367
▁patronage	-11.6368
▁19:1	-11.6368
▁fourteen	-11.6369
▁fence	-11.6369
▁Moore	-11.6371
oj	-11.6372
▁attacking	-11.6372
person	-11.6373
▁cherish	-11.6375
ural	-11.6377
▁permits	-11.6377
▁renewed	-11.6377
▁(7	-11.6379
▁Babylonian	-11.6381
▁]	-11.6383
▁obligations	-11.6386
▁raja	-11.6386
▁sur	-11.6387
bhu	-11.6393
▁Hepburn	-11.6394
▁admonition	-11.6394
▁11)	-11.6395
▁Shaikh	-11.6396
▁allies	-11.6397
lecommunications	-11.6397
▁populated	-11.6397
▁127	-11.6398
▁adoption	-11.6399
▁liberated	-11.6399
▁Jail	-11.64
▁Tiger	-11.64
With	-11.6404
▁instructor	-11.6404
▁Magazine	-11.6406
▁1:7	-11.6409
▁crushed	-11.6409
▁quietly	-11.6422
▁Nizam	-11.6423
▁compulsory	-11.6423
▁revival	-11.6423
▁slander	-11.6423
▁engines	-11.6425
▁1975,	-11.6426
▁Train	-11.6426
▁Jr	-11.6427
▁orange	-11.6428
▁enduring	-11.6428
▁plains	-11.6429
▁accusations	-11.6429
▁Lost	-11.643
▁suck	-11.6431
▁gum	-11.6432
boy	-11.6434
▁intentions	-11.6436
▁pulp	-11.6436
▁Rash	-11.6437
▁faint	-11.6437
▁armor	-11.6441
▁jealous	-11.6443
▁unjust	-11.6444
▁Tour	-11.6446
gir	-11.6448
aging	-11.645
▁(1999)	-11.6451
▁(2000)	-11.6451
party	-11.6453
▁LGBT	-11.6453
▁ponder	-11.6455
▁Lion	-11.6457
▁Allow	-11.6458
▁assures	-11.6459
yal	-11.646
▁Rich	-11.6462
▁appealing	-11.6464
▁lease	-11.6465
▁VI	-11.6472
▁41.	-11.6472
▁49.	-11.6476
▁Satya	-11.6476
Mi	-11.6476
▁loading	-11.6477
▁territorial	-11.6479
▁championship	-11.648
▁reconstruction	-11.648
▁altitude	-11.648
▁mile	-11.6481
▁Sree	-11.6482
▁colony	-11.6483
▁Sil	-11.6486
Just	-11.6491
▁morality	-11.6491
▁Steven	-11.6491
▁pursuits	-11.6493
▁20,000	-11.6493
met	-11.6498
▁Cre	-11.6498
▁specialized	-11.6499
▁13:1	-11.6503
▁sincerely	-11.6504
▁Iranians	-11.6505
▁Thi	-11.6507
▁Administrative	-11.6508
▁contributing	-11.6508
▁(1998)	-11.6508
▁neighbourhood	-11.6508
▁cluster	-11.6508
▁Avila	-11.6508
▁Kevin	-11.6509
▁torment	-11.6509
▁intellectuals	-11.6509
▁learnt	-11.6511
▁painter	-11.6511
▁tanks	-11.6512
▁Railways	-11.6513
▁Says	-11.6514
▁holidays	-11.6515
jur	-11.6516
ographic	-11.6518
▁Inside	-11.6518
▁organisms	-11.6519
▁knock	-11.6521
▁122	-11.6522
▁emerge	-11.6523
▁subscribers	-11.6523
mma	-11.6524
▁invest	-11.6525
▁Mont	-11.6525
▁textile	-11.6525
▁chronic	-11.6526
tir	-11.6528
▁exhibit	-11.653
▁patriarch	-11.6531
▁breathing	-11.6532
▁Bah	-11.6532
▁Sony	-11.6533
▁Illuminati	-11.6536
▁Vishnu	-11.6536
▁disregard	-11.6536
▁reproach	-11.6536
▁returns	-11.6537
▁Neither	-11.654
▁literate	-11.654
▁intend	-11.6541
▁inspector	-11.6544
▁1914,	-11.6545
▁Friends	-11.6546
woman	-11.6547
▁Len	-11.6547
▁killings	-11.6548
▁unlikely	-11.6549
▁Tang	-11.6549
▁touching	-11.6549
▁bags	-11.655
▁genre	-11.6551
▁particles	-11.6552
▁meter	-11.6552
col	-11.6552
sit	-11.6552
▁mango	-11.6552
pel	-11.6553
▁prospects	-11.6554
▁128	-11.6555
▁Tree	-11.6556
▁honesty	-11.6556
nai	-11.6561
▁tan	-11.6561
▁targets	-11.6563
▁bitch	-11.6563
▁kin	-11.6565
▁Climate	-11.6565
▁urgency	-11.6565
▁implies	-11.6565
▁psycho	-11.6565
▁Panama	-11.6566
▁Divine	-11.6567
▁dragon	-11.6568
▁bas	-11.657
▁reminders	-11.6572
▁Jordanian	-11.6573
▁Brahman	-11.6577
▁Dh	-11.6577
▁warnings	-11.6579
tun	-11.658
▁photography	-11.658
▁manufactured	-11.6583
▁whi	-11.6585
▁exam	-11.6587
▁Osman	-11.6588
▁Halls	-11.659
ista	-11.6591
▁Shafi	-11.6591
urban	-11.6591
RUS	-11.6593
▁Box	-11.6593
▁bachelor	-11.6593
▁blossom	-11.6593
▁convenient	-11.6593
▁emerging	-11.6593
▁exploration	-11.6593
▁fisheries	-11.6594
▁displaced	-11.6597
▁Lin	-11.6597
▁manual	-11.6599
▁Sinha	-11.6601
▁Av	-11.6602
▁pounds	-11.6602
bro	-11.6603
▁5:2	-11.6609
▁conventional	-11.6609
rent	-11.6609
4%	-11.6609
▁mandate	-11.661
▁solo	-11.661
num	-11.6612
▁23:1	-11.6612
▁Congo	-11.6612
▁professionals	-11.6613
▁practically	-11.6615
hard	-11.6616
▁marginal	-11.6618
▁op	-11.662
▁ceiling	-11.6622
▁genius	-11.6622
▁placing	-11.6622
▁reluctant	-11.6622
▁sweat	-11.6622
▁fr	-11.6625
xa	-11.6627
▁Malachi	-11.6628
▁Guardian	-11.6628
▁deprived	-11.6628
culture	-11.6629
▁Lay	-11.663
suffering	-11.6632
even	-11.6633
wall	-11.6634
▁hyper	-11.6636
eta	-11.6637
▁Window	-11.6641
▁Border	-11.6642
";	-11.6643
▁fig	-11.6646
▁inadequate	-11.6646
▁reacted	-11.6646
▁Protect	-11.6647
▁Noor	-11.6647
roll	-11.6648
yar	-11.6649
▁essence	-11.6651
awi	-11.6651
▁drill	-11.6651
▁encoding	-11.6651
Day	-11.6651
kat	-11.6651
▁(1994)	-11.6651
▁Bishop	-11.6651
▁Ala	-11.6652
▁naming	-11.6652
▁Bruce	-11.6652
▁Feni	-11.6654
hini	-11.6655
▁possessed	-11.6657
▁lowly	-11.6658
▁1962.	-11.6659
bank	-11.6662
▁144	-11.6663
▁manifested	-11.667
▁diligent	-11.667
▁honoured	-11.6672
▁hail	-11.6673
▁enforce	-11.6673
▁1.5	-11.6674
code	-11.6675
▁avail	-11.6677
▁Dictionary	-11.668
▁eternity	-11.668
▁prestigious	-11.668
▁Enoch	-11.668
▁mythology	-11.668
▁bike	-11.668
▁repentance	-11.668
▁chaos	-11.6681
▁advantages	-11.6684
▁DC	-11.6686
▁expecting	-11.6686
▁castle	-11.6687
▁experiments	-11.6689
▁Fred	-11.6692
wari	-11.6697
▁segment	-11.6698
▁Mia	-11.6699
▁widows	-11.67
▁48.	-11.6702
wara	-11.6705
uru	-11.6706
ook	-11.6707
Sc	-11.6708
▁Rabindra	-11.6708
▁Procedure	-11.6709
▁algorithm	-11.6709
▁agitation	-11.6709
▁Brigade	-11.6709
▁Opposition	-11.6709
▁edit	-11.6709
▁Amos	-11.6711
▁portrayal	-11.6712
▁measurement	-11.6715
▁deliberately	-11.6715
▁19:2	-11.6716
▁singers	-11.6716
▁Tha	-11.6718
▁Nah	-11.6719
▁internationally	-11.672
used	-11.672
▁rains	-11.6721
HO	-11.6722
▁dominate	-11.6724
rine	-11.6727
▁barrier	-11.6727
▁martyr	-11.6728
▁Ty	-11.6733
ode	-11.6734
lain	-11.6734
▁oversee	-11.6734
▁ideals	-11.6735
tell	-11.6737
▁Hezekiah	-11.6738
▁THIS	-11.6738
▁philosophical	-11.6738
▁Beirut	-11.6738
▁Weibo	-11.6738
▁Prasad	-11.6738
▁clue	-11.6739
▁northeastern	-11.6739
▁proposals	-11.674
▁sinned	-11.6741
▁translate	-11.6743
ying	-11.6744
▁backing	-11.6744
}.	-11.6745
▁euro	-11.6745
▁1999.	-11.6745
▁restrict	-11.6746
▁(7)	-11.6748
▁govern	-11.6749
▁Accounts	-11.675
▁Rain	-11.675
▁Fri	-11.6752
▁transactions	-11.6753
▁incense	-11.6757
▁dense	-11.6759
▁Des	-11.6759
dle	-11.676
vor	-11.6761
▁syn	-11.6761
▁Friend	-11.6762
▁alike	-11.6764
▁bun	-11.6765
▁Dia	-11.6765
▁triumph	-11.6766
▁Especially	-11.6767
▁nursing	-11.6767
▁(1993)	-11.6767
▁cyber	-11.6767
▁altogether	-11.6767
▁Sana	-11.677
▁eighteenth	-11.6771
tone	-11.6774
▁Nepali	-11.6774
CL	-11.6775
▁pigs	-11.6777
gui	-11.6778
▁solved	-11.6781
alo	-11.6786
▁135	-11.6787
▁mihrab	-11.6787
▁misuse	-11.6787
▁sar	-11.6788
▁locality	-11.679
▁billions	-11.6791
▁Barak	-11.6792
▁suggestion	-11.6793
-17)	-11.6794
▁6:2	-11.6796
▁Gallery	-11.6796
▁Violence	-11.6796
▁adolescent	-11.6796
▁prostitution	-11.6796
▁Josiah	-11.6796
▁Melbourne	-11.6796
▁Object	-11.6796
▁6:3	-11.6796
wad	-11.6796
mission	-11.6797
▁Pilate	-11.6797
▁Fiji	-11.6797
PT	-11.6797
cla	-11.6798
▁accidents	-11.6799
▁agenda	-11.6799
▁cleared	-11.68
▁landmark	-11.6801
▁cooked	-11.6802
hn	-11.6803
▁holes	-11.6804
▁prevention	-11.6805
▁cafe	-11.6806
▁furnish	-11.6806
=	-11.6807
▁retreat	-11.6807
▁Forever	-11.6808
▁inspire	-11.6811
▁Sinai	-11.6815
▁Azam	-11.6816
▁delegates	-11.6816
▁detect	-11.6819
▁59.5%	-11.682
▁charter	-11.6823
▁Seed	-11.6823
▁Aga	-11.6825
▁financing	-11.6825
▁idolatry	-11.6825
▁monetary	-11.6825
▁prosecutor	-11.6825
▁referendum	-11.6825
▁dictatorship	-11.6826
chin	-11.6826
▁Choice	-11.6826
▁persistent	-11.6827
▁submarine	-11.6827
▁opposers	-11.6827
▁Lau	-11.6829
▁Rang	-11.6831
bang	-11.6831
▁leak	-11.6838
▁145	-11.6838
▁surge	-11.6842
▁corners	-11.6845
▁meek	-11.6848
trained	-11.685
▁Ok	-11.6851
▁supplement	-11.6854
▁Philosophy	-11.6855
▁Sabbath	-11.6855
▁orientation	-11.6855
▁(2017)	-11.6855
▁amazed	-11.6855
▁Sherlock	-11.6855
Have	-11.6857
▁subahdar	-11.6857
▁shipping	-11.6857
▁Anyone	-11.6858
▁Shab	-11.686
▁Forget	-11.6861
▁Fla	-11.6863
▁pour	-11.6863
▁withdrawal	-11.6863
▁spoil	-11.6865
▁endangered	-11.6866
President	-11.6866
Good	-11.6868
▁Eye	-11.6869
▁documented	-11.6869
▁presenting	-11.687
▁crafts	-11.6872
oni	-11.6874
eau	-11.6875
▁36.	-11.6875
▁adverse	-11.6875
▁tire	-11.6876
ologists	-11.688
▁educationist	-11.6882
▁contend	-11.6883
▁Battalion	-11.6884
▁Umar	-11.6884
▁Uzbekistan	-11.6884
▁resentment	-11.6885
▁Ol	-11.6888
▁obeying	-11.6888
▁28.	-11.6889
▁Plain	-11.6889
▁consultation	-11.689
▁Upper	-11.689
▁prompt	-11.6891
▁shoulders	-11.6892
▁AFC	-11.6894
▁tro	-11.6895
:10)	-11.6895
3,000	-11.6898
▁Elders	-11.6899
▁assure	-11.69
▁delivering	-11.6901
▁scores	-11.6902
▁correction	-11.6902
▁damages	-11.6904
West	-11.6907
-32	-11.6908
▁worthless	-11.6908
▁identifying	-11.6909
▁sponsored	-11.6911
▁healed	-11.6912
▁irregular	-11.6913
▁neglected	-11.6914
sad	-11.6914
▁Benefit	-11.6914
▁GNU	-11.6914
▁compelled	-11.6914
▁ethics	-11.6914
▁Partition	-11.6915
charge	-11.6915
▁dialog	-11.6915
phon	-11.6916
▁loop	-11.6916
▁hardships	-11.6916
▁humor	-11.6917
▁tram	-11.6918
▁colours	-11.6919
▁Better	-11.6924
▁terrorists	-11.6926
▁Abdus	-11.6927
▁deter	-11.6927
▁Cambodian	-11.6929
▁IV	-11.6931
Ad	-11.6931
▁seasonal	-11.6932
▁Pasha	-11.6934
narayan	-11.6934
▁enterprises	-11.6935
▁Single	-11.6935
ema	-11.6935
trans	-11.6936
▁nerve	-11.6937
▁Bun	-11.6938
▁Alan	-11.6939
deva	-11.6939
▁grid	-11.6942
▁perish	-11.6943
▁Uruguay	-11.6944
▁diabetes	-11.6944
▁hockey	-11.6944
▁auction	-11.6944
▁Brasero	-11.6944
▁Ker	-11.6944
▁Generally	-11.6946
▁bha	-11.6947
▁Papua	-11.6949
▁Working	-11.695
▁Iron	-11.695
▁70%	-11.695
▁Certainly	-11.6952
▁advances	-11.6954
SL	-11.6954
▁1989,	-11.6958
▁ascertain	-11.6959
just	-11.696
▁2.0)	-11.6962
▁lectures	-11.6963
▁admits	-11.6963
▁Sum	-11.6964
▁Hit	-11.6966
▁occasional	-11.6968
▁Ready	-11.6969
space	-11.697
main	-11.6972
▁Susan	-11.6972
▁vs	-11.6973
▁uphold	-11.6973
▁Vienna	-11.6973
▁constituencies	-11.6973
▁presiding	-11.6973
▁sympathy	-11.6973
▁evaluation	-11.6974
▁drone	-11.6974
horn	-11.6974
▁Tomorrow	-11.6974
▁goats	-11.6974
▁plight	-11.6977
logy	-11.6977
▁subscription	-11.698
ston	-11.6984
!!!	-11.6984
00,000	-11.6985
Syria	-11.6986
Time	-11.6987
SF	-11.6987
▁Wild	-11.699
▁sentiments	-11.699
▁Lar	-11.699
▁competitions	-11.699
▁Jafar	-11.6991
Jas	-11.6991
▁1984.	-11.6995
▁Directors	-11.6997
▁secrets	-11.7
dian	-11.7001
▁bastard	-11.7003
▁chocolate	-11.7003
▁prosecution	-11.7003
▁essays	-11.7004
▁charitable	-11.7004
▁intercourse	-11.7004
▁Emmy	-11.7004
▁VAT	-11.7004
▁Tourism	-11.7005
source	-11.7009
▁downtown	-11.7009
tling	-11.7009
▁overwhelmed	-11.7009
▁accompany	-11.7009
▁Jin	-11.7011
later	-11.7013
▁Surya	-11.7013
▁layers	-11.7014
▁workshops	-11.7014
▁Aid	-11.7016
▁Toward	-11.7016
▁3:14	-11.7016
card	-11.7016
▁arises	-11.7021
▁10]	-11.7021
▁gatherings	-11.7021
flow	-11.7022
▁emotion	-11.7022
▁seize	-11.7024
▁screaming	-11.7024
rama	-11.7026
▁Algeria	-11.7027
▁Gang	-11.7029
▁Micro	-11.7029
tika	-11.7032
▁Czech	-11.7033
▁disobedience	-11.7033
▁Dakshin	-11.7033
▁Popular	-11.7033
▁healthcare	-11.7034
▁Democracy	-11.7035
▁Issue	-11.7038
▁Ezra	-11.7039
EP	-11.7039
▁mates	-11.7041
▁suppress	-11.7042
▁Mahal	-11.7045
▁amended	-11.7049
▁Weekly	-11.7051
▁Environmental	-11.7051
▁Vas	-11.7051
▁Sina	-11.7052
▁rude	-11.7052
cation	-11.7053
hil	-11.7053
Sm	-11.7054
▁Muk	-11.7055
▁1998.	-11.7057
▁Chau	-11.7059
▁virgin	-11.706
▁advocates	-11.706
▁FC	-11.706
eswar	-11.7062
sir	-11.7063
▁13:5	-11.7063
▁Hungary	-11.7063
▁Vivekananda	-11.7063
▁destructive	-11.7063
▁vitamin	-11.7063
▁Lucknow	-11.7063
eth	-11.7063
▁Bellamy	-11.7063
▁Antonio	-11.7064
asan	-11.7064
▁Mali	-11.7067
▁Season	-11.7068
▁jumped	-11.7069
atic	-11.7069
▁upbuilding	-11.7071
▁Dighi	-11.7072
bird	-11.7073
using	-11.7077
got	-11.7078
▁cons	-11.7078
RT	-11.7081
▁1902	-11.7081
▁26]	-11.7081
▁comp	-11.7085
▁complained	-11.7087
sho	-11.7089
▁translator	-11.7089
▁Py	-11.709
▁Jah	-11.7092
preliminary	-11.7093
▁Chakraborty	-11.7093
▁suspicious	-11.7093
▁examining	-11.7093
▁cheese	-11.7094
▁Preview	-11.7094
cid	-11.7095
▁monk	-11.7096
▁10:3	-11.7098
▁parking	-11.71
▁Hour	-11.71
▁Swami	-11.7102
▁Walk	-11.7103
people	-11.7105
▁portions	-11.7108
▁organise	-11.7109
▁apologize	-11.7109
▁modesty	-11.711
tas	-11.7111
▁von	-11.7113
▁Speaking	-11.7115
▁handful	-11.7116
▁Bahraini	-11.7117
-8)	-11.7117
▁2:10	-11.7118
▁Kenyan	-11.7119
▁Nat	-11.712
▁defines	-11.712
aa	-11.7122
▁hosting	-11.7122
▁rifle	-11.7124
▁Govt	-11.7124
▁praising	-11.7124
▁void	-11.7125
▁inland	-11.7125
▁editorial	-11.7127
700	-11.7128
unda	-11.7128
▁scan	-11.7129
rain	-11.7129
▁rises	-11.713
▁Judea	-11.7131
▁Nasir	-11.7131
▁deck	-11.7132
-35	-11.7133
cultural	-11.7133
▁Laos	-11.7134
pucca	-11.7135
Allow	-11.7137
▁quest	-11.7139
▁Lt	-11.7141
▁4:5	-11.7144
bak	-11.7144
▁Om	-11.7145
▁diploma	-11.7153
uka	-11.7154
lies	-11.7154
▁rebellious	-11.7154
▁sanctuary	-11.7154
▁urging	-11.7154
▁har	-11.7154
▁dollar	-11.7156
▁eminent	-11.7158
▁Tel	-11.7159
▁Ohio	-11.716
▁Physical	-11.716
▁1897	-11.7161
▁shy	-11.7162
▁den	-11.7165
osis	-11.7166
▁Abi	-11.7169
craft	-11.717
range	-11.717
▁stared	-11.7171
▁instituted	-11.7175
▁addressing	-11.7176
▁Less	-11.7179
size	-11.7181
hri	-11.7183
▁Anthony	-11.7184
▁proxy	-11.7184
▁43.	-11.7184
▁Pin	-11.7184
▁Operationally	-11.7185
▁envy	-11.7185
riya	-11.7186
▁Gay	-11.7187
▁emotionally	-11.7188
bia	-11.719
▁merged	-11.719
▁hardship	-11.719
WA	-11.7191
▁Las	-11.7196
chief	-11.7197
▁lecturer	-11.7197
IVE	-11.7198
▁defended	-11.7201
nut	-11.7202
▁eagerly	-11.7205
front	-11.7205
▁Goa	-11.721
▁Ages	-11.721
mid	-11.7212
▁Host	-11.7213
▁Films	-11.7213
▁Corinth	-11.7214
▁Argentine	-11.7215
▁Lincoln	-11.7215
▁Peshawar	-11.7215
▁occupies	-11.7215
▁Sierra	-11.7215
▁thrust	-11.7215
▁magnitude	-11.7215
▁shook	-11.7215
▁entrepreneurs	-11.7216
▁15]	-11.7217
▁duck	-11.7218
walk	-11.7218
▁favourite	-11.7219
▁travels	-11.722
▁Rum	-11.7221
▁tempted	-11.7222
▁Paulo	-11.7223
▁hip	-11.7224
▁recogniz	-11.7224
▁functional	-11.7225
▁justify	-11.7225
tech	-11.7228
▁Learning	-11.7231
▁accuse	-11.7232
▁Evening	-11.7234
▁Cop	-11.7237
pun	-11.7241
▁Critics	-11.7243
▁basket	-11.7245
▁meditating	-11.7245
▁innovation	-11.7245
▁Circle	-11.7247
▁occurring	-11.7247
▁Bath	-11.725
▁ie	-11.725
▁Folk	-11.7251
▁Hell	-11.7252
▁undertaking	-11.7252
▁upgraded	-11.7252
▁argues	-11.7258
▁consumed	-11.7258
▁Dom	-11.7258
tis	-11.7259
▁reserves	-11.7262
ndo	-11.7265
lying	-11.7265
▁AM	-11.7267
▁Protest	-11.7271
come	-11.7274
▁tens	-11.7275
▁Agreement	-11.7276
▁undoubtedly	-11.7276
▁fishermen	-11.7276
kanta	-11.7277
▁Interest	-11.7279
▁Morgan	-11.7279
▁subtle	-11.7281
▁mentioning	-11.7282
▁diamonds	-11.7283
▁relax	-11.7285
▁bite	-11.7286
second	-11.7288
▁Include	-11.7288
▁grains	-11.729
dars	-11.7295
make	-11.7295
▁shower	-11.7298
▁Ruler	-11.7299
mut	-11.7301
yev	-11.7302
▁essay	-11.7303
▁Christopher	-11.7307
▁achieving	-11.7307
▁Goldsmith	-11.7307
▁sauce	-11.7307
▁Performance	-11.7307
▁Pali	-11.7307
▁Darwin	-11.7307
▁torn	-11.7309
lak	-11.731
▁Edition	-11.7311
yang	-11.7313
▁Whi	-11.7313
▁Bed	-11.7314
-5)	-11.7316
▁instances	-11.7317
▁battles	-11.732
▁qualifying	-11.732
▁123	-11.7321
▁dismiss	-11.7324
▁Trial	-11.7326
▁dia	-11.7326
▁weird	-11.7329
founded	-11.733
▁NH	-11.733
▁Def	-11.7333
▁Kai	-11.7335
▁Kin	-11.7335
▁defending	-11.7335
oriented	-11.7337
▁dictator	-11.7337
▁Renaissance	-11.7338
▁ambition	-11.7338
▁assumption	-11.7338
▁Believe	-11.7338
▁mould	-11.7338
▁fibre	-11.7338
▁EU	-11.7339
▁Saving	-11.7339
▁bud	-11.734
▁obliged	-11.734
▁rating	-11.7344
▁147	-11.7345
break	-11.7347
chen	-11.7347
▁extinction	-11.7348
hill	-11.7349
▁Bibi	-11.7351
paid	-11.7353
▁cord	-11.7357
▁Match	-11.7357
▁Nal	-11.7358
▁34:1	-11.7358
hole	-11.7358
▁cab	-11.7359
▁teenagers	-11.7363
inous	-11.7364
vision	-11.7366
▁rejoicing	-11.7369
▁tabernacle	-11.7369
▁imitation	-11.7369
▁tolerance	-11.7369
▁allocation	-11.7369
▁valued	-11.737
▁franchise	-11.7371
▁replacement	-11.7372
▁Grail	-11.7373
▁surgeon	-11.7374
▁jar	-11.7374
▁bleeding	-11.7376
▁impress	-11.7376
▁(30	-11.7379
▁meets	-11.7379
▁depart	-11.7381
▁Himalayas	-11.7384
▁Clo	-11.7385
▁disposed	-11.7388
▁homeless	-11.7391
▁12:3	-11.7394
▁Jab	-11.7395
▁Mala	-11.7395
▁guitar	-11.7395
▁nationality	-11.7396
then	-11.7399
.7%	-11.7399
▁incentive	-11.74
▁aftermath	-11.74
▁15%	-11.74
▁issuing	-11.74
▁Mano	-11.7401
tag	-11.7401
▁Canal	-11.7402
▁Horse	-11.7402
▁Annual	-11.7402
▁boost	-11.7402
▁punishable	-11.7403
▁Site	-11.7409
▁1975.	-11.741
▁viewers	-11.7411
bie	-11.7411
▁tortured	-11.7411
▁outward	-11.7411
ame	-11.7411
▁Tat	-11.7411
mbr	-11.7412
nas	-11.7413
▁vine	-11.7413
kur	-11.7414
▁dr	-11.7417
▁install	-11.7418
▁goat	-11.7419
▁Bru	-11.7427
▁butter	-11.7428
▁Gro	-11.743
▁Admiral	-11.7431
▁Index	-11.7431
▁geography	-11.7431
▁interpret	-11.7432
obi	-11.7432
friend	-11.7432
▁Daddy	-11.7434
▁Shall	-11.7436
▁hydro	-11.7439
▁protective	-11.7439
▁beam	-11.7441
▁25)	-11.7441
▁accurately	-11.7442
▁Isn	-11.7442
▁respects	-11.7442
ksha	-11.7442
▁exhausted	-11.7443
▁23:2	-11.7443
ncy	-11.7444
wed	-11.7444
▁Mason	-11.7449
▁shouted	-11.7449
▁Share	-11.7451
any	-11.7451
stead	-11.7451
▁confess	-11.7452
▁Katha	-11.7452
yi	-11.7453
mil	-11.7456
▁Shuja	-11.7456
Car	-11.7456
▁slight	-11.7457
▁happily	-11.7462
▁ungodly	-11.7462
▁16:1	-11.7462
▁barrel	-11.7462
▁unhappy	-11.7463
▁disposition	-11.7463
▁chittagong	-11.7464
Si	-11.7464
▁minorities	-11.7464
▁continually	-11.7465
ises	-11.7466
▁Ghazi	-11.7468
▁shake	-11.7468
▁spark	-11.7469
▁crowned	-11.7469
▁lap	-11.7471
▁Sham	-11.7472
ctic	-11.7473
▁Lam	-11.7473
East	-11.7476
▁CA	-11.7478
Ki	-11.7478
▁Tool	-11.7479
▁policemen	-11.748
eli	-11.7481
▁marched	-11.7482
▁Gol	-11.7484
▁Mama	-11.7484
lived	-11.7485
bbing	-11.7487
▁143	-11.7487
▁Fan	-11.749
▁teenage	-11.7491
▁likened	-11.7492
▁Companies	-11.7493
▁Style	-11.7494
▁casualties	-11.7494
▁Bahini	-11.7494
pore	-11.7496
▁morally	-11.7496
iva	-11.7497
▁Permanent	-11.7497
▁surrendered	-11.7497
▁6:6	-11.7498
CO	-11.7499
▁rst	-11.7501
▁Brand	-11.7502
▁smiled	-11.7504
▁14:2	-11.7506
Chancellor	-11.7506
English	-11.7506
number	-11.7507
▁scr	-11.7509
▁decreased	-11.7514
UT	-11.7514
Shi	-11.7516
▁Similar	-11.7516
▁Ross	-11.7517
formed	-11.7518
▁dirt	-11.7518
vat	-11.7519
▁Pari	-11.752
▁Manag	-11.7524
uel	-11.7525
▁Suddenly	-11.7525
▁possibilities	-11.7525
▁Medina	-11.7525
▁pension	-11.7526
▁Nisan	-11.7526
Bar	-11.7526
▁cooperative	-11.7526
▁din	-11.7527
▁statues	-11.7527
▁availability	-11.7528
wali	-11.7528
▁outline	-11.7531
▁Chen	-11.7533
▁Made	-11.7533
hap	-11.7536
▁SC	-11.7536
▁Bye	-11.7537
rik	-11.7537
white	-11.7538
▁3:10	-11.7539
▁blend	-11.7541
▁sparked	-11.7544
▁Bagh	-11.7545
▁precise	-11.7547
AK	-11.7549
▁appealed	-11.755
▁Reg	-11.7551
ARY	-11.7552
▁2:16	-11.7552
▁Millions	-11.7552
▁castes	-11.7555
▁des	-11.7556
▁avoiding	-11.7556
▁proprietor	-11.7556
▁applicant	-11.7556
▁graduating	-11.7556
▁illusion	-11.7556
▁intensity	-11.7556
▁umbrella	-11.7556
▁clerk	-11.7556
▁stitch	-11.7557
▁ISIS	-11.7557
▁prosperous	-11.7557
▁Silver	-11.7557
▁confidential	-11.7558
▁navigation	-11.756
▁Labor	-11.7561
▁Zephaniah	-11.7562
▁Hum	-11.7562
▁1898	-11.7564
▁monarchy	-11.7565
self	-11.7567
▁contracts	-11.7568
San	-11.757
guard	-11.7571
father	-11.7572
▁Dha	-11.7572
▁Kak	-11.7574
▁locate	-11.7574
▁mortal	-11.7575
▁suggesting	-11.7578
▁differently	-11.7581
▁experimental	-11.7583
▁dug	-11.7586
▁integral	-11.7588
▁ninth	-11.7588
▁Kurdish	-11.7588
▁timber	-11.7588
▁Baptist	-11.7588
▁sink	-11.7589
▁console	-11.7589
tsu	-11.7589
▁yard	-11.7591
ikh	-11.7591
▁nu	-11.7591
▁Wind	-11.7594
PR	-11.7595
▁interaction	-11.7595
▁establishments	-11.7596
▁pronounced	-11.7597
▁arrests	-11.7599
▁divorced	-11.76
▁60%	-11.7601
After	-11.7601
TER	-11.7602
▁°	-11.7602
IV	-11.7602
ahi	-11.7603
▁Publications	-11.7604
▁senses	-11.7605
▁exercises	-11.7606
▁episodes	-11.7608
SD	-11.7619
▁animated	-11.7619
▁sanitation	-11.762
▁transparency	-11.762
▁steadfast	-11.762
▁thunder	-11.762
▁vicious	-11.762
▁retail	-11.762
▁Round	-11.7622
▁blocking	-11.7624
▁fraction	-11.7626
vocation	-11.7629
▁9:3	-11.7629
▁ash	-11.7629
first	-11.7633
▁troubles	-11.7633
preaching	-11.7634
▁persist	-11.7635
▁SE	-11.7635
▁1:14	-11.7636
wani	-11.7638
Te	-11.7639
▁maintains	-11.7641
gas	-11.7643
Mr	-11.7643
-13)	-11.7644
chang	-11.7647
▁assess	-11.7648
▁heir	-11.7648
▁1:11	-11.7649
▁Alexandria	-11.765
imi	-11.7651
▁fertility	-11.7652
▁rehabilitation	-11.7652
▁wildlife	-11.7652
stop	-11.7656
▁revised	-11.7656
▁Amendment	-11.7656
bridge	-11.7657
▁3:19	-11.7657
▁venue	-11.7658
▁verbal	-11.7659
mination	-11.766
▁1890	-11.766
▁pad	-11.7661
otic	-11.7661
▁Pray	-11.7661
pm	-11.7662
▁Mura	-11.7665
▁accountable	-11.7665
Happy	-11.7665
mother	-11.7665
▁Dor	-11.7667
▁18)	-11.7672
▁soup	-11.7674
▁lust	-11.7674
▁swift	-11.7674
▁prop	-11.7675
▁lesser	-11.7675
▁seeks	-11.7678
▁Madagascar	-11.7684
▁WITH	-11.7684
▁embark	-11.7684
▁inception	-11.7684
▁harbor	-11.7684
▁Sexual	-11.7684
zing	-11.7684
▁circumcision	-11.7685
▁Level	-11.7686
▁medication	-11.7687
tty	-11.7688
▁signals	-11.7688
▁laughed	-11.7689
▁undergraduate	-11.769
▁Golam	-11.769
▁139	-11.7691
▁Example	-11.7691
lle	-11.7691
▁2015-16	-11.7693
▁tactics	-11.7694
▁canals	-11.7698
NT	-11.7699
▁numbered	-11.7699
▁Jana	-11.77
▁tam	-11.7702
aver	-11.7704
▁pressing	-11.771
▁Paper	-11.7711
▁smallest	-11.7711
ERS	-11.7711
:5)	-11.7714
▁bullets	-11.7714
▁Rid	-11.7714
▁Standing	-11.7716
▁artillery	-11.7716
▁hypocrisy	-11.7716
▁blade	-11.7716
▁Speech	-11.7716
▁(1992)	-11.7716
▁Hurry	-11.7717
▁ladies	-11.7717
▁2014-15	-11.7721
nis	-11.7723
▁Become	-11.7724
▁betray	-11.7724
mos	-11.7725
▁30,000	-11.7727
▁temperatures	-11.7729
issa	-11.773
▁1990,	-11.7731
▁migrant	-11.7732
▁therein	-11.7732
▁delayed	-11.7733
makers	-11.7733
0;	-11.7735
▁1903	-11.7736
rava	-11.7737
lish	-11.7737
▁lighting	-11.774
Tri	-11.7743
ddy	-11.7743
▁nights	-11.7746
▁AT	-11.7746
▁robot	-11.7747
▁Category	-11.7748
▁quantities	-11.7748
desh	-11.7749
▁recruitment	-11.7749
ito	-11.7749
▁frustrated	-11.775
▁Cooperation	-11.775
▁holder	-11.7752
▁Baha	-11.7753
▁rejection	-11.7754
-37	-11.7755
▁Abdel	-11.7756
▁modify	-11.7756
▁bang	-11.7758
▁tale	-11.776
▁Comment	-11.7761
iko	-11.7761
▁15:4	-11.7762
▁stealing	-11.7762
▁Banu	-11.7764
▁Chakma	-11.7765
▁rewarding	-11.7765
▁halls	-11.7767
uro	-11.7768
▁forgiving	-11.7769
:12)	-11.777
▁Nay	-11.7771
what	-11.7772
▁plum	-11.7774
▁clash	-11.7775
▁malaria	-11.7776
▁Roll	-11.7779
▁Vin	-11.7779
▁Pashtun	-11.778
▁Tournament	-11.778
▁aesthetic	-11.778
▁fountain	-11.778
▁replacing	-11.778
▁indigo	-11.778
▁Adi	-11.7781
▁congress	-11.7781
▁findings	-11.7781
titude	-11.7784
▁translators	-11.7785
▁ir	-11.7786
Par	-11.7786
▁Continue	-11.7787
Arab	-11.7787
▁animation	-11.7788
▁Carr	-11.779
▁pillar	-11.779
▁Person	-11.7791
▁proves	-11.7791
▁Sure	-11.7793
▁10;	-11.7794
▁tombs	-11.7797
▁47.	-11.7798
▁Dig	-11.7803
▁packed	-11.7803
▁Comments	-11.7804
third	-11.7805
▁Examples	-11.7805
▁1:9	-11.7805
▁independently	-11.7806
▁boot	-11.7808
▁350	-11.7808
▁bint	-11.7812
▁chariot	-11.7812
▁deciding	-11.7812
▁flew	-11.7813
▁Lane	-11.7813
▁Dear	-11.7816
▁considerably	-11.7817
▁inactive	-11.7819
TR	-11.7821
▁enterprise	-11.7822
▁kar	-11.7822
▁chandra	-11.7825
▁pink	-11.7826
▁1885	-11.7826
▁incite	-11.7829
rey	-11.7831
▁Mt	-11.7832
▁node	-11.7833
▁shouting	-11.7836
▁jailed	-11.7837
▁Deva	-11.7838
▁Johnson	-11.784
▁delegate	-11.7841
sex	-11.7841
▁Shak	-11.7841
cl	-11.7843
▁glimpse	-11.7845
▁refusal	-11.7845
▁ultra	-11.7845
zon	-11.7846
▁disagreement	-11.7846
▁trusting	-11.785
▁cricketers	-11.7852
cell	-11.7853
▁Electronic	-11.7855
▁drag	-11.786
▁um	-11.7861
▁Knowing	-11.7861
▁Bengalis	-11.7861
▁retrieve	-11.7863
▁perceive	-11.7863
▁resume	-11.7863
eva	-11.7869
film	-11.7873
ike	-11.7873
▁Singer	-11.7874
▁displays	-11.7874
▁womb	-11.7877
amba	-11.7878
▁predecessor	-11.7878
▁Beginning	-11.7878
ille	-11.7878
▁refusing	-11.7878
▁misery	-11.7879
▁devastated	-11.7879
▁neutrality	-11.7881
▁polar	-11.7883
▁Norman	-11.7883
▁124	-11.7884
▁Desh	-11.7884
▁identifie	-11.7885
▁Chang	-11.7885
▁upload	-11.7886
▁threaten	-11.7886
▁militant	-11.7888
▁nowhere	-11.7891
▁regain	-11.7892
▁fare	-11.7893
▁1982,	-11.7894
▁Bet	-11.7894
▁Purana	-11.7897
▁zealously	-11.7898
▁Dean	-11.7898
DE	-11.7898
▁Doha	-11.7899
▁Shyam	-11.7899
fat	-11.7905
▁Teachers	-11.7905
▁ate	-11.791
▁liberty	-11.791
[...]
